<unk>	0
en	-0
es	-1
▁d	-2
▁p	-3
▁s	-4
er	-5
▁a	-6
▁c	-7
▁de	-8
▁m	-9
ue	-10
ar	-11
▁l	-12
do	-13
▁es	-14
▁q	-15
an	-16
ent	-17
as	-18
os	-19
▁t	-20
un	-21
▁que	-22
on	-23
or	-24
▁e	-25
▁h	-26
re	-27
ci	-28
▁n	-29
▁un	-30
in	-31
ta	-32
da	-33
▁la	-34
▁en	-35
▁el	-36
▁v	-37
ente	-38
▁y	-39
ra	-40
om	-41
to	-42
al	-43
▁ha	-44
la	-45
is	-46
▁con	-47
▁no	-48
▁su	-49
▁se	-50
▁al	-51
te	-52
▁si	-53
mente	-54
▁par	-55
ro	-56
go	-57
▁f	-58
ien	-59
▁est	-60
▁b	-61
▁mi	-62
ía	-63
▁com	-64
▁me	-65
▁por	-66
lo	-67
ón	-68
ando	-69
ero	-70
le	-71
▁lo	-72
ec	-73
ás	-74
▁o	-75
ic	-76
▁una	-77
era	-78
▁re	-79
mp	-80
de	-81
Es	-82
ui	-83
▁para	-84
am	-85
di	-86
ti	-87
ab	-88
▁in	-89
▁so	-90
▁cu	-91
▁r	-92
ado	-93
oc	-94
▁como	-95
us	-96
ué	-97
mi	-98
ch	-99
▁¿	-100
No	-101
bi	-102
▁más	-103
ción	-104
▁g	-105
ez	-106
o▁de	-107
▁S	-108
ada	-109
me	-110
▁des	-111
ir	-112
a▁de	-113
▁ella	-114
il	-115
▁pero	-116
odo	-117
se	-118
▁mu	-119
▁hac	-120
▁está	-121
cu	-122
▁H	-123
ida	-124
▁as	-125
▁pue	-126
ras	-127
ento	-128
tra	-129
▁di	-130
▁los	-131
▁ser	-132
▁las	-133
aj	-134
ri	-135
▁esta	-136
gun	-137
ana	-138
tar	-139
El	-140
gu	-141
mos	-142
que	-143
ma	-144
mo	-145
vi	-146
res	-147
▁esto	-148
iz	-149
▁tan	-150
ens	-151
▁eso	-152
▁i	-153
▁mis	-154
▁hab	-155
ante	-156
▁ex	-157
▁ti	-158
o▁que	-159
tr	-160
▁ten	-161
ol	-162
▁an	-163
▁ent	-164
▁todo	-165
tes	-166
uer	-167
▁pre	-168
▁algo	-169
cia	-170
▁man	-171
▁ver	-172
én	-173
▁L	-174
emp	-175
bre	-176
▁sus	-177
▁vez	-178
▁del	-179
od	-180
▁un▁p	-181
uen	-182
ko	-183
▁tra	-184
ill	-185
▁le	-186
▁lo▁que	-187
▁M	-188
ca	-189
án	-190
,▁¿	-191
▁así	-192
▁pas	-193
ece	-194
▁per	-195
pi	-196
tu	-197
oco	-198
▁solo	-199
▁Es	-200
tro	-201
▁pro	-202
ues	-203
▁bien	-204
amente	-205
ora	-206
▁hacer	-207
qui	-208
ble	-209
▁te	-210
almente	-211
anako	-212
iendo	-213
▁ac	-214
▁j	-215
▁ap	-216
▁son	-217
▁res	-218
las	-219
▁de▁la	-220
illy	-221
▁mí	-222
▁qué	-223
ún	-224
▁Sh	-225
▁deci	-226
une	-227
izune	-228
gar	-229
ba	-230
▁pens	-231
▁P	-232
▁esc	-233
▁qui	-234
ambi	-235
▁int	-236
▁en▁el	-237
▁E	-238
idad	-239
dad	-240
Ella	-241
▁puedo	-242
Rin	-243
lar	-244
▁sin	-245
▁A	-246
pon	-247
ver	-248
▁sal	-249
▁ah	-250
▁¡	-251
▁estu	-252
▁esp	-253
▁estoy	-254
ría	-255
entras	-256
▁ar	-257
ha	-258
ten	-259
▁pod	-260
▁sobre	-261
▁sent	-262
▁yo	-263
▁cos	-264
▁parece	-265
▁ma	-266
▁comp	-267
oy	-268
▁tiemp	-269
ándo	-270
▁hacia	-271
▁ca	-272
asi	-273
ica	-274
▁a▁la	-275
qu	-276
▁Lilly	-277
▁muy	-278
▁antes	-279
▁Hanako	-280
cion	-281
▁que▁no	-282
isa	-283
▁Shizune	-284
De	-285
▁No	-286
▁tien	-287
▁cuando	-288
▁un▁poco	-289
ac	-290
ido	-291
ech	-292
▁much	-293
▁cre	-294
▁desp	-295
▁hay	-296
▁decir	-297
▁estar	-298
uel	-299
▁deb	-300
endo	-301
erm	-302
ran	-303
el	-304
▁de▁que	-305
▁dis	-306
ces	-307
ueno	-308
▁pregun	-309
▁nos	-310
tante	-311
▁tiempo	-312
quí	-313
jo	-314
isha	-315
▁lu	-316
▁hace	-317
▁en▁la	-318
io	-319
tiv	-320
▁li	-321
▁tom	-322
tas	-323
▁mientras	-324
ici	-325
▁como▁si	-326
ambién	-327
▁ab	-328
▁aquí	-329
mb	-330
ier	-331
amos	-332
ación	-333
▁ve	-334
tos	-335
der	-336
Me	-337
▁Rin	-338
▁he	-339
das	-340
jos	-341
zo	-342
ués	-343
▁men	-344
▁imp	-345
▁T	-346
chan	-347
eces	-348
ce	-349
arme	-350
▁tu	-351
lemente	-352
ve	-353
icchan	-354
a▁a	-355
dos	-356
▁cam	-357
▁cor	-358
En	-359
▁for	-360
onces	-361
▁sab	-362
▁ahora	-363
▁Emi	-364
▁inc	-365
ión	-366
▁nada	-367
~!	-368
▁la▁p	-369
ías	-370
▁también	-371
▁este	-372
La	-373
▁cab	-374
co	-375
ería	-376
ga	-377
ara	-378
▁lle	-379
▁mom	-380
vo	-381
▁cosas	-382
▁Y	-383
▁ya	-384
Por	-385
tamente	-386
▁Misha	-387
Qué	-388
des	-389
go▁que	-390
eres	-391
▁ir	-392
tros	-393
ómo	-394
▁ra	-395
cil	-396
ño	-397
▁pe	-398
up	-399
rada	-400
▁vi	-401
▁dej	-402
▁estudi	-403
▁pers	-404
▁menos	-405
dar	-406
▁dif	-407
tor	-408
▁pr	-409
los	-410
▁siento	-411
▁fu	-412
▁podría	-413
▁vuel	-414
▁mej	-415
Un	-416
▁algun	-417
▁después	-418
▁ch	-419
.▁¿	-420
▁bas	-421
▁dos	-422
▁C	-423
uego	-424
ren	-425
▁person	-426
echo	-427
▁vis	-428
Pero	-429
ermin	-430
▁du	-431
enci	-432
pa	-433
▁ay	-434
unque	-435
▁haber	-436
isao	-437
▁mucho	-438
▁así▁que	-439
si	-440
rar	-441
▁pa	-442
ciendo	-443
▁no▁es	-444
uela	-445
▁clas	-446
▁momento	-447
▁otra	-448
▁cual	-449
za	-450
▁lugar	-451
▁exp	-452
▁camin	-453
▁rá	-454
▁sea	-455
▁sé	-456
rim	-457
▁segu	-458
▁entre	-459
▁todos	-460
▁car	-461
ajo	-462
▁has	-463
▁escuela	-464
▁ni	-465
fici	-466
▁mal	-467
con	-468
▁mejor	-469
olo	-470
lus	-471
▁realmente	-472
éndo	-473
▁sor	-474
Sí	-475
▁fue	-476
entos	-477
e▁de	-478
tado	-479
eza	-480
▁nues	-481
▁mismo	-482
▁ojos	-483
▁dem	-484
▁trab	-485
▁tiene	-486
Bueno	-487
▁bastante	-488
til	-489
▁verdad	-490
par	-491
▁sil	-492
▁estaba	-493
▁termin	-494
uerta	-495
van	-496
▁fr	-497
ciones	-498
ros	-499
?▁¿	-500
pues	-501
to▁de	-502
▁cuent	-503
▁en▁su	-504
▁ob	-505
▁cer	-506
▁estudian	-507
▁sí	-508
o▁es	-509
▁tal	-510
tando	-511
▁sonr	-512
ul	-513
Su	-514
▁de▁su	-515
▁creo▁que	-516
▁otro	-517
dor	-518
tin	-519
je	-520
gui	-521
▁Hisao	-522
ocup	-523
▁fin	-524
▁pensar	-525
▁día	-526
▁ese	-527
▁hom	-528
gún	-529
▁hu	-530
▁us	-531
▁esa	-532
▁dic	-533
▁mano	-534
▁sorp	-535
Si	-536
bab	-537
zón	-538
▁puede	-539
▁estado	-540
pongo▁que	-541
luso	-542
▁porque	-543
▁casi	-544
▁tengo	-545
▁emp	-546
▁pal	-547
aja	-548
▁fuera	-549
unca	-550
tá	-551
▁mo	-552
▁cómo	-553
▁que▁me	-554
▁ayu	-555
▁pon	-556
▁cabeza	-557
▁tanto	-558
▁Hicchan	-559
pe	-560
argo	-561
▁nue	-562
▁de▁mi	-563
Mi	-564
lan	-565
▁to	-566
Qui	-567
arse	-568
entro	-569
▁simp	-570
osi	-571
▁lado	-572
▁gus	-573
▁manera	-574
▁pi	-575
▁enf	-576
▁preocup	-577
uto	-578
ay	-579
▁tar	-580
▁en▁mi	-581
can	-582
▁hasta	-583
▁cal	-584
▁impor	-585
tic	-586
▁extra	-587
▁por▁un	-588
▁buen	-589
▁parte	-590
▁intent	-591
▁é	-592
▁forma	-593
▁por▁el	-594
guien	-595
és	-596
▁ros	-597
▁siente	-598
▁sentir	-599
▁neces	-600
o▁a	-601
▁ci	-602
gn	-603
Ah	-604
▁comple	-605
▁que▁se	-606
▁antes▁de	-607
bablemente	-608
▁quiero	-609
▁entonces	-610
ru	-611
Emi	-612
quier	-613
▁silenci	-614
lti	-615
▁conse	-616
ki	-617
▁luego	-618
▁tener	-619
sí	-620
empre	-621
▁que▁ella	-622
▁tip	-623
▁habi	-624
▁están	-625
tan	-626
cias	-627
ia	-628
tura	-629
rec	-630
cuch	-631
▁reg	-632
dido	-633
ta▁de	-634
pida	-635
▁hablar	-636
▁alguien	-637
▁Me	-638
▁hecho	-639
ones	-640
▁ide	-641
▁N	-642
▁cas	-643
▁prim	-644
ña	-645
ter	-646
▁cier	-647
Oh	-648
oz	-649
▁dor	-650
▁después▁de	-651
trás	-652
▁da	-653
ig	-654
▁debería	-655
aría	-656
▁“	-657
ena	-658
▁pes	-659
▁señ	-660
▁fuer	-661
quiera	-662
▁noso	-663
▁desde	-664
bro	-665
cuer	-666
▁ú	-667
por	-668
▁asi	-669
▁seguro	-670
▁por▁la	-671
▁estás	-672
alidad	-673
▁bueno	-674
iste	-675
▁vuelta	-676
▁palab	-677
omo	-678
▁él	-679
▁jun	-680
va	-681
as▁de	-682
▁rostro	-683
os▁de	-684
Des	-685
▁ag	-686
oles	-687
▁modo	-688
emos	-689
tras	-690
▁era	-691
é▁que	-692
▁y▁me	-693
iens	-694
tación	-695
▁conf	-696
▁ta	-697
▁esper	-698
oso	-699
ja	-700
▁últi	-701
asiado	-702
▁haciendo	-703
▁dormi	-704
ícil	-705
▁peque	-706
In	-707
toy	-708
mas	-709
▁gran	-710
den	-711
nos	-712
▁qu	-713
▁pres	-714
▁escuch	-715
▁difícil	-716
du	-717
▁algún	-718
if	-719
▁estuvi	-720
▁De	-721
▁apar	-722
▁en▁un	-723
▁con▁la	-724
▁pero▁no	-725
entemente	-726
lu	-727
▁tú	-728
ándose	-729
tonces	-730
▁nuevo	-731
ándome	-732
▁sería	-733
▁comien	-734
▁vol	-735
tal	-736
reo▁que	-737
▁simplemente	-738
▁gente	-739
▁cuenta▁de	-740
to▁a	-741
▁Si	-742
bros	-743
▁aún	-744
▁quer	-745
▁ro	-746
▁nosotros	-747
eg	-748
▁nunca	-749
ico	-750
▁rec	-751
▁contra	-752
ar▁a	-753
▁levan	-754
▁mirada	-755
▁toda	-756
Al	-757
!▁¡	-758
Una	-759
▁na	-760
▁af	-761
▁consejo	-762
▁rápida	-763
▁sorpren	-764
▁cualquier	-765
tir	-766
▁Pero	-767
▁siquiera	-768
▁ju	-769
▁soy	-770
▁ven	-771
ina	-772
▁pu	-773
▁medi	-774
▁moles	-775
eras	-776
▁inter	-777
▁con▁el	-778
ados	-779
▁doy	-780
▁sido	-781
▁piens	-782
▁necesi	-783
▁br	-784
▁mes	-785
▁proble	-786
Lo	-787
eci	-788
entes	-789
racias	-790
▁va	-791
Se	-792
vers	-793
▁voz	-794
▁había	-795
▁lla	-796
▁misma	-797
▁am	-798
▁encon	-799
▁alguna	-800
Sh	-801
▁tipo▁de	-802
▁a▁mi	-803
▁ocu	-804
▁que▁la	-805
▁estudiantil	-806
▁all	-807
▁hubi	-808
▁emb	-809
▁rep	-810
▁demasiado	-811
▁segun	-812
pido	-813
▁posi	-814
al▁vez	-815
orm	-816
▁mañ	-817
bl	-818
per	-819
▁La	-820
no	-821
ios	-822
iene	-823
rede	-824
▁cambi	-825
▁silencio	-826
▁la▁puerta	-827
▁cada	-828
▁veces	-829
▁sufici	-830
▁consejo▁estudiantil	-831
▁ún	-832
arla	-833
▁Ella	-834
▁razón	-835
▁regres	-836
▁incluso	-837
▁realidad	-838
Cu	-839
▁salón	-840
▁clase	-841
▁habitación	-842
onto	-843
tener	-844
erto	-845
▁encu	-846
▁tran	-847
resión	-848
▁pregunto	-849
▁es▁una	-850
▁persona	-851
▁alrede	-852
▁En	-853
▁or	-854
▁hoy	-855
▁vida	-856
▁probablemente	-857
lando	-858
▁siempre	-859
Así	-860
Por▁qué	-861
▁hacerlo	-862
Entonces	-863
Con	-864
▁ahí	-865
▁manos	-866
▁aunque	-867
▁embargo	-868
uerzo	-869
▁y▁se	-870
▁trabaj	-871
▁Su	-872
odas	-873
▁ins	-874
▁pun	-875
▁consi	-876
trar	-877
▁ami	-878
Hanako	-879
▁El	-880
▁propi	-881
tun	-882
ista	-883
▁can	-884
▁mañana	-885
▁go	-886
▁sa	-887
▁nin	-888
illo	-889
▁alm	-890
▁dice	-891
▁difer	-892
ak	-893
pec	-894
▁pin	-895
éndose	-896
▁mente	-897
▁respues	-898
▁no▁puedo	-899
ola	-900
Eso	-901
▁cosa	-902
ur	-903
▁palabras	-904
ar▁el	-905
a▁del	-906
▁fa	-907
▁escri	-908
▁todas	-909
ven	-910
▁ol	-911
,▁¡	-912
▁mira	-913
▁se▁siente	-914
▁ad	-915
▁pueda	-916
▁supon	-917
▁en▁una	-918
vía	-919
▁de▁las	-920
▁rápidamente	-921
ían	-922
ando▁a	-923
▁saber	-924
▁respon	-925
▁como▁un	-926
uu	-927
oca	-928
Está	-929
▁dir	-930
▁rela	-931
Shizune	-932
▁frente	-933
▁que▁el	-934
▁alrededor	-935
▁bra	-936
▁tarde	-937
añ	-938
íe	-939
car	-940
enta	-941
Lilly	-942
▁comen	-943
▁parec	-944
po	-945
kira	-946
▁de▁mí	-947
▁trabajo	-948
ami	-949
▁evi	-950
gos	-951
guir	-952
▁a▁mí	-953
▁cons	-954
zar	-955
▁no▁me	-956
ír	-957
qué	-958
▁fal	-959
gue	-960
▁sens	-961
▁mar	-962
▁de▁los	-963
▁serio	-964
▁por▁su	-965
▁y▁yo	-966
▁fi	-967
uuko	-968
▁lig	-969
▁de▁un	-970
▁no▁lo	-971
▁quier	-972
adamente	-973
▁pregunta	-974
▁de▁lo▁que	-975
yor	-976
▁gol	-977
▁mir	-978
▁corr	-979
▁clases	-980
▁que▁lo	-981
▁personas	-982
▁respuesta	-983
onde	-984
▁acer	-985
▁maes	-986
▁mayor	-987
▁puerta	-988
ales	-989
ácil	-990
▁co	-991
▁ce	-992
▁a▁su	-993
▁toma	-994
▁estuviera	-995
ónde	-996
▁y▁la	-997
cuerdo	-998
▁sonrisa	-999
Solo	-1000
▁recor	-1001
▁puedes	-1002
▁al▁menos	-1003
gnif	-1004
arece	-1005
▁fácil	-1006
▁fel	-1007
▁cuer	-1008
▁enferm	-1009
ye	-1010
man	-1011
▁dur	-1012
▁sentido	-1013
▁expresión	-1014
▁dar	-1015
▁haya	-1016
▁noch	-1017
▁pronto	-1018
▁rápido	-1019
osa	-1020
▁mue	-1021
▁días	-1022
miento	-1023
▁se▁ve	-1024
vés	-1025
undo	-1026
▁cierto	-1027
usto	-1028
▁acab	-1029
▁tienes	-1030
dr	-1031
fec	-1032
▁poco	-1033
Te	-1034
Estoy	-1035
▁donde	-1036
im	-1037
▁tomar	-1038
▁con▁una	-1039
▁con▁su	-1040
▁que▁es	-1041
blemente	-1042
die	-1043
tiendo	-1044
▁dejar	-1045
▁señas	-1046
▁que▁yo	-1047
▁través	-1048
ualmente	-1049
▁gen	-1050
▁veo	-1051
▁arre	-1052
ento▁de	-1053
▁ayudar	-1054
dre	-1055
olor	-1056
pera	-1057
mpoco	-1058
▁signif	-1059
▁por▁qué	-1060
▁tranqui	-1061
▁sol	-1062
▁pasado	-1063
▁convers	-1064
ál	-1065
ion	-1066
encia	-1067
▁de▁a	-1068
▁buena	-1069
▁golpe	-1070
enas	-1071
ajaja	-1072
▁direc	-1073
▁enten	-1074
▁abs	-1075
▁clar	-1076
▁sensación	-1077
vor	-1078
▁Por	-1079
▁pier	-1080
▁comida	-1081
▁espera	-1082
Sin	-1083
uedo	-1084
▁Shicchan	-1085
▁completamente	-1086
ji	-1087
bil	-1088
gas	-1089
zás	-1090
▁hor	-1091
▁eso▁es	-1092
mag	-1093
▁té	-1094
Quiero	-1095
um	-1096
dir	-1097
▁po	-1098
▁ante	-1099
▁ade	-1100
▁llam	-1101
▁hubiera	-1102
▁sobre▁el	-1103
▁las▁cosas	-1104
for	-1105
Desp	-1106
▁llev	-1107
▁rato	-1108
▁poder	-1109
Inc	-1110
cer	-1111
▁ll	-1112
rado	-1113
▁como▁una	-1114
▁con▁ella	-1115
~!▁¡	-1116
▁arte	-1117
Después	-1118
▁con▁un	-1119
entamente	-1120
▁preguntar	-1121
▁min	-1122
▁idea	-1123
▁norm	-1124
▁estudiantes	-1125
aba	-1126
ibl	-1127
ca▁de	-1128
▁Solo	-1129
▁a▁un	-1130
▁favor	-1131
▁quiere	-1132
cido	-1133
mbos	-1134
▁ref	-1135
▁tal▁vez	-1136
▁suficiente	-1137
▁hech	-1138
▁quien	-1139
damente	-1140
más	-1141
▁desa	-1142
▁final	-1143
tención	-1144
Oye	-1145
▁han	-1146
▁chic	-1147
▁movi	-1148
▁Akira	-1149
Así▁que	-1150
Creo▁que	-1151
Ya	-1152
Ken	-1153
Kenji	-1154
▁lleg	-1155
▁antes▁de▁que	-1156
ej	-1157
tido	-1158
▁eres	-1159
▁chica	-1160
▁pesar	-1161
Re	-1162
tás	-1163
▁fes	-1164
▁voy	-1165
▁gusta	-1166
▁por▁eso	-1167
able	-1168
dado	-1169
▁bus	-1170
Cuando	-1171
oco▁de	-1172
▁última	-1173
▁estamos	-1174
na	-1175
▁gr	-1176
▁uno	-1177
ma▁de	-1178
▁asiente	-1179
▁otra▁vez	-1180
…▁¿	-1181
▁ri	-1182
▁gra	-1183
torio	-1184
▁imag	-1185
▁de▁una	-1186
▁festiv	-1187
▁comienz	-1188
▁más▁que	-1189
▁almuerzo	-1190
▁de▁Lilly	-1191
Supongo▁que	-1192
Yo	-1193
ual	-1194
Misha	-1195
▁arri	-1196
Aunque	-1197
cierto	-1198
▁pensando	-1199
tón	-1200
erte	-1201
▁sac	-1202
▁y▁a	-1203
taría	-1204
puesto	-1205
▁contin	-1206
▁de▁ella	-1207
▁todavía	-1208
▁enfermero	-1209
ío	-1210
dida	-1211
▁ter	-1212
▁esté	-1213
Gracias	-1214
Tal▁vez	-1215
o▁del	-1216
▁plan	-1217
▁es▁la	-1218
dia	-1219
pira	-1220
▁allá	-1221
▁ligera	-1222
tivamente	-1223
óm	-1224
”.	-1225
ias	-1226
tre	-1227
▁feliz	-1228
Incluso	-1229
▁un▁poco▁de	-1230
▁situ	-1231
▁sabes	-1232
▁dentro	-1233
Está▁bien	-1234
▁de▁nuevo	-1235
▁sola	-1236
▁a▁los	-1237
▁es▁un	-1238
▁nuestra	-1239
▁vez▁que	-1240
ea	-1241
cep	-1242
ire	-1243
tiva	-1244
▁pasar	-1245
▁durante	-1246
▁dij	-1247
▁comenz	-1248
▁D	-1249
Los	-1250
aku	-1251
les	-1252
Bien	-1253
Esta	-1254
▁camino	-1255
Mientras	-1256
▁maestro	-1257
▁pensami	-1258
▁todo▁el	-1259
▁hablando	-1260
zos	-1261
uera	-1262
▁cui	-1263
amaku	-1264
diendo	-1265
▁es▁el	-1266
▁vista	-1267
▁cuerpo	-1268
▁fuerte	-1269
▁tampoco	-1270
▁algo▁que	-1271
▁conversación	-1272
▁comer	-1273
▁Yamaku	-1274
▁quieres	-1275
▁después▁de▁todo	-1276
arlo	-1277
▁pasa	-1278
▁mundo	-1279
▁bol	-1280
▁y▁el	-1281
mana	-1282
▁log	-1283
▁noche	-1284
▁salir	-1285
▁algo▁de	-1286
iote	-1287
▁pie	-1288
tiene	-1289
▁camp	-1290
▁para▁mí	-1291
▁pequeña	-1292
Eh	-1293
ya	-1294
▁bibl	-1295
▁mesa	-1296
▁reci	-1297
▁discu	-1298
▁atención	-1299
▁bibliote	-1300
▁en▁realidad	-1301
aré	-1302
ita	-1303
▁conoc	-1304
▁dedos	-1305
▁libro	-1306
▁nadie	-1307
▁interes	-1308
cha	-1309
▁Al	-1310
▁obs	-1311
▁conc	-1312
▁cora	-1313
▁empez	-1314
▁corazón	-1315
ome	-1316
ía▁que	-1317
▁suena	-1318
▁siendo	-1319
▁extraño	-1320
▁hombros	-1321
▁importa	-1322
▁festival	-1323
▁sus▁ojos	-1324
▁ev	-1325
▁sue	-1326
Eso▁es	-1327
▁largo	-1328
▁apenas	-1329
osamente	-1330
Deb	-1331
ños	-1332
▁para▁el	-1333
ior	-1334
tad	-1335
lado	-1336
▁pudi	-1337
so	-1338
▁cul	-1339
tedes	-1340
▁prof	-1341
▁que▁está	-1342
▁estoy▁seguro	-1343
lic	-1344
dera	-1345
migo	-1346
No▁es	-1347
▁si▁no	-1348
▁agrada	-1349
▁doy▁cuenta▁de	-1350
as▁a	-1351
▁unos	-1352
▁demás	-1353
▁evitar	-1354
▁ningun	-1355
▁semana	-1356
▁hacia▁el	-1357
▁como▁para	-1358
▁todo▁lo▁que	-1359
amil	-1360
▁boca	-1361
▁podr	-1362
mientos	-1363
▁idea▁de	-1364
▁a▁través	-1365
rir	-1366
tis	-1367
▁y▁no	-1368
ción▁de	-1369
▁respec	-1370
▁pap	-1371
▁creo	-1372
éndome	-1373
▁especi	-1374
▁situación	-1375
ervi	-1376
utou	-1377
▁aun	-1378
▁reac	-1379
▁famil	-1380
▁me▁hace	-1381
▁tengo▁que	-1382
▁supongo▁que	-1383
▁ton	-1384
▁temp	-1385
▁hombre	-1386
▁conmigo	-1387
▁tratando	-1388
▁significa	-1389
▁lentamente	-1390
▁absol	-1391
▁por▁lo	-1392
as▁cosas	-1393
▁segundo	-1394
▁lí	-1395
Como	-1396
▁aleg	-1397
▁lejos	-1398
▁correr	-1399
▁diferente	-1400
Él	-1401
gan	-1402
uar	-1403
▁os	-1404
tivo	-1405
▁senti	-1406
▁sonríe	-1407
?▁¡	-1408
Ten	-1409
engu	-1410
segu	-1411
▁sua	-1412
▁cuar	-1413
▁en▁este	-1414
▁me▁siento	-1415
▁aire	-1416
▁Yuuko	-1417
▁abajo	-1418
▁cuenta	-1419
▁en▁los	-1420
▁vez▁más	-1421
▁hecho▁de	-1422
cio	-1423
▁der	-1424
▁debe	-1425
▁olvi	-1426
▁afuera	-1427
▁ni▁siquiera	-1428
zo▁a	-1429
▁sos	-1430
dente	-1431
portun	-1432
▁corre	-1433
▁nervi	-1434
▁arriba	-1435
▁quería	-1436
No▁puedo	-1437
hi	-1438
elo	-1439
iar	-1440
ello	-1441
resa	-1442
tada	-1443
▁igu	-1444
demos	-1445
▁lengu	-1446
▁segura	-1447
▁sonido	-1448
▁supongo	-1449
▁entender	-1450
▁mantener	-1451
fer	-1452
▁bajo	-1453
▁pues	-1454
▁oportun	-1455
vir	-1456
▁Ten	-1457
▁ali	-1458
es▁de	-1459
▁dije	-1460
dición	-1461
▁diver	-1462
▁ellas	-1463
▁justo	-1464
▁para▁ver	-1465
▁está▁bien	-1466
oj	-1467
ino	-1468
nas	-1469
z▁de	-1470
▁tus	-1471
▁atra	-1472
▁encuentro	-1473
dí	-1474
Hay	-1475
▁equi	-1476
▁obvi	-1477
▁juego	-1478
▁libros	-1479
▁cabello	-1480
▁problemas	-1481
té	-1482
Cómo	-1483
▁som	-1484
erías	-1485
▁llegar	-1486
▁seguir	-1487
▁mirando	-1488
▁problema	-1489
aso	-1490
▁mos	-1491
▁ayer	-1492
▁exac	-1493
▁visto	-1494
▁comienza▁a	-1495
▁oportunidad	-1496
▁Mi	-1497
ómodo	-1498
▁cans	-1499
▁alcan	-1500
▁de▁eso	-1501
▁en▁las	-1502
▁pregunto▁si	-1503
~.	-1504
cog	-1505
dió	-1506
▁Se	-1507
▁tr	-1508
▁Sin	-1509
▁emo	-1510
▁cama	-1511
▁Kenji	-1512
▁mucho▁más	-1513
lub	-1514
▁Eso	-1515
▁grup	-1516
▁oscu	-1517
▁Creo▁que	-1518
▁podría▁ser	-1519
bu	-1520
▁vac	-1521
Estás	-1522
▁leer	-1523
▁tenía	-1524
▁nuestro	-1525
▁para▁ella	-1526
▁tratando▁de	-1527
li	-1528
vis	-1529
▁be	-1530
Todo	-1531
inci	-1532
tica	-1533
▁apro	-1534
▁club	-1535
▁modos	-1536
▁pasillo	-1537
▁encontrar	-1538
Las	-1539
Hola	-1540
▁caf	-1541
▁rar	-1542
lante	-1543
amos▁a	-1544
▁amigos	-1545
▁de▁Hanako	-1546
xi	-1547
Ahora	-1548
▁dado	-1549
▁dónde	-1550
▁Aunque	-1551
▁y▁luego	-1552
▁biblioteca	-1553
▁todos▁modos	-1554
Parece	-1555
▁volver	-1556
Le	-1557
ár	-1558
▁I	-1559
aje	-1560
▁hago	-1561
▁arreg	-1562
▁atrás	-1563
▁papel	-1564
ando▁el	-1565
▁correc	-1566
▁completo	-1567
robablemente	-1568
min	-1569
tel	-1570
abes	-1571
illa	-1572
▁esf	-1573
▁ellos	-1574
▁pecho	-1575
▁poner	-1576
o▁de▁la	-1577
▁a▁ella	-1578
▁de▁vuelta	-1579
▁importante	-1580
Hm	-1581
ho	-1582
▁imagin	-1583
▁asiento	-1584
▁primera	-1585
tó	-1586
ús	-1587
liz	-1588
eran	-1589
tigo	-1590
▁fun	-1591
▁dijo	-1592
▁salu	-1593
▁igual	-1594
▁no▁se	-1595
▁detrás	-1596
▁algunas	-1597
▁V	-1598
tea	-1599
Esto	-1600
▁mon	-1601
▁quis	-1602
▁vent	-1603
▁visi	-1604
▁queda	-1605
▁suave	-1606
▁primer	-1607
▁que▁estoy	-1608
▁todos▁los	-1609
▁en▁silencio	-1610
utos	-1611
▁pla	-1612
▁lo▁h	-1613
▁ocur	-1614
▁Estoy	-1615
▁de▁sus	-1616
▁levanta	-1617
▁molesta	-1618
▁pensamientos	-1619
fin	-1620
▁dese	-1621
▁pare	-1622
▁ayuda	-1623
▁hombro	-1624
▁o▁algo	-1625
icamente	-1626
▁posible	-1627
ís	-1628
men	-1629
piro	-1630
ado▁a	-1631
ramos	-1632
▁voy▁a	-1633
▁desper	-1634
▁que▁he	-1635
▁ustedes	-1636
▁dormitor	-1637
▁pensé▁que	-1638
ano	-1639
no▁es	-1640
▁blan	-1641
▁suce	-1642
▁tras	-1643
aje▁de	-1644
▁obser	-1645
▁sigue	-1646
▁compañ	-1647
▁descan	-1648
▁normal	-1649
▁par▁de	-1650
▁por▁mi	-1651
Realmente	-1652
▁sorpresa	-1653
ular	-1654
entar	-1655
media	-1656
▁llen	-1657
▁ambos	-1658
▁otros	-1659
▁tenido	-1660
▁parecen	-1661
▁piernas	-1662
▁intentar	-1663
▁en▁verdad	-1664
▁por▁un▁momento	-1665
▁ges	-1666
▁val	-1667
▁cielo	-1668
▁única	-1669
▁chicas	-1670
▁extrañ	-1671
▁recuer	-1672
▁agradable	-1673
▁otro▁lado	-1674
bo	-1675
dea	-1676
▁hos	-1677
▁ves	-1678
▁curi	-1679
▁habría	-1680
▁tienen	-1681
▁encuent	-1682
▁exactamente	-1683
▁ligeramente	-1684
▁parece▁estar	-1685
ág	-1686
ese	-1687
mor	-1688
▁vay	-1689
▁allí	-1690
▁malo	-1691
▁quién	-1692
▁relaj	-1693
▁lo▁mismo	-1694
▁Supongo▁que	-1695
dio	-1696
Buen	-1697
Para	-1698
demás	-1699
ienes	-1700
▁ello	-1701
▁de▁Emi	-1702
▁juntos	-1703
▁contigo	-1704
▁de▁Shizune	-1705
be	-1706
▁sec	-1707
Hisao	-1708
tarme	-1709
▁se▁ha	-1710
▁brazos	-1711
▁compar	-1712
▁que▁te	-1713
▁a▁Shizune	-1714
▁acos	-1715
▁incl	-1716
▁dirig	-1717
▁hospi	-1718
bir	-1719
ice	-1720
eron	-1721
darme	-1722
▁labi	-1723
▁habla	-1724
Ella▁se	-1725
ando▁la	-1726
▁tratar	-1727
▁inmedia	-1728
▁absoluto	-1729
usa	-1730
via	-1731
▁Lo	-1732
erta	-1733
▁Con	-1734
▁ban	-1735
▁lan	-1736
ar▁la	-1737
▁tres	-1738
▁de▁Rin	-1739
▁y▁Misha	-1740
▁a▁Hanako	-1741
▁hospital	-1742
▁de▁la▁escuela	-1743
▁op	-1744
pero	-1745
udad	-1746
▁agu	-1747
▁baja	-1748
▁cono	-1749
▁tuvi	-1750
▁hacen	-1751
▁Tal▁vez	-1752
entualmente	-1753
▁escritorio	-1754
odría	-1755
▁cara	-1756
▁carr	-1757
▁estos	-1758
▁punto	-1759
Hicchan	-1760
▁ciudad	-1761
▁con▁mi	-1762
▁minutos	-1763
▁tempran	-1764
▁un▁momento	-1765
uy	-1766
omi	-1767
tud	-1768
▁va▁a	-1769
▁pienso	-1770
▁nuestras	-1771
▁nuestros	-1772
Gu	-1773
oma	-1774
▁gan	-1775
▁pone	-1776
paz▁de	-1777
▁a▁Rin	-1778
▁cuarto	-1779
o▁de▁los	-1780
▁gracias	-1781
▁pudiera	-1782
▁recordar	-1783
arte	-1784
ecer	-1785
fini	-1786
▁cap	-1787
Puedo	-1788
▁será	-1789
▁princi	-1790
▁palabra	-1791
▁adelante	-1792
▁O	-1793
▁busc	-1794
▁dolor	-1795
▁espal	-1796
▁venir	-1797
▁distra	-1798
▁propia	-1799
▁hacia▁mí	-1800
▁intentando	-1801
▁me▁doy▁cuenta▁de	-1802
lé	-1803
.▁¡	-1804
dados	-1805
▁agra	-1806
▁cuan	-1807
▁sacu	-1808
▁estab	-1809
▁otras	-1810
▁triste	-1811
▁algunos	-1812
▁consider	-1813
▁luz	-1814
ar▁mi	-1815
▁recu	-1816
▁sobre▁la	-1817
Sin▁embargo	-1818
▁un▁poco▁más	-1819
ial	-1820
ído	-1821
▁Ah	-1822
gado	-1823
▁edi	-1824
▁rit	-1825
No▁lo	-1826
gando	-1827
▁apre	-1828
Quizás	-1829
▁apren	-1830
▁en▁sus	-1831
▁es▁que	-1832
▁natura	-1833
▁ya▁que	-1834
▁primero	-1835
cir	-1836
eque	-1837
▁asun	-1838
un▁así	-1839
▁a▁las	-1840
▁a▁una	-1841
▁Quiero	-1842
▁formas	-1843
▁perder	-1844
▁concent	-1845
▁edifici	-1846
▁encontr	-1847
▁es▁lo▁que	-1848
▁su▁cabeza	-1849
ác	-1850
▁pan	-1851
antes	-1852
la▁de	-1853
▁bols	-1854
▁caso	-1855
▁prepar	-1856
▁ella▁se	-1857
▁incómodo	-1858
▁en▁absoluto	-1859
▁ne	-1860
esta	-1861
▁disf	-1862
▁tens	-1863
▁grupo	-1864
▁jugar	-1865
▁sigui	-1866
a▁de▁la	-1867
▁grande	-1868
▁a▁pesar	-1869
▁lo▁hace	-1870
▁lenguaje▁de	-1871
▁ru	-1872
iera	-1873
▁rom	-1874
▁tor	-1875
rimera	-1876
▁Mutou	-1877
▁ningún	-1878
▁ella▁no	-1879
▁temprano	-1880
Después▁de	-1881
▁pensar▁en	-1882
▁la▁primera	-1883
▁Ya	-1884
lica	-1885
quel	-1886
▁dep	-1887
▁caer	-1888
▁escal	-1889
▁mueve	-1890
▁último	-1891
▁en▁serio	-1892
▁lenguaje▁de▁señas	-1893
ep	-1894
Sus	-1895
iso	-1896
loj	-1897
▁mie	-1898
toria	-1899
▁tema	-1900
▁de▁esta	-1901
▁mayoría	-1902
▁para▁que	-1903
▁miro	-1904
▁orden	-1905
▁refle	-1906
▁funcion	-1907
▁momentos	-1908
▁por▁completo	-1909
▁au	-1910
▁cump	-1911
▁esca	-1912
▁libre	-1913
▁a▁Lilly	-1914
▁diciendo	-1915
▁necesita	-1916
▁responder	-1917
ito	-1918
bres	-1919
tumb	-1920
▁gri	-1921
▁lar	-1922
▁poc	-1923
▁vin	-1924
▁colo	-1925
▁color	-1926
▁despi	-1927
▁deten	-1928
▁no▁sé	-1929
miento▁de	-1930
▁tan▁solo	-1931
dic	-1932
mar	-1933
an▁a	-1934
aste	-1935
eros	-1936
▁paso	-1937
▁sabe	-1938
iencia	-1939
▁dormir	-1940
▁vuelve	-1941
▁continú	-1942
ticamente	-1943
▁respecto	-1944
▁segundos	-1945
Nos	-1946
iez	-1947
▁at	-1948
▁tí	-1949
dando	-1950
▁Esta	-1951
▁casa	-1952
▁deja	-1953
▁raro	-1954
▁unas	-1955
verdad	-1956
▁asegu	-1957
▁cerca	-1958
▁resul	-1959
▁no▁hay	-1960
▁intento	-1961
▁los▁ojos	-1962
▁parece▁que	-1963
Hmm	-1964
é▁a	-1965
▁bo	-1966
as▁y	-1967
▁permi	-1968
▁reloj	-1969
▁labios	-1970
▁caminar	-1971
▁respira	-1972
▁escuchar	-1973
▁mis▁ojos	-1974
▁hasta▁que	-1975
▁comienzo▁a	-1976
▁sorprendido	-1977
gra	-1978
▁Un	-1979
bido	-1980
▁baj	-1981
yendo	-1982
▁darme	-1983
▁super	-1984
▁quizás	-1985
En▁serio	-1986
▁detiene	-1987
▁ha▁estado	-1988
▁todas▁formas	-1989
Tú	-1990
▁dé	-1991
▁ign	-1992
No▁me	-1993
te▁de	-1994
turas	-1995
za▁de	-1996
▁pueb	-1997
▁suel	-1998
▁estre	-1999
▁distin	-2000
▁perfec	-2001
▁viendo	-2002
▁esto▁es	-2003
▁terminar	-2004
▁he▁estado	-2005
erg	-2006
▁nu	-2007
▁bre	-2008
▁les	-2009
ado▁de	-2010
▁recon	-2011
▁Parece	-2012
▁curios	-2013
▁discul	-2014
▁profun	-2015
▁junto▁a	-2016
▁acostumb	-2017
dentemente	-2018
tunadamente	-2019
▁finalmente	-2020
▁de▁todos▁modos	-2021
ér	-2022
dan	-2023
▁hi	-2024
▁of	-2025
▁ata	-2026
▁ech	-2027
▁var	-2028
No▁te	-2029
omiya	-2030
▁abre	-2031
▁auto	-2032
▁hora	-2033
▁ir▁a	-2034
▁pequeño	-2035
Me▁siento	-2036
▁Sin▁embargo	-2037
eta	-2038
voc	-2039
▁estú	-2040
▁invi	-2041
▁mala	-2042
▁hemos	-2043
▁ritmo	-2044
▁es▁muy	-2045
ensé▁que	-2046
▁en▁ello	-2047
▁podemos	-2048
▁esperaba	-2049
▁gustaría	-2050
ai	-2051
Pue	-2052
▁inf	-2053
▁llu	-2054
▁nom	-2055
cidad	-2056
rarme	-2057
▁acep	-2058
▁agar	-2059
▁duda	-2060
▁guar	-2061
▁pasó	-2062
ándola	-2063
▁mover	-2064
▁señal	-2065
▁terri	-2066
▁pueblo	-2067
Lo▁siento	-2068
▁al▁respecto	-2069
▁dormitorios	-2070
gon	-2071
▁Te	-2072
idea	-2073
▁Así	-2074
▁hici	-2075
ideaki	-2076
tancia	-2077
▁encog	-2078
▁tendr	-2079
ando▁su	-2080
▁de▁ver	-2081
▁en▁que	-2082
▁pueden	-2083
▁espalda	-2084
▁ninguna	-2085
…?	-2086
ono	-2087
uido	-2088
▁cru	-2089
▁enoj	-2090
▁esas	-2091
▁herm	-2092
▁peor	-2093
▁tomo	-2094
▁dicho	-2095
▁mitad	-2096
▁entrar	-2097
▁perman	-2098
▁repent	-2099
▁Incluso	-2100
▁decirle	-2101
▁por▁los	-2102
▁deberías	-2103
▁parece▁ser	-2104
lor	-2105
dres	-2106
orme	-2107
▁Una	-2108
▁azo	-2109
usias	-2110
▁frun	-2111
▁confi	-2112
▁mirar	-2113
▁mucha	-2114
▁disfru	-2115
▁acuerdo	-2116
▁con▁los	-2117
▁de▁arte	-2118
▁extraña	-2119
▁tenemos	-2120
▁No▁puedo	-2121
▁necesito	-2122
▁del▁salón	-2123
▁por▁lo▁menos	-2124
▁como▁si▁estuviera	-2125
Tra	-2126
dría	-2127
resi	-2128
Yuuko	-2129
lidad	-2130
▁Como	-2131
▁Todo	-2132
▁actu	-2133
▁ment	-2134
▁nota	-2135
▁en▁mis	-2136
▁medida	-2137
▁padres	-2138
▁simple	-2139
▁con▁las	-2140
▁por▁las	-2141
▁su▁mano	-2142
no▁es▁así	-2143
▁entusias	-2144
▁un▁tanto	-2145
he	-2146
ira	-2147
▁Yo	-2148
▁oc	-2149
mbre	-2150
ojos	-2151
zado	-2152
▁año	-2153
▁cua	-2154
iente	-2155
▁aver	-2156
▁ocup	-2157
▁alivi	-2158
▁a▁Emi	-2159
▁inten	-2160
▁descon	-2161
▁algo▁más	-2162
▁cerca▁de	-2163
▁forma▁de	-2164
▁así▁que▁no	-2165
finitivamente	-2166
▁podría▁haber	-2167
▁entre▁nosotros	-2168
tí	-2169
tur	-2170
▁ej	-2171
▁lin	-2172
▁ríe	-2173
▁toc	-2174
▁alej	-2175
▁Bueno	-2176
▁escon	-2177
▁suelo	-2178
▁tienda	-2179
▁con▁sus	-2180
▁decirlo	-2181
▁desapar	-2182
▁estaría	-2183
▁pensado	-2184
▁anteojos	-2185
▁capaz▁de	-2186
▁en▁lugar	-2187
▁hacia▁la	-2188
▁reacción	-2189
i▁siquiera	-2190
▁interesante	-2191
▁del▁consejo▁estudiantil	-2192
~?	-2193
dez	-2194
Clar	-2195
▁lis	-2196
▁tro	-2197
bería	-2198
▁cuán	-2199
▁estas	-2200
▁sinti	-2201
▁decido	-2202
▁es▁tan	-2203
▁lluvia	-2204
▁observ	-2205
▁que▁le	-2206
▁suerte	-2207
▁no▁está	-2208
▁suspiro	-2209
▁cuidados	-2210
▁recuerdo	-2211
▁sí▁misma	-2212
▁a▁alguien	-2213
▁mucho▁tiempo	-2214
▁sentimientos	-2215
Com	-2216
anas	-2217
rido	-2218
▁vie	-2219
tarse	-2220
▁abur	-2221
▁ambi	-2222
▁café	-2223
▁brill	-2224
▁ignor	-2225
bilidad	-2226
▁es▁más	-2227
▁ha▁sido	-2228
▁para▁ti	-2229
▁por▁una	-2230
▁al▁final	-2231
▁supuesto	-2232
▁considera	-2233
▁esperando	-2234
▁terminado	-2235
eh	-2236
Que	-2237
bra	-2238
vol	-2239
▁Sa	-2240
asta	-2241
culo	-2242
▁col	-2243
▁jue	-2244
Vamos	-2245
▁y▁lo	-2246
ciente	-2247
to▁que	-2248
▁acerc	-2249
▁cabez	-2250
▁notar	-2251
▁entiendo	-2252
▁esfuerzo	-2253
▁no▁tiene	-2254
▁por▁ella	-2255
▁punto▁de	-2256
▁trabajar	-2257
▁la▁cabeza	-2258
▁la▁mirada	-2259
para	-2260
tico	-2261
illos	-2262
▁mues	-2263
▁prác	-2264
▁reti	-2265
▁y▁su	-2266
terior	-2267
▁Ahora	-2268
▁abrir	-2269
▁breve	-2270
▁pensé	-2271
▁dijo▁que	-2272
▁curiosidad	-2273
Esa	-2274
izo	-2275
▁mor	-2276
▁oír	-2277
▁ris	-2278
▁enci	-2279
espera	-2280
ándolo	-2281
▁No▁es	-2282
▁arras	-2283
▁brazo	-2284
▁en▁lo	-2285
▁gener	-2286
▁hones	-2287
▁usual	-2288
▁camina	-2289
▁que▁su	-2290
▁supone	-2291
inamente	-2292
▁pintura	-2293
▁preocupes	-2294
▁una▁persona	-2295
▁una▁vez▁más	-2296
▁por▁supuesto	-2297
bor	-2298
Eres	-2299
irme	-2300
rump	-2301
tida	-2302
▁lín	-2303
▁pel	-2304
▁abra	-2305
▁caus	-2306
▁ceño	-2307
▁empu	-2308
▁luce	-2309
▁reun	-2310
Además	-2311
▁ocasi	-2312
▁de▁pie	-2313
▁sienta	-2314
▁mi▁mano	-2315
▁ventana	-2316
▁viéndose	-2317
▁por▁favor	-2318
▁un▁par▁de	-2319
An	-2320
▁fe	-2321
tencia	-2322
▁Puedo	-2323
▁apres	-2324
▁medio	-2325
▁pared	-2326
▁segui	-2327
▁por▁mí	-2328
▁con▁eso	-2329
▁mencion	-2330
▁muy▁bien	-2331
▁en▁lo▁que	-2332
▁puedo▁ver	-2333
▁que▁hacer	-2334
▁suficientemente	-2335
Ac	-2336
br	-2337
ka	-2338
▁u	-2339
ará	-2340
igo	-2341
léf	-2342
pre	-2343
tán	-2344
▁Cu	-2345
▁il	-2346
▁muj	-2347
▁mío	-2348
tados	-2349
▁indi	-2350
▁teléf	-2351
▁piensa	-2352
▁descans	-2353
▁un▁peque	-2354
▁dirección	-2355
▁divertido	-2356
fortunadamente	-2357
ang	-2358
tac	-2359
▁eh	-2360
aliz	-2361
edad	-2362
mida	-2363
▁abi	-2364
▁bor	-2365
▁ido	-2366
▁arro	-2367
▁desc	-2368
▁limp	-2369
▁aquel	-2370
▁no▁te	-2371
o▁de▁su	-2372
▁empiez	-2373
▁en▁ese	-2374
caciones	-2375
▁parecer	-2376
▁caminando	-2377
▁no▁parece	-2378
▁para▁hacer	-2379
má	-2380
▁F	-2381
Int	-2382
dón	-2383
▁Los	-2384
▁muñ	-2385
bamos	-2386
tidad	-2387
▁y▁de	-2388
▁exper	-2389
▁junto	-2390
▁podía	-2391
▁tenga	-2392
▁y▁los	-2393
▁azotea	-2394
▁a▁Misha	-2395
▁en▁esta	-2396
▁esperar	-2397
▁es▁como	-2398
▁toda▁la	-2399
▁familiar	-2400
▁corriendo	-2401
▁su▁rostro	-2402
▁una▁mirada	-2403
▁un▁pequeño	-2404
▁sin▁embargo	-2405
▁en▁su▁rostro	-2406
yo	-2407
Rec	-2408
Tan	-2409
ura	-2410
gura	-2411
imos	-2412
sión	-2413
▁dec	-2414
▁mía	-2415
▁esos	-2416
▁o▁no	-2417
No▁hay	-2418
viendo	-2419
▁darle	-2420
▁somos	-2421
▁y▁más	-2422
aciones	-2423
▁fuerza	-2424
encia▁de	-2425
▁carrera	-2426
▁natural	-2427
▁sobre▁mi	-2428
▁una▁mano	-2429
▁siguiente	-2430
▁se▁encuent	-2431
eo	-2432
udo	-2433
mbas	-2434
▁de▁lo	-2435
▁Hideaki	-2436
▁princip	-2437
▁no▁puede	-2438
▁no▁tengo	-2439
▁vacaciones	-2440
▁puedo▁hacer	-2441
▁respiración	-2442
Este	-2443
echa	-2444
lada	-2445
ámen	-2446
usión	-2447
zando	-2448
▁apoy	-2449
▁form	-2450
▁piso	-2451
irando	-2452
tantes	-2453
▁carta	-2454
▁inqui	-2455
▁vas▁a	-2456
▁blanco	-2457
▁confun	-2458
▁cuidado	-2459
▁es▁solo	-2460
▁presion	-2461
▁termina	-2462
▁cantidad	-2463
▁de▁verdad	-2464
▁no▁creo▁que	-2465
▁aparentemente	-2466
Muy	-2467
cho	-2468
Cier	-2469
tien	-2470
vuel	-2471
zada	-2472
▁her	-2473
Sabes	-2474
rando	-2475
▁Está	-2476
Emi▁se	-2477
Tienes	-2478
▁muñec	-2479
▁no▁le	-2480
Quieres	-2481
ajajaja	-2482
por▁qué	-2483
▁Eso▁es	-2484
▁ataque	-2485
▁de▁mis	-2486
▁exámen	-2487
▁quedar	-2488
▁no▁estoy	-2489
▁escaleras	-2490
▁con▁Shizune	-2491
▁estoy▁seguro▁de▁que	-2492
Us	-2493
dó	-2494
zc	-2495
▁J	-2496
▁bes	-2497
▁nar	-2498
▁pos	-2499
No▁sé	-2500
io▁de	-2501
jedre	-2502
trado	-2503
▁asus	-2504
▁únic	-2505
▁resto	-2506
▁de▁ser	-2507
▁pareci	-2508
▁como▁el	-2509
▁desde▁que	-2510
▁distancia	-2511
▁la▁vuelta	-2512
Probablemente	-2513
▁hacia▁arriba	-2514
ger	-2515
vida	-2516
ar▁su	-2517
▁cuál	-2518
▁pies	-2519
jedrez	-2520
▁amigo	-2521
▁compe	-2522
▁creer	-2523
▁ruido	-2524
▁verla	-2525
Aun▁así	-2526
▁además	-2527
▁nombre	-2528
▁en▁ella	-2529
▁exámenes	-2530
▁recuerda	-2531
▁interrump	-2532
▁sus▁manos	-2533
▁hecho▁de▁que	-2534
▁seguro▁de▁que	-2535
▁lo▁suficientemente	-2536
duc	-2537
rac	-2538
ñas	-2539
oche	-2540
turo	-2541
Algun	-2542
Nunca	-2543
arnos	-2544
▁acom	-2545
▁ansi	-2546
▁disc	-2547
▁saca	-2548
▁vivir	-2549
▁y▁las	-2550
▁apropi	-2551
▁propio	-2552
▁lo▁cual	-2553
▁pasando	-2554
▁esta▁vez	-2555
▁mi▁mente	-2556
▁algo▁como	-2557
dil	-2558
odr	-2559
tri	-2560
▁do	-2561
adas	-2562
▁din	-2563
▁exc	-2564
▁raz	-2565
▁Para	-2566
▁acci	-2567
También	-2568
▁impres	-2569
▁muchas	-2570
▁repente	-2571
▁sobre▁su	-2572
▁preguntas	-2573
▁tiene▁que	-2574
▁una▁buena	-2575
Por▁supuesto	-2576
▁a▁la▁escuela	-2577
Me▁pregunto▁si	-2578
~,	-2579
!▁¿	-2580
Mis	-2581
ario	-2582
▁lec	-2583
rarse	-2584
▁anim	-2585
▁anti	-2586
▁efec	-2587
▁madre	-2588
▁futuro	-2589
▁de▁ello	-2590
▁emocion	-2591
▁general	-2592
▁Entonces	-2593
▁de▁hecho	-2594
▁en▁algún	-2595
▁lo▁mejor	-2596
▁tratar▁de	-2597
▁movimiento	-2598
▁tienes▁que	-2599
▁es▁bastante	-2600
▁hacia▁abajo	-2601
▁por▁un▁rato	-2602
▁una▁pequeña	-2603
▁eventualmente	-2604
▁en▁este▁momento	-2605
ah	-2606
Hab	-2607
vel	-2608
zul	-2609
ozco	-2610
quina	-2611
▁admi	-2612
▁dibu	-2613
▁ocul	-2614
▁da▁un	-2615
▁despe	-2616
▁pedir	-2617
▁prome	-2618
▁tarea	-2619
▁trans	-2620
▁vamos	-2621
▁vemos	-2622
Qué▁tal	-2623
▁alegre	-2624
▁explic	-2625
▁el▁ceño	-2626
▁hermana	-2627
▁levanto	-2628
▁un▁buen	-2629
▁falta▁de	-2630
▁pinturas	-2631
▁mucho▁que	-2632
▁sus▁dedos	-2633
▁claramente	-2634
▁trabajando	-2635
▁frente▁a▁mí	-2636
▁primera▁vez	-2637
▁que▁Shizune	-2638
▁directamente	-2639
cos	-2640
cur	-2641
oda	-2642
amin	-2643
cida	-2644
esti	-2645
gada	-2646
▁lam	-2647
▁uni	-2648
pongo	-2649
▁alto	-2650
▁digo	-2651
▁frus	-2652
▁irme	-2653
▁sigo	-2654
▁claro	-2655
▁preci	-2656
▁satis	-2657
▁silla	-2658
▁yendo	-2659
▁asunto	-2660
▁contro	-2661
▁manten	-2662
▁detener	-2663
▁familia	-2664
▁perdido	-2665
▁instante	-2666
▁teléfono	-2667
▁condición	-2668
▁solamente	-2669
▁tranquila	-2670
▁tiempo▁que	-2671
~…	-2672
úm	-2673
Aún	-2674
Soy	-2675
aya	-2676
ber	-2677
úbi	-2678
▁pl	-2679
Antes	-2680
Tengo	-2681
▁ense	-2682
▁haci	-2683
▁haga	-2684
▁sale	-2685
▁sigu	-2686
▁y▁le	-2687
▁a▁sus	-2688
▁haría	-2689
▁incre	-2690
▁inici	-2691
▁lleva	-2692
▁ofici	-2693
▁secre	-2694
vamente	-2695
▁de▁esa	-2696
▁dinero	-2697
▁espero	-2698
▁genial	-2699
▁suelta	-2700
aldición	-2701
▁comentar	-2702
▁correcto	-2703
▁importar	-2704
▁el▁tiempo	-2705
▁puede▁ser	-2706
▁deberíamos	-2707
▁hacia▁atrás	-2708
▁ustedes▁dos	-2709
▁la▁sensación	-2710
▁después▁de▁que	-2711
▁inmediatamente	-2712
▁todo▁el▁tiempo	-2713
Ha	-2714
He	-2715
dé	-2716
cul	-2717
ijo	-2718
imo	-2719
akai	-2720
anza	-2721
leañ	-2722
ondo	-2723
taré	-2724
uena	-2725
▁núm	-2726
▁esti	-2727
▁mezc	-2728
▁culpa	-2729
▁energ	-2730
▁entra	-2731
▁en▁mí	-2732
ticular	-2733
▁Nomiya	-2734
▁adentro	-2735
▁es▁algo	-2736
▁para▁la	-2737
▁que▁hay	-2738
▁que▁las	-2739
▁ambiente	-2740
▁como▁sea	-2741
▁cumpleañ	-2742
▁Probablemente	-2743
Per	-2744
esa	-2745
irar	-2746
▁hice	-2747
▁resp	-2748
▁risa	-2749
Espera	-2750
éramos	-2751
▁excep	-2752
▁extre	-2753
▁único	-2754
▁Cuando	-2755
▁contac	-2756
▁incómo	-2757
▁de▁estar	-2758
▁quisiera	-2759
▁encoge▁de	-2760
Me▁pregunto	-2761
▁a▁punto▁de	-2762
▁haber▁sido	-2763
▁de▁cualquier	-2764
▁me▁hace▁sentir	-2765
▁encoge▁de▁hombros	-2766
fic	-2767
uka	-2768
▁fui	-2769
▁ing	-2770
▁moc	-2771
Claro	-2772
illas	-2773
zo▁de	-2774
▁abro	-2775
▁agua	-2776
▁debo	-2777
Siento	-2778
▁horas	-2779
▁march	-2780
▁separ	-2781
▁viene	-2782
▁anoche	-2783
▁cercan	-2784
▁que▁mi	-2785
▁sacude	-2786
▁aún▁más	-2787
▁inclina	-2788
▁que▁nos	-2789
▁tendría	-2790
▁estúpido	-2791
▁he▁visto	-2792
▁manera▁de	-2793
▁como▁si▁no	-2794
▁como▁si▁fuera	-2795
ré	-2796
cen	-2797
▁ba	-2798
Vaya	-2799
olar	-2800
▁cur	-2801
▁his	-2802
▁años	-2803
▁cica	-2804
▁obje	-2805
Buenas	-2806
▁Nunca	-2807
▁espec	-2808
▁plane	-2809
▁vacío	-2810
Debería	-2811
▁muestra	-2812
▁tuviera	-2813
▁anterior	-2814
▁continúa	-2815
▁contra▁el	-2816
▁todo▁esto	-2817
En▁realidad	-2818
▁estudiante	-2819
▁ese▁tipo▁de	-2820
▁preocupación	-2821
▁sorprendentemente	-2822
Aj	-2823
ador	-2824
arle	-2825
▁cin	-2826
▁cál	-2827
▁avan	-2828
▁ropa	-2829
▁tipo	-2830
Es▁una	-2831
mación	-2832
▁descu	-2833
▁gesto	-2834
▁pausa	-2835
▁seman	-2836
▁desliz	-2837
▁muchos	-2838
▁olvida	-2839
▁por▁ti	-2840
▁interés	-2841
▁que▁sea	-2842
▁y▁Lilly	-2843
▁aprender	-2844
▁hace▁una	-2845
▁relación	-2846
▁acerca▁de	-2847
▁escuchado	-2848
▁mi▁cabeza	-2849
▁tener▁que	-2850
▁pensar▁que	-2851
▁tranquiliz	-2852
▁un▁segundo	-2853
▁última▁vez	-2854
▁que▁no▁puedo	-2855
▁hacia▁adelante	-2856
▁suficiente▁para	-2857
▁á	-2858
ame	-2859
bol	-2860
vin	-2861
ba▁a	-2862
guro	-2863
idos	-2864
▁ago	-2865
tarla	-2866
tería	-2867
▁Esto	-2868
▁enfr	-2869
Jajaja	-2870
wanako	-2871
▁crees	-2872
▁enfer	-2873
▁es▁mi	-2874
▁nivel	-2875
▁nueva	-2876
▁revis	-2877
▁viaje	-2878
▁volte	-2879
▁agrade	-2880
▁entien	-2881
▁frunce	-2882
▁cansado	-2883
▁como▁la	-2884
▁me▁mira	-2885
▁que▁los	-2886
▁una▁vez	-2887
▁buscando	-2888
▁de▁Misha	-2889
▁edificio	-2890
▁posición	-2891
▁tiempo▁de	-2892
▁algún▁modo	-2893
▁con▁Hanako	-2894
▁la▁escuela	-2895
▁particular	-2896
▁por▁lo▁que	-2897
▁comenzando▁a	-2898
Di	-2899
jar	-2900
uir	-2901
bles	-2902
itar	-2903
útil	-2904
▁bal	-2905
▁bar	-2906
▁sen	-2907
▁inus	-2908
▁real	-2909
▁comun	-2910
▁dando	-2911
▁depri	-2912
▁pongo	-2913
▁si▁lo	-2914
▁figura	-2915
▁imposi	-2916
▁porqué	-2917
▁un▁pro	-2918
▁escolar	-2919
▁sentada	-2920
▁tomando	-2921
▁al▁mismo	-2922
▁conocido	-2923
▁desde▁el	-2924
▁responde	-2925
▁habilidad	-2926
▁impresion	-2927
▁y▁Shizune	-2928
▁fácilmente	-2929
▁pienso▁que	-2930
▁especialmente	-2931
jas	-2932
▁má	-2933
▁rí	-2934
▁ár	-2935
dent	-2936
diar	-2937
hila	-2938
iría	-2939
uelo	-2940
▁bon	-2941
▁cli	-2942
▁fís	-2943
Luego	-2944
culos	-2945
dores	-2946
enten	-2947
gular	-2948
iones	-2949
▁arru	-2950
▁culp	-2951
▁pele	-2952
▁tono	-2953
▁y▁un	-2954
tas▁de	-2955
▁calor	-2956
▁de▁ti	-2957
▁fondo	-2958
▁humor	-2959
▁pista	-2960
Guajaja	-2961
amiento	-2962
▁Podría	-2963
▁apresu	-2964
▁estabas	-2965
▁mochila	-2966
▁pero▁el	-2967
mplemente	-2968
▁clase▁de	-2969
▁más▁allá	-2970
▁accidente	-2971
▁una▁sonrisa	-2972
▁qué▁es▁lo▁que	-2973
▁en▁el▁hospital	-2974
Ese	-2975
alo	-2976
pas	-2977
ves	-2978
▁doc	-2979
▁alta	-2980
▁calm	-2981
▁cuel	-2982
▁dedo	-2983
▁duro	-2984
▁elec	-2985
▁gent	-2986
▁pude	-2987
Ya▁veo	-2988
▁No▁me	-2989
▁brome	-2990
▁me▁ha	-2991
Es▁solo	-2992
▁inquie	-2993
▁inútil	-2994
▁y▁ella	-2995
De▁hecho	-2996
Muy▁bien	-2997
Shicchan	-2998
▁avergon	-2999
▁con▁mis	-3000
▁empezar	-3001
▁que▁Emi	-3002
▁personal	-3003
▁sentirme	-3004
▁signific	-3005
▁hacer▁eso	-3006
▁necesidad	-3007
▁solo▁para	-3008
▁verdadera	-3009
▁a▁la▁gente	-3010
▁obviamente	-3011
▁que▁estaba	-3012
▁movimientos	-3013
▁como▁siempre	-3014
▁considerando	-3015
▁estás▁haciendo	-3016
Tu	-3017
ral	-3018
ída	-3019
▁ja	-3020
▁án	-3021
Miro	-3022
graf	-3023
mido	-3024
pech	-3025
▁caj	-3026
▁fro	-3027
▁neg	-3028
Mutou	-3029
▁cere	-3030
▁cont	-3031
Podría	-3032
▁larga	-3033
▁lo▁sé	-3034
▁se▁da	-3035
▁sueño	-3036
▁verme	-3037
▁apreci	-3038
▁lo▁más	-3039
▁montón	-3040
▁mostra	-3041
▁Así▁que	-3042
▁como▁yo	-3043
▁energía	-3044
▁equivoc	-3045
▁de▁forma	-3046
▁por▁aquí	-3047
▁teniendo	-3048
▁Me▁siento	-3049
▁continuar	-3050
▁necesitas	-3051
▁principal	-3052
▁tranquilo	-3053
▁preocupado	-3054
▁ahora▁mismo	-3055
▁prácticamente	-3056
ge	-3057
gi	-3058
Dis	-3059
tim	-3060
ices	-3061
reír	-3062
▁Des	-3063
▁Qué	-3064
▁Sus	-3065
▁ren	-3066
tismo	-3067
▁dudo	-3068
▁lími	-3069
▁piel	-3070
Lo▁que	-3071
▁calle	-3072
▁en▁tu	-3073
▁miemb	-3074
▁sonro	-3075
iamente	-3076
masiado	-3077
os▁días	-3078
▁así▁de	-3079
▁increí	-3080
▁aliento	-3081
▁cuantos	-3082
▁grandes	-3083
▁podrían	-3084
▁podrías	-3085
▁regreso	-3086
▁ya▁está	-3087
▁comenzar	-3088
▁nerviosa	-3089
▁decir▁que	-3090
▁mostrador	-3091
▁incluso▁si	-3092
▁tiempo▁para	-3093
▁las▁palabras	-3094
▁algún▁tipo▁de	-3095
▁pero▁no▁puedo	-3096
▁cuidadosamente	-3097
▁oportunidad▁de	-3098
aci	-3099
zan	-3100
Quer	-3101
hibi	-3102
tera	-3103
▁gal	-3104
▁jus	-3105
Akira	-3106
▁amar	-3107
▁azul	-3108
▁coci	-3109
▁fues	-3110
▁hizo	-3111
▁sino	-3112
▁vaya	-3113
Seguro	-3114
▁almor	-3115
▁pasan	-3116
▁quedo	-3117
▁sabía	-3118
ándonos	-3119
▁Es▁una	-3120
▁notado	-3121
▁número	-3122
▁del▁día	-3123
▁de▁esto	-3124
▁los▁dos	-3125
▁puestos	-3126
▁recuper	-3127
▁vistazo	-3128
▁olvidado	-3129
▁terrible	-3130
▁contra▁la	-3131
▁podríamos	-3132
▁se▁supone	-3133
No▁creo▁que	-3134
▁lo▁que▁sea	-3135
▁o▁algo▁así	-3136
▁Ni▁siquiera	-3137
▁de▁la▁puerta	-3138
▁cuenta▁de▁que	-3139
▁definitivamente	-3140
▁de▁todas▁formas	-3141
hh	-3142
rm	-3143
cas	-3144
iva	-3145
ror	-3146
▁He	-3147
▁ado	-3148
▁pol	-3149
Neces	-3150
timos	-3151
▁diga	-3152
▁ilum	-3153
▁soci	-3154
▁súbi	-3155
▁Nakai	-3156
tándose	-3157
▁cierra	-3158
▁conten	-3159
▁madera	-3160
▁ocurre	-3161
▁al▁otro	-3162
▁hubiese	-3163
▁mostrar	-3164
▁al▁salón	-3165
▁especial	-3166
▁Realmente	-3167
▁las▁arreg	-3168
▁cumpleaños	-3169
ventualmente	-3170
▁a▁la▁puerta	-3171
▁tanto▁tiempo	-3172
Rá	-3173
ap	-3174
fi	-3175
ín	-3176
óg	-3177
…!	-3178
Son	-3179
uda	-3180
Casi	-3181
Nada	-3182
capa	-3183
inas	-3184
tran	-3185
▁Com	-3186
▁Mis	-3187
▁bos	-3188
Todos	-3189
bable	-3190
ezuka	-3191
lo▁de	-3192
sabes	-3193
▁bebi	-3194
▁eran	-3195
▁reír	-3196
Porque	-3197
cia▁de	-3198
odavía	-3199
resent	-3200
▁broma	-3201
▁dices	-3202
▁débil	-3203
▁mater	-3204
▁se▁me	-3205
▁tanta	-3206
▁total	-3207
▁pintar	-3208
▁También	-3209
▁pero▁me	-3210
▁que▁Rin	-3211
▁sonreír	-3212
▁termino	-3213
cialmente	-3214
pidamente	-3215
▁descanso	-3216
▁interior	-3217
▁pasar▁el	-3218
▁trato▁de	-3219
Por▁qué▁no	-3220
▁a▁un▁lado	-3221
▁de▁que▁no	-3222
▁un▁tiempo	-3223
▁de▁acuerdo	-3224
▁diferentes	-3225
▁otra▁parte	-3226
▁está▁haciendo	-3227
ene	-3228
dero	-3229
tina	-3230
▁cae	-3231
▁hoj	-3232
ticas	-3233
▁ejer	-3234
Puedes	-3235
ilidad	-3236
▁empuj	-3237
▁y▁una	-3238
letismo	-3239
▁No▁hay	-3240
▁conver	-3241
▁dirijo	-3242
No▁lo▁sé	-3243
istencia	-3244
▁cansada	-3245
▁derecha	-3246
▁olvidar	-3247
▁saberlo	-3248
▁segunda	-3249
En▁verdad	-3250
Se▁siente	-3251
▁de▁haber	-3252
▁pequeños	-3253
▁trata▁de	-3254
▁conseguir	-3255
▁imposible	-3256
▁para▁nada	-3257
▁que▁Lilly	-3258
▁mayor▁parte	-3259
▁mientras▁me	-3260
▁extrañamente	-3261
▁en▁la▁escuela	-3262
▁Shizune▁y▁Misha	-3263
00	-3264
Ex	-3265
”,	-3266
Fue	-3267
gañ	-3268
iro	-3269
lig	-3270
ton	-3271
vos	-3272
diós	-3273
▁art	-3274
▁mús	-3275
▁pul	-3276
▁edad	-3277
▁fres	-3278
de▁que	-3279
▁debaj	-3280
▁delic	-3281
▁padre	-3282
▁tradu	-3283
▁gentil	-3284
▁oscuro	-3285
▁un▁día	-3286
No▁tengo	-3287
▁cambiar	-3288
▁como▁lo	-3289
▁conocer	-3290
▁hay▁una	-3291
▁pero▁es	-3292
▁algo▁así	-3293
▁contacto	-3294
▁nosotras	-3295
▁reaccion	-3296
▁regresar	-3297
▁y▁Hanako	-3298
▁Se▁siente	-3299
▁más▁y▁más	-3300
▁tener▁una	-3301
▁Después▁de	-3302
▁difícil▁de	-3303
▁se▁detiene	-3304
▁suavemente	-3305
▁expresión▁de	-3306
▁por▁un▁tiempo	-3307
▁significa▁que	-3308
▁estoy▁seguro▁de	-3309
ban	-3310
bús	-3311
▁iz	-3312
Tomo	-3313
enti	-3314
icul	-3315
ismo	-3316
omin	-3317
▁Deb	-3318
▁Sae	-3319
▁bur	-3320
▁tam	-3321
Acaso	-3322
jo▁de	-3323
ridad	-3324
▁cafe	-3325
▁cerc	-3326
▁envi	-3327
▁leve	-3328
▁ofre	-3329
▁rode	-3330
▁usar	-3331
ándole	-3332
▁Tengo	-3333
▁compr	-3334
▁común	-3335
▁haces	-3336
▁veo▁a	-3337
cepcion	-3338
tándome	-3339
▁aun▁si	-3340
▁bastón	-3341
▁despre	-3342
▁esfuer	-3343
▁exhibi	-3344
▁imagen	-3345
▁llevar	-3346
▁motivo	-3347
▁noches	-3348
▁un▁pas	-3349
▁Gracias	-3350
▁control	-3351
▁dormido	-3352
▁izquier	-3353
▁pero▁la	-3354
▁prepara	-3355
▁y▁ahora	-3356
Pensé▁que	-3357
▁debe▁ser	-3358
▁nada▁más	-3359
▁sobre▁mí	-3360
▁cabeza▁de	-3361
▁más▁tarde	-3362
▁sonriendo	-3363
▁a▁mí▁mismo	-3364
▁en▁lugar▁de	-3365
▁al▁enfermero	-3366
▁en▁cualquier	-3367
▁quiero▁decir	-3368
▁frunce▁el▁ceño	-3369
▁todos▁los▁demás	-3370
pó	-3371
Pas	-3372
a▁y	-3373
mir	-3374
ojo	-3375
▁Sí	-3376
▁er	-3377
arav	-3378
osas	-3379
▁ras	-3380
sider	-3381
titud	-3382
▁fras	-3383
▁frío	-3384
▁tuve	-3385
▁velo	-3386
Cierto	-3387
▁fuese	-3388
▁graci	-3389
▁jugue	-3390
▁listo	-3391
▁miedo	-3392
▁pelig	-3393
▁verse	-3394
A▁pesar	-3395
▁buscar	-3396
▁confir	-3397
▁no▁fue	-3398
▁querer	-3399
▁sosten	-3400
▁tomado	-3401
▁vuelto	-3402
▁Iwanako	-3403
▁dificul	-3404
▁explica	-3405
▁mujeres	-3406
▁reunión	-3407
▁semanas	-3408
▁se▁está	-3409
▁caliente	-3410
▁compañía	-3411
▁para▁ser	-3412
de▁acuerdo	-3413
▁estuviese	-3414
▁mirándome	-3415
▁todas▁las	-3416
Rápidamente	-3417
▁alguna▁vez	-3418
▁preocupada	-3419
▁tan▁rápido	-3420
▁repentinamente	-3421
▁por▁primera▁vez	-3422
▁se▁siente▁como▁si	-3423
tú	-3424
óxi	-3425
Algo	-3426
cómo	-3427
▁cir	-3428
adora	-3429
dicam	-3430
gamos	-3431
▁a▁ti	-3432
▁gira	-3433
iforme	-3434
odrías	-3435
tos▁de	-3436
▁ambas	-3437
▁chico	-3438
▁encan	-3439
▁equip	-3440
▁esfor	-3441
▁firme	-3442
▁línea	-3443
▁multi	-3444
Qué▁hay	-3445
o▁de▁mi	-3446
▁acompa	-3447
▁alivio	-3448
▁camisa	-3449
▁hambre	-3450
▁lograr	-3451
▁risita	-3452
▁saluda	-3453
▁y▁todo	-3454
▁con▁Rin	-3455
▁dijiste	-3456
▁un▁rato	-3457
▁vamos▁a	-3458
▁vueltas	-3459
Maldición	-3460
▁decisión	-3461
▁de▁ellas	-3462
▁la▁gente	-3463
▁me▁gusta	-3464
▁un▁largo	-3465
▁cafetería	-3466
▁con▁Lilly	-3467
▁de▁clases	-3468
▁mis▁manos	-3469
▁pero▁ella	-3470
▁se▁sienta	-3471
▁sintiendo	-3472
▁para▁poder	-3473
▁preguntarle	-3474
▁del▁festival	-3475
▁me▁encuentro	-3476
▁que▁lo▁pienso	-3477
▁al▁consejo▁estudiantil	-3478
Ap	-3479
Cre	-3480
ace	-3481
bar	-3482
cel	-3483
yec	-3484
▁cr	-3485
enes	-3486
ille	-3487
tima	-3488
▁gar	-3489
Quién	-3490
divin	-3491
pa▁de	-3492
tarlo	-3493
tente	-3494
▁afec	-3495
▁asom	-3496
Estaba	-3497
▁iba▁a	-3498
▁rever	-3499
▁y▁sus	-3500
Supongo	-3501
▁Quizás	-3502
▁conoci	-3503
▁ejerci	-3504
▁ligero	-3505
▁puesto	-3506
▁satisf	-3507
▁Es▁solo	-3508
▁aun▁así	-3509
▁decidir	-3510
▁de▁este	-3511
▁discapa	-3512
▁De▁hecho	-3513
▁poniendo	-3514
▁Pensé▁que	-3515
▁dormitorio	-3516
▁No▁creo▁que	-3517
▁pensamiento	-3518
▁se▁encuentra	-3519
▁sorprendente	-3520
▁sus▁anteojos	-3521
▁Me▁pregunto▁si	-3522
are	-3523
igu	-3524
…▁¡	-3525
▁Le	-3526
cado	-3527
es▁y	-3528
os▁y	-3529
uele	-3530
~!▁¿	-3531
▁Hab	-3532
▁Pue	-3533
▁apa	-3534
▁cla	-3535
▁inm	-3536
▁lun	-3537
▁pág	-3538
▁áre	-3539
garme	-3540
ia▁de	-3541
inado	-3542
table	-3543
▁eleg	-3544
▁noto	-3545
termin	-3546
▁lanza	-3547
▁llama	-3548
▁logro	-3549
▁manej	-3550
▁pasos	-3551
▁sabor	-3552
▁Estaba	-3553
▁cierta	-3554
▁cuatro	-3555
▁cuánto	-3556
▁el▁día	-3557
▁lidiar	-3558
▁no▁ser	-3559
ado▁para	-3560
▁medicam	-3561
▁miradas	-3562
▁piensas	-3563
▁propios	-3564
▁sospech	-3565
▁acaba▁de	-3566
▁cosa▁que	-3567
▁mejillas	-3568
▁volver▁a	-3569
▁cosas▁que	-3570
▁cuando▁me	-3571
▁cuando▁se	-3572
▁emociones	-3573
▁mi▁corazón	-3574
▁sobre▁ella	-3575
▁tan▁pronto	-3576
▁de▁la▁clase	-3577
▁hasta▁ahora	-3578
Eventualmente	-3579
▁algunas▁veces	-3580
Sa	-3581
há	-3582
ió	-3583
rá	-3584
uc	-3585
▁B	-3586
aco	-3587
jus	-3588
pio	-3589
ste	-3590
Pens	-3591
adie	-3592
ecen	-3593
ible	-3594
▁boc	-3595
▁nub	-3596
▁pri	-3597
▁sup	-3598
▁árb	-3599
grada	-3600
▁cita	-3601
▁genu	-3602
icidad	-3603
▁corto	-3604
▁incon	-3605
▁pocos	-3606
▁recog	-3607
▁sacar	-3608
▁Tezuka	-3609
▁abando	-3610
▁acabar	-3611
▁estará	-3612
▁estuvo	-3613
▁fueron	-3614
▁portón	-3615
▁romper	-3616
▁saludo	-3617
▁sonris	-3618
▁en▁esto	-3619
▁esperan	-3620
▁honesto	-3621
▁intenta	-3622
▁lamento	-3623
▁la▁pena	-3624
▁mejilla	-3625
▁seguido	-3626
▁árboles	-3627
▁ayudarte	-3628
▁a▁la▁vez	-3629
▁bolsillo	-3630
▁en▁clase	-3631
▁incómoda	-3632
▁la▁misma	-3633
▁un▁lugar	-3634
▁confianza	-3635
▁de▁alguna	-3636
▁de▁manera	-3637
▁estábamos	-3638
▁más▁fácil	-3639
▁no▁es▁una	-3640
▁presencia	-3641
▁único▁que	-3642
▁cualquiera	-3643
▁del▁tiempo	-3644
▁intento▁de	-3645
▁sobre▁ello	-3646
▁esta▁mañana	-3647
▁últimamente	-3648
▁perfectamente	-3649
▁profundamente	-3650
▁una▁respuesta	-3651
día	-3652
ecu	-3653
hái	-3654
rió	-3655
▁em	-3656
▁há	-3657
▁jo	-3658
ayun	-3659
bara	-3660
cera	-3661
irse	-3662
unci	-3663
▁Hay	-3664
▁ine	-3665
▁tab	-3666
▁vas	-3667
Ambos	-3668
Suena	-3669
damos	-3670
remos	-3671
▁murm	-3672
▁y▁en	-3673
Quería	-3674
Recuer	-3675
Rin▁se	-3676
ada▁de	-3677
anghái	-3678
lación	-3679
▁a▁mis	-3680
▁darse	-3681
▁exten	-3682
▁marav	-3683
▁mural	-3684
▁trata	-3685
▁vacía	-3686
▁verlo	-3687
pectiva	-3688
▁alcanz	-3689
▁cambio	-3690
▁efecto	-3691
▁el▁uno	-3692
▁pastel	-3693
Trato▁de	-3694
▁campana	-3695
▁cerebro	-3696
▁conozco	-3697
▁solo▁me	-3698
▁univers	-3699
▁a▁Yamaku	-3700
▁como▁que	-3701
▁hasta▁el	-3702
▁interpre	-3703
▁mantiene	-3704
▁parecido	-3705
▁un▁libro	-3706
▁brillante	-3707
▁como▁este	-3708
▁constante	-3709
▁en▁Yamaku	-3710
▁impresión	-3711
▁inmediato	-3712
▁que▁Misha	-3713
▁que▁tengo	-3714
▁represent	-3715
▁decir▁algo	-3716
El▁enfermero	-3717
▁alguien▁más	-3718
▁cantidad▁de	-3719
▁con▁la▁cabeza	-3720
▁segura▁de▁que	-3721
aa	-3722
áb	-3723
”?	-3724
gul	-3725
xto	-3726
brar	-3727
brir	-3728
ende	-3729
está	-3730
melo	-3731
▁Soy	-3732
▁Tan	-3733
▁amp	-3734
▁dul	-3735
▁mín	-3736
ga▁de	-3737
iment	-3738
tarte	-3739
tivas	-3740
▁exam	-3741
▁haré	-3742
▁míos	-3743
cional	-3744
▁amiga	-3745
▁cabal	-3746
▁enseñ	-3747
▁falta	-3748
▁nariz	-3749
▁si▁es	-3750
▁sopor	-3751
▁tonto	-3752
▁traer	-3753
Intento	-3754
iéndose	-3755
tividad	-3756
▁abrazo	-3757
▁descri	-3758
▁estaré	-3759
▁llegué	-3760
▁menudo	-3761
▁prefer	-3762
▁reflex	-3763
▁uno▁de	-3764
▁visión	-3765
▁abierta	-3766
▁al▁lado	-3767
▁artista	-3768
▁autobús	-3769
▁comprar	-3770
▁con▁Emi	-3771
▁dejando	-3772
▁desayun	-3773
▁jugando	-3774
▁las▁dos	-3775
▁respons	-3776
▁secreto	-3777
▁taza▁de	-3778
▁Shanghái	-3779
▁aburrido	-3780
▁carreras	-3781
▁corredor	-3782
▁del▁club	-3783
▁dice▁que	-3784
▁escribir	-3785
▁fuera▁de	-3786
▁nada▁que	-3787
▁pero▁eso	-3788
▁por▁ello	-3789
▁que▁esto	-3790
▁uniforme	-3791
▁un▁juego	-3792
▁encima▁de	-3793
▁que▁no▁me	-3794
▁que▁puedo	-3795
▁así▁que▁me	-3796
▁comentario	-3797
▁no▁importa	-3798
▁se▁levanta	-3799
▁usualmente	-3800
Ella▁asiente	-3801
o▁de▁los▁dos	-3802
▁en▁el▁salón	-3803
▁pensando▁en	-3804
▁por▁eso▁que	-3805
esperadamente	-3806
▁primer▁lugar	-3807
▁razón▁por▁la	-3808
▁pero▁creo▁que	-3809
▁tiene▁sentido	-3810
No▁te▁preocupes	-3811
▁otras▁personas	-3812
íf	-3813
▁—	-3814
Res	-3815
eas	-3816
lec	-3817
zas	-3818
óma	-3819
acio	-3820
acto	-3821
izar	-3822
lero	-3823
o▁no	-3824
tará	-3825
▁ojo	-3826
▁sir	-3827
Camin	-3828
Dónde	-3829
▁beso	-3830
▁caja	-3831
▁carc	-3832
▁ceja	-3833
▁cele	-3834
▁cubi	-3835
▁idio	-3836
dencia	-3837
▁banco	-3838
▁es▁de	-3839
▁gradu	-3840
▁impul	-3841
▁perca	-3842
▁quise	-3843
▁traje	-3844
▁verde	-3845
▁viejo	-3846
osición	-3847
▁campus	-3848
▁dejado	-3849
▁entero	-3850
▁no▁son	-3851
▁salida	-3852
▁sencil	-3853
▁vez▁en	-3854
▁y▁solo	-3855
▁ajedrez	-3856
▁casa▁de	-3857
▁contrar	-3858
▁esquina	-3859
▁inusual	-3860
▁se▁abre	-3861
▁almorzar	-3862
▁dejar▁de	-3863
▁del▁todo	-3864
▁historia	-3865
▁profundo	-3866
▁discusión	-3867
▁empieza▁a	-3868
▁izquierda	-3869
▁montón▁de	-3870
▁no▁puedes	-3871
▁no▁quiero	-3872
▁un▁proble	-3873
▁encontrado	-3874
▁es▁difícil	-3875
▁que▁Hanako	-3876
▁un▁vistazo	-3877
▁En▁realidad	-3878
▁el▁almuerzo	-3879
▁experiencia	-3880
▁posiblemente	-3881
▁en▁primer▁lugar	-3882
▁no▁puedo▁evitar	-3883
▁la▁primera▁vez▁que	-3884
gü	-3885
uch	-3886
lido	-3887
orta	-3888
o▁sí	-3889
▁Las	-3890
▁Nos	-3891
▁enc	-3892
▁ens	-3893
▁fij	-3894
milar	-3895
tarle	-3896
tivos	-3897
▁a▁tu	-3898
▁desn	-3899
▁dich	-3900
▁diez	-3901
▁dura	-3902
Espero	-3903
odemos	-3904
riendo	-3905
tar▁el	-3906
▁Todos	-3907
▁aspec	-3908
▁corta	-3909
▁domin	-3910
▁meses	-3911
▁pagar	-3912
▁salgo	-3913
▁seria	-3914
▁toque	-3915
▁verte	-3916
▁y▁con	-3917
camente	-3918
mos▁que	-3919
▁absolu	-3920
▁acerca	-3921
▁cerrar	-3922
▁con▁él	-3923
▁correo	-3924
▁cuello	-3925
▁da▁una	-3926
▁extrem	-3927
▁juegos	-3928
▁juntas	-3929
▁minuto	-3930
▁por▁no	-3931
▁ser▁un	-3932
▁acompañ	-3933
▁aparece	-3934
▁a▁veces	-3935
▁detengo	-3936
▁escapar	-3937
▁galería	-3938
▁ocupado	-3939
▁sientes	-3940
▁un▁lado	-3941
▁decidido	-3942
▁la▁única	-3943
▁se▁mueve	-3944
▁se▁vuelve	-3945
▁doy▁vuelta	-3946
▁el▁momento	-3947
▁entusiasmo	-3948
▁este▁lugar	-3949
▁exhibición	-3950
▁hacia▁ella	-3951
▁pero▁ahora	-3952
▁respecto▁a	-3953
Quiero▁decir	-3954
▁hace▁sentir	-3955
▁Quiero▁decir	-3956
▁alguna▁razón	-3957
▁cada▁vez▁más	-3958
▁cada▁vez▁que	-3959
▁parece▁haber	-3960
Por▁un▁momento	-3961
▁vez▁en▁cuando	-3962
▁increíblemente	-3963
▁mis▁pensamientos	-3964
Lle	-3965
din	-3966
erá	-3967
gua	-3968
lés	-3969
¡…!	-3970
▁pí	-3971
garr	-3972
leza	-3973
osos	-3974
zaki	-3975
▁nie	-3976
▁sáb	-3977
doras	-3978
ánico	-3979
ómago	-3980
▁afir	-3981
▁rara	-3982
▁reve	-3983
▁vino	-3984
▁Hasta	-3985
▁Ibara	-3986
▁No▁sé	-3987
▁cardi	-3988
▁me▁lo	-3989
▁obvio	-3990
▁techo	-3991
Siempre	-3992
ando▁mi	-3993
▁	-3994
e	-3995
a	-3996
o	-3997
s	-3998
n	-3999
r	-4000
i	-4001
t	-4002
l	-4003
u	-4004
d	-4005
c	-4006
m	-4007
p	-4008
.	-4009
,	-4010
b	-4011
q	-4012
h	-4013
g	-4014
v	-4015
y	-4016
í	-4017
á	-4018
f	-4019
z	-4020
j	-4021
E	-4022
é	-4023
ó	-4024
S	-4025
¿	-4026
?	-4027
…	-4028
N	-4029
L	-4030
H	-4031
P	-4032
A	-4033
M	-4034
ú	-4035
ñ	-4036
¡	-4037
!	-4038
k	-4039
T	-4040
x	-4041
C	-4042
D	-4043
Y	-4044
R	-4045
Q	-4046
~	-4047
O	-4048
B	-4049
U	-4050
V	-4051
I	-4052
“	-4053
”	-4054
;	-4055
G	-4056
-	-4057
J	-4058
F	-4059
—	-4060
K	-4061
É	-4062
0	-4063
w	-4064
:	-4065
2	-4066
3	-4067
ü	-4068
1	-4069
5	-4070
4	-4071
(	-4072
)	-4073
Ú	-4074
*	-4075
6	-4076
7	-4077
8	-4078
Á	-4079
W	-4080
9	-4081
%	-4082
/	-4083
X	-4084
Z	-4085
Í	-4086
à	-4087
ō	-4088
<	-4089
>	-4090
Ñ	-4091
Ó	-4092
ç	-4093
