<unk>	0
▁t	-0
he	-1
▁a	-2
in	-3
▁s	-4
ou	-5
ha	-6
re	-7
▁w	-8
ing	-9
▁the	-10
▁m	-11
▁b	-12
▁o	-13
▁I	-14
▁to	-15
▁i	-16
▁f	-17
▁c	-18
er	-19
nd	-20
▁l	-21
▁d	-22
ll	-23
es	-24
on	-25
en	-26
hat	-27
▁p	-28
or	-29
▁he	-30
an	-31
is	-32
▁g	-33
▁it	-34
it	-35
▁of	-36
▁n	-37
▁th	-38
om	-39
▁be	-40
▁y	-41
st	-42
▁e	-43
▁ha	-44
ed	-45
▁you	-46
▁and	-47
ay	-48
ow	-49
ly	-50
▁that	-51
▁in	-52
le	-53
ar	-54
gh	-55
ic	-56
at	-57
ke	-58
ot	-59
ve	-60
as	-61
▁is	-62
▁her	-63
et	-64
ld	-65
un	-66
▁st	-67
oo	-68
▁me	-69
ut	-70
▁on	-71
▁re	-72
ac	-73
ee	-74
out	-75
▁li	-76
id	-77
se	-78
al	-79
▁S	-80
hi	-81
▁my	-82
ould	-83
ver	-84
▁she	-85
▁u	-86
▁for	-87
all	-88
ght	-89
▁do	-90
ent	-91
▁as	-92
▁r	-93
▁an	-94
▁h	-95
ith	-96
▁like	-97
han	-98
ch	-99
▁with	-100
ust	-101
▁not	-102
▁j	-103
ion	-104
ad	-105
▁we	-106
ak	-107
▁so	-108
▁can	-109
ir	-110
▁k	-111
me	-112
▁at	-113
ally	-114
ight	-115
hing	-116
▁have	-117
▁but	-118
▁som	-119
une	-120
ore	-121
hiz	-122
hizune	-123
The	-124
▁this	-125
her	-126
ook	-127
ink	-128
ur	-129
▁H	-130
▁was	-131
ill	-132
ant	-133
▁see	-134
ec	-135
▁ab	-136
▁just	-137
ind	-138
▁go	-139
il	-140
▁up	-141
s▁a	-142
▁out	-143
ter	-144
▁don	-145
▁think	-146
▁fr	-147
ea	-148
ven	-149
pp	-150
▁tr	-151
▁would	-152
ough	-153
▁Shizune	-154
ing▁to	-155
ro	-156
▁if	-157
▁sh	-158
ess	-159
▁kn	-160
▁look	-161
ack	-162
▁M	-163
ain	-164
chan	-165
▁ti	-166
icchan	-167
very	-168
▁about	-169
▁any	-170
▁It	-171
ce	-172
~!	-173
isha	-174
▁al	-175
▁what	-176
▁know	-177
▁su	-178
▁are	-179
ake	-180
It	-181
▁wh	-182
▁want	-183
▁get	-184
ound	-185
op	-186
▁cl	-187
▁all	-188
You	-189
▁some	-190
s▁to	-191
▁of▁the	-192
ud	-193
one	-194
eel	-195
▁wor	-196
art	-197
▁ex	-198
ab	-199
ass	-200
est	-201
▁com	-202
▁feel	-203
qu	-204
▁ne	-205
us	-206
way	-207
ig	-208
▁more	-209
ood	-210
▁time	-211
▁con	-212
▁even	-213
▁A	-214
ell	-215
mp	-216
▁from	-217
lf	-218
▁or	-219
▁Misha	-220
▁there	-221
ag	-222
▁really	-223
▁int	-224
au	-225
▁W	-226
ide	-227
▁seem	-228
▁back	-229
▁the▁s	-230
▁ar	-231
That	-232
▁does	-233
ss	-234
▁no	-235
▁right	-236
ate	-237
▁they	-238
▁one	-239
▁somet	-240
ous	-241
▁here	-242
ed▁to	-243
▁whe	-244
▁in▁the	-245
alk	-246
▁pl	-247
▁qu	-248
▁too	-249
ting	-250
▁a▁l	-251
▁now	-252
ond	-253
▁something	-254
▁way	-255
▁could	-256
ation	-257
▁I▁can	-258
▁us	-259
ick	-260
our	-261
ard	-262
ong	-263
▁un	-264
ep	-265
▁The	-266
ers	-267
ther	-268
ool	-269
▁ag	-270
▁say	-271
oun	-272
udent	-273
ost	-274
▁did	-275
▁should	-276
ice	-277
▁Hicchan	-278
self	-279
ive	-280
ff	-281
ct	-282
tle	-283
▁them	-284
▁only	-285
▁pre	-286
▁gu	-287
are	-288
▁try	-289
▁how	-290
ast	-291
ort	-292
▁hand	-293
and	-294
thing	-295
ace	-296
▁pro	-297
chool	-298
▁by	-299
ul	-300
▁then	-301
iv	-302
▁your	-303
fore	-304
▁I▁don	-305
▁doesn	-306
ame	-307
▁thing	-308
She	-309
▁into	-310
ck	-311
ittle	-312
ause	-313
▁off	-314
am	-315
▁every	-316
own	-317
▁L	-318
▁sp	-319
haha	-320
▁than	-321
▁mu	-322
▁over	-323
▁though	-324
▁other	-325
▁po	-326
be	-327
▁the▁f	-328
ought	-329
ry	-330
ect	-331
▁pe	-332
But	-333
▁bec	-334
▁lea	-335
akes	-336
fter	-337
▁want▁to	-338
▁much	-339
s▁like	-340
illy	-341
▁again	-342
▁start	-343
▁a▁s	-344
ople	-345
▁class	-346
ign	-347
▁before	-348
ious	-349
▁a▁b	-350
ble	-351
▁le	-352
ist	-353
▁kind	-354
▁make	-355
▁been	-356
▁that▁I	-357
▁thought	-358
ounc	-359
▁very	-360
ty	-361
▁people	-362
▁ro	-363
▁good	-364
▁sl	-365
▁work	-366
iz	-367
ite	-368
▁en	-369
▁exp	-370
ure	-371
▁gr	-372
ouncil	-373
▁de	-374
▁who	-375
▁C	-376
aybe	-377
▁around	-378
▁had	-379
ie	-380
▁guess	-381
ap	-382
▁v	-383
act	-384
▁going▁to	-385
urn	-386
▁when	-387
os	-388
ine	-389
ere	-390
▁because	-391
▁down	-392
▁take	-393
▁hi	-394
▁tw	-395
kay	-396
ang	-397
▁have▁to	-398
▁T	-399
s▁not	-400
▁man	-401
ako	-402
▁still	-403
▁didn	-404
ually	-405
▁sign	-406
mb	-407
th	-408
▁talk	-409
▁kind▁of	-410
▁You	-411
▁day	-412
irst	-413
▁E	-414
▁fe	-415
anako	-416
ving	-417
No	-418
day	-419
aking	-420
▁Lilly	-421
Shizune	-422
▁thr	-423
ning	-424
▁room	-425
▁being	-426
▁the▁b	-427
▁school	-428
What	-429
eah	-430
ress	-431
▁That	-432
▁were	-433
▁and▁I	-434
▁would▁be	-435
lp	-436
▁har	-437
age	-438
▁dr	-439
hicchan	-440
▁di	-441
▁a▁little	-442
ose	-443
ome	-444
ward	-445
▁anything	-446
▁bet	-447
▁has	-448
▁isn	-449
▁makes	-450
able	-451
▁on▁the	-452
▁two	-453
▁help	-454
▁happ	-455
▁mean	-456
▁co	-457
▁after	-458
▁St	-459
▁se	-460
hile	-461
▁to▁the	-462
▁student	-463
orm	-464
▁head	-465
▁tell	-466
▁I▁was	-467
▁hard	-468
his	-469
read	-470
▁'	-471
ach	-472
▁sure	-473
He	-474
▁ke	-475
▁sa	-476
▁his	-477
▁R	-478
ish	-479
▁ey	-480
red	-481
▁ask	-482
▁dis	-483
▁I▁think	-484
▁jo	-485
▁why	-486
mi	-487
ably	-488
nder	-489
im	-490
ull	-491
int	-492
▁te	-493
▁comp	-494
▁am	-495
hy	-496
▁well	-497
onder	-498
▁myself	-499
ue	-500
get	-501
▁door	-502
▁pret	-503
▁Shicchan	-504
So	-505
ge	-506
reat	-507
▁a▁p	-508
▁imp	-509
▁to▁be	-510
udent▁C	-511
wn	-512
t▁know	-513
udent▁Council	-514
▁real	-515
▁looking	-516
▁bot	-517
▁che	-518
▁gl	-519
▁str	-520
s▁the	-521
most	-522
▁our	-523
s▁her	-524
▁wonder	-525
▁Student▁Council	-526
s▁and	-527
▁turn	-528
▁long	-529
▁under	-530
ing▁the	-531
▁br	-532
▁might	-533
▁keep	-534
ies	-535
▁while	-536
nt	-537
▁fl	-538
▁D	-539
irl	-540
ft	-541
up	-542
▁She	-543
▁will	-544
sp	-545
▁let	-546
▁pretty	-547
▁trying▁to	-548
▁end	-549
▁walk	-550
▁quick	-551
▁through	-552
▁bl	-553
Yeah	-554
ment	-555
▁eat	-556
ase	-557
ity	-558
Well	-559
▁Hanako	-560
▁at▁the	-561
▁about▁it	-562
pr	-563
▁op	-564
side	-565
▁him	-566
▁doing	-567
▁I▁guess	-568
▁el	-569
ready	-570
atch	-571
s▁of	-572
▁put	-573
bably	-574
ree	-575
▁mo	-576
ves	-577
▁sit	-578
ait	-579
te	-580
Not	-581
▁a▁c	-582
ful	-583
▁sur	-584
▁it▁was	-585
▁wr	-586
▁girl	-587
▁enough	-588
ival	-589
s▁me	-590
unch	-591
▁app	-592
ahaha	-593
dd	-594
ily	-595
▁eyes	-596
▁play	-597
▁probably	-598
ary	-599
here	-600
ible	-601
s▁that	-602
▁out▁of	-603
▁O	-604
pris	-605
▁But	-606
ither	-607
▁almost	-608
▁else	-609
▁least	-610
ence	-611
▁find	-612
estival	-613
ip	-614
▁id	-615
ince	-616
▁come	-617
▁read	-618
ich	-619
Misha	-620
▁away	-621
▁face	-622
▁said	-623
We	-624
▁ac	-625
▁act	-626
▁dec	-627
▁first	-628
▁where	-629
▁the▁m	-630
▁someone	-631
ize	-632
m▁not	-633
so	-634
▁Y	-635
▁run	-636
▁des	-637
econd	-638
▁looks	-639
▁a▁m	-640
I▁don	-641
▁but▁I	-642
▁but▁it	-643
▁feeling	-644
▁with▁her	-645
▁bu	-646
ever	-647
s▁are	-648
▁anyway	-649
▁the▁same	-650
▁eas	-651
▁never	-652
ear	-653
▁cr	-654
▁okay	-655
mm	-656
▁bo	-657
hind	-658
▁And	-659
▁of▁her	-660
les	-661
br	-662
▁fo	-663
▁pr	-664
s▁it	-665
erson	-666
stand	-667
▁quickly	-668
▁this▁is	-669
▁seems▁to	-670
▁that▁she	-671
s▁in	-672
▁fin	-673
▁mind	-674
▁so▁I	-675
▁behind	-676
▁surpris	-677
▁cont	-678
▁if▁I	-679
▁must	-680
▁already	-681
▁everything	-682
And	-683
uk	-684
ock	-685
▁open	-686
▁point	-687
▁fun	-688
▁place	-689
ing▁her	-690
▁wouldn	-691
less	-692
▁few	-693
t▁be	-694
▁hear	-695
ing▁it	-696
▁going	-697
▁today	-698
▁If	-699
▁ent	-700
▁What	-701
▁each	-702
▁their	-703
ks	-704
mber	-705
▁Rin	-706
▁diff	-707
▁things	-708
▁understand	-709
▁lunch	-710
▁ho	-711
▁as▁if	-712
~.	-713
▁sm	-714
▁little	-715
we	-716
▁ob	-717
orry	-718
arly	-719
other	-720
▁both	-721
t▁even	-722
▁if▁you	-723
▁pain	-724
▁a▁lot	-725
▁maybe	-726
fe	-727
▁sc	-728
▁sound	-729
▁everyone	-730
ike	-731
I▁can	-732
estion	-733
▁to▁do	-734
▁do▁you	-735
▁the▁school	-736
sid	-737
▁We	-738
oment	-739
▁nice	-740
t▁think	-741
▁makes▁me	-742
xt	-743
hen	-744
▁got	-745
▁as▁I	-746
▁supp	-747
▁the▁c	-748
If	-749
hed	-750
ance	-751
▁word	-752
ail	-753
isa	-754
uff	-755
ways	-756
▁sha	-757
▁hands	-758
▁since	-759
As	-760
ason	-761
isao	-762
le▁to	-763
▁without	-764
▁thinking	-765
This	-766
▁care	-767
▁fing	-768
▁last	-769
▁need	-770
▁better	-771
▁are▁you	-772
▁question	-773
Oh	-774
ji	-775
ater	-776
vent	-777
ately	-778
▁idea	-779
▁which	-780
Ken	-781
ied	-782
uko	-783
uuko	-784
Kenji	-785
▁of▁my	-786
▁person	-787
▁against	-788
og	-789
▁part	-790
ire	-791
▁in▁a	-792
▁at▁least	-793
ol	-794
angu	-795
▁like▁that	-796
iend	-797
▁mor	-798
lding	-799
▁give	-800
▁wait	-801
▁in▁my	-802
▁it▁is	-803
▁reason	-804
▁I▁could	-805
▁cour	-806
▁langu	-807
▁to▁me	-808
▁expect	-809
▁able▁to	-810
▁differe	-811
um	-812
▁bad	-813
▁either	-814
pt	-815
air	-816
▁left	-817
▁stop	-818
▁language	-819
▁and▁Misha	-820
ated	-821
▁giv	-822
▁own	-823
▁wee	-824
asses	-825
▁leave	-826
▁happen	-827
ib	-828
ny	-829
ade	-830
ans	-831
ark	-832
hes	-833
ier	-834
▁such	-835
ing▁me	-836
s▁just	-837
▁she▁is	-838
▁what▁I	-839
▁another	-840
t▁you	-841
gether	-842
iously	-843
▁morning	-844
ute	-845
o▁you	-846
▁chan	-847
▁at▁me	-848
▁for▁a	-849
▁on▁her	-850
Why	-851
ise	-852
ret	-853
vers	-854
▁book	-855
▁at▁all	-856
▁course	-857
▁taking	-858
▁from▁the	-859
reak	-860
▁spe	-861
▁call	-862
▁show	-863
▁teac	-864
▁council	-865
▁getting	-866
if	-867
ner	-868
▁ad	-869
ween	-870
▁This	-871
▁libr	-872
▁pick	-873
▁stand	-874
▁to▁her	-875
▁happy	-876
▁having	-877
▁nothing	-878
ird	-879
ual	-880
ling	-881
▁bus	-882
▁seems	-883
Hicchan	-884
▁different	-885
~,	-886
uck	-887
▁per	-888
▁takes	-889
az	-890
sw	-891
ub	-892
▁B	-893
ont	-894
▁So	-895
oice	-896
ully	-897
▁far	-898
ition	-899
▁I▁have	-900
▁between	-901
iss	-902
erest	-903
▁answ	-904
▁inst	-905
t▁have	-906
▁of▁it	-907
▁always	-908
▁as▁well	-909
▁of▁them	-910
oy	-911
~?	-912
aki	-913
der	-914
▁si	-915
s▁al	-916
s▁up	-917
▁rel	-918
▁set	-919
ingly	-920
▁I▁didn	-921
▁for▁her	-922
▁for▁the	-923
aw	-924
For	-925
▁rep	-926
▁won	-927
▁done	-928
▁hall	-929
▁life	-930
re▁you	-931
▁try▁to	-932
▁you▁can	-933
lt	-934
▁P	-935
▁new	-936
▁game	-937
▁join	-938
▁norm	-939
▁notice	-940
▁realize	-941
ne	-942
od	-943
▁tea	-944
▁Hisao	-945
▁a▁bit	-946
▁I▁feel	-947
▁and▁then	-948
ave	-949
leep	-950
▁att	-951
Maybe	-952
There	-953
▁slow	-954
▁wrong	-955
t▁really	-956
▁sk	-957
▁also	-958
▁food	-959
▁There	-960
▁friend	-961
▁library	-962
▁sign▁language	-963
Ah	-964
llow	-965
▁cha	-966
▁lau	-967
▁ret	-968
ed▁by	-969
ll▁be	-970
▁Kenji	-971
▁comple	-972
ms	-973
Hey	-974
per	-975
Just	-976
ions	-977
▁ser	-978
▁unt	-979
pping	-980
▁reme	-981
▁interest	-982
▁the▁festival	-983
▁student▁council	-984
▁nod	-985
ating	-986
▁week	-987
ssible	-988
▁front	-989
▁answer	-990
▁teacher	-991
▁the▁time	-992
iet	-993
oud	-994
ten	-995
room	-996
▁ever	-997
▁those	-998
▁with▁the	-999
▁each▁other	-1000
▁N	-1001
Okay	-1002
▁cle	-1003
▁yes	-1004
ently	-1005
▁They	-1006
▁next	-1007
▁resp	-1008
though	-1009
▁great	-1010
▁me▁to	-1011
▁with▁a	-1012
▁back▁to	-1013
led	-1014
ense	-1015
s▁out	-1016
where	-1017
▁Even	-1018
▁is▁a	-1019
▁of▁a	-1020
▁until	-1021
I▁guess	-1022
ression	-1023
ng	-1024
ump	-1025
ness	-1026
▁del	-1027
▁ple	-1028
sider	-1029
▁rest	-1030
▁Maybe	-1031
▁making	-1032
▁proble	-1033
▁I▁should	-1034
▁actually	-1035
▁the▁first	-1036
cus	-1037
fully	-1038
▁dorm	-1039
▁half	-1040
▁most	-1041
▁of▁us	-1042
▁that▁it	-1043
com	-1044
ial	-1045
▁bui	-1046
▁many	-1047
ightly	-1048
t▁seem	-1049
▁light	-1050
▁like▁a	-1051
▁talking	-1052
Yes	-1053
▁def	-1054
atter	-1055
▁fine	-1056
▁a▁few	-1057
ve▁been	-1058
▁in▁her	-1059
▁to▁get	-1060
versation	-1061
▁students	-1062
▁you▁know	-1063
▁wanted▁to	-1064
row	-1065
aring	-1066
▁clos	-1067
m▁sure	-1068
▁catch	-1069
▁gives	-1070
▁if▁it	-1071
▁if▁she	-1072
▁I▁thought	-1073
▁classroom	-1074
av	-1075
How	-1076
▁conf	-1077
▁dist	-1078
▁less	-1079
▁stay	-1080
ention	-1081
ing▁up	-1082
▁on▁my	-1083
▁herself	-1084
▁outside	-1085
▁to▁make	-1086
▁conversation	-1087
My	-1088
ead	-1089
oup	-1090
▁ass	-1091
▁hop	-1092
▁I▁had	-1093
▁stuff	-1094
▁tired	-1095
▁saying	-1096
▁so▁much	-1097
▁remember	-1098
gry	-1099
fort	-1100
round	-1101
ically	-1102
ideaki	-1103
▁quite	-1104
▁import	-1105
▁glasses	-1106
▁the▁door	-1107
▁I▁want▁to	-1108
Her	-1109
Rin	-1110
ert	-1111
cept	-1112
enly	-1113
▁Not	-1114
▁made	-1115
▁Yuuko	-1116
▁voice	-1117
▁as▁she	-1118
▁into▁the	-1119
▁have▁been	-1120
.'	-1121
ical	-1122
▁Emi	-1123
▁obv	-1124
▁pus	-1125
▁use	-1126
▁wall	-1127
▁quiet	-1128
▁I▁know	-1129
▁and▁the	-1130
▁must▁be	-1131
▁there▁is	-1132
ens	-1133
rect	-1134
▁art	-1135
▁emp	-1136
▁tim	-1137
▁easy	-1138
▁follow	-1139
▁fingers	-1140
ross	-1141
▁beg	-1142
▁hur	-1143
▁pull	-1144
▁laugh	-1145
▁she▁was	-1146
t▁want▁to	-1147
▁complete	-1148
▁together	-1149
▁to▁think	-1150
app	-1151
When	-1152
ange	-1153
ates	-1154
ount	-1155
▁inc	-1156
▁old	-1157
▁heard	-1158
▁of▁me	-1159
▁paint	-1160
▁anyone	-1161
▁could▁be	-1162
▁slightly	-1163
▁important	-1164
gg	-1165
▁ch	-1166
▁min	-1167
iness	-1168
▁fall	-1169
▁soon	-1170
▁year	-1171
ations	-1172
terday	-1173
▁normal	-1174
▁when▁I	-1175
▁festival	-1176
ces	-1177
▁In	-1178
ides	-1179
▁rem	-1180
▁hair	-1181
▁side	-1182
▁step	-1183
▁later	-1184
▁night	-1185
▁a▁good	-1186
▁working	-1187
▁you▁are	-1188
▁like▁this	-1189
▁right▁now	-1190
▁looks▁like	-1191
oor	-1192
▁aw	-1193
They	-1194
▁sil	-1195
After	-1196
▁I▁am	-1197
▁hold	-1198
▁sudd	-1199
▁told	-1200
▁break	-1201
▁heart	-1202
▁notic	-1203
▁weird	-1204
▁decide	-1205
▁toward	-1206
▁to▁see	-1207
▁consider	-1208
▁even▁though	-1209
err	-1210
idd	-1211
▁ca	-1212
▁late	-1213
▁order	-1214
▁the▁p	-1215
▁at▁her	-1216
I▁wonder	-1217
▁building	-1218
wor	-1219
mile	-1220
Lilly	-1221
▁move	-1222
Hahaha	-1223
▁haven	-1224
▁for▁you	-1225
▁I▁wonder	-1226
▁Shizune▁and▁Misha	-1227
cc	-1228
ject	-1229
ural	-1230
▁How	-1231
▁reg	-1232
▁top	-1233
▁yet	-1234
arent	-1235
ather	-1236
▁desk	-1237
▁seen	-1238
Do▁you	-1239
▁drink	-1240
I▁think	-1241
▁for▁me	-1242
▁second	-1243
▁Hideaki	-1244
▁running	-1245
Emi	-1246
oth	-1247
▁No	-1248
icul	-1249
imes	-1250
▁imm	-1251
▁rec	-1252
itely	-1253
▁pass	-1254
ing▁my	-1255
▁along	-1256
▁begin	-1257
▁watch	-1258
▁seems▁like	-1259
▁hun	-1260
orrow	-1261
▁early	-1262
▁sense	-1263
▁sorry	-1264
▁table	-1265
▁I▁just	-1266
▁coming	-1267
▁used▁to	-1268
▁in▁front	-1269
▁expression	-1270
▁F	-1271
mit	-1272
Even	-1273
▁nur	-1274
▁conc	-1275
▁plan	-1276
▁alone	-1277
▁inter	-1278
▁sleep	-1279
▁to▁go	-1280
▁slowly	-1281
▁problem	-1282
▁she▁can	-1283
▁there▁are	-1284
▁the▁Student▁Council	-1285
lie	-1286
ned	-1287
ons	-1288
s▁no	-1289
t▁it	-1290
upid	-1291
▁lear	-1292
▁stall	-1293
▁contin	-1294
▁she▁doesn	-1295
ho	-1296
~…	-1297
arr	-1298
edi	-1299
▁lo	-1300
▁exc	-1301
▁vis	-1302
▁loud	-1303
▁true	-1304
▁comes	-1305
▁event	-1306
▁three	-1307
▁times	-1308
▁whole	-1309
initely	-1310
▁entire	-1311
▁ground	-1312
▁return	-1313
▁need▁to	-1314
▁might▁be	-1315
▁possible	-1316
▁yesterday	-1317
osp	-1318
▁hu	-1319
With	-1320
▁air	-1321
▁bit	-1322
▁ref	-1323
eally	-1324
ially	-1325
▁close	-1326
▁direct	-1327
▁matter	-1328
▁hard▁to	-1329
▁a▁lot▁of	-1330
▁a▁second	-1331
▁I▁have▁to	-1332
▁going▁to▁be	-1333
ra	-1334
mpt	-1335
lves	-1336
s▁ag	-1337
I▁was	-1338
s▁all	-1339
▁goes	-1340
▁wind	-1341
▁short	-1342
▁smile	-1343
▁and▁it	-1344
▁that▁is	-1345
▁that▁you	-1346
▁seems▁to▁be	-1347
ew	-1348
vel	-1349
s▁so	-1350
utes	-1351
▁cur	-1352
▁wom	-1353
▁miss	-1354
Hanako	-1355
I▁feel	-1356
Wahaha	-1357
re▁not	-1358
s▁right	-1359
▁starts	-1360
▁stupid	-1361
f▁course	-1362
▁hallway	-1363
▁the▁only	-1364
▁after▁all	-1365
In	-1366
du	-1367
ory	-1368
aper	-1369
▁ear	-1370
▁fur	-1371
ed▁in	-1372
▁expl	-1373
▁town	-1374
▁empty	-1375
▁exact	-1376
ctually	-1377
▁moment	-1378
▁strange	-1379
▁completely	-1380
amn	-1381
eep	-1382
erv	-1383
min	-1384
oub	-1385
mall	-1386
omet	-1387
outh	-1388
▁dro	-1389
▁met	-1390
▁opp	-1391
ative	-1392
ed▁up	-1393
s▁for	-1394
▁Well	-1395
▁dark	-1396
▁fact	-1397
uation	-1398
▁trans	-1399
▁forget	-1400
▁minutes	-1401
St	-1402
no	-1403
Don	-1404
end	-1405
how	-1406
ict	-1407
Good	-1408
pped	-1409
s▁on	-1410
▁eye	-1411
▁gre	-1412
antly	-1413
ished	-1414
▁Then	-1415
▁case	-1416
▁days	-1417
s▁okay	-1418
▁check	-1419
▁throw	-1420
This▁is	-1421
▁way▁to	-1422
s▁around	-1423
▁all▁the	-1424
▁sitting	-1425
▁a▁moment	-1426
▁and▁Shizune	-1427
to	-1428
esp	-1429
got	-1430
ors	-1431
▁He	-1432
ered	-1433
igure	-1434
▁aren	-1435
▁busy	-1436
▁form	-1437
▁free	-1438
▁smil	-1439
▁mouth	-1440
er▁than	-1441
▁for▁it	-1442
▁inside	-1443
▁classes	-1444
▁whatever	-1445
ci	-1446
pe	-1447
ief	-1448
joy	-1449
ude	-1450
ared	-1451
▁cut	-1452
▁fam	-1453
▁gen	-1454
▁fast	-1455
▁hope	-1456
▁past	-1457
es▁her	-1458
▁means	-1459
▁realiz	-1460
▁suppos	-1461
▁instead	-1462
▁started	-1463
▁will▁be	-1464
▁shoulder	-1465
▁should▁be	-1466
▁definitely	-1467
kir	-1468
▁im	-1469
▁sw	-1470
s▁my	-1471
▁odd	-1472
▁war	-1473
ouple	-1474
▁deal	-1475
▁high	-1476
▁says	-1477
▁simp	-1478
▁enjoy	-1479
▁I▁would	-1480
▁from▁her	-1481
▁wants▁to	-1482
▁yourself	-1483
▁surprised	-1484
▁interesting	-1485
Be	-1486
fect	-1487
ibly	-1488
kira	-1489
▁Why	-1490
▁win	-1491
arely	-1492
▁club	-1493
▁grab	-1494
▁list	-1495
▁meet	-1496
▁breat	-1497
▁feels	-1498
▁is▁it	-1499
▁small	-1500
Are▁you	-1501
▁appear	-1502
▁change	-1503
▁disapp	-1504
▁figure	-1505
▁has▁to	-1506
▁have▁a	-1507
▁it▁would▁be	-1508
▁supposed▁to	-1509
▁or▁something	-1510
oof	-1511
ital	-1512
▁lot	-1513
▁atte	-1514
▁hang	-1515
▁hour	-1516
▁once	-1517
morrow	-1518
▁I▁see	-1519
▁books	-1520
▁stare	-1521
▁world	-1522
▁immedi	-1523
▁like▁I	-1524
▁This▁is	-1525
▁leaving	-1526
▁make▁it	-1527
▁expected	-1528
▁out▁of▁the	-1529
ax	-1530
hh	-1531
ime	-1532
oes	-1533
owd	-1534
res	-1535
▁Or	-1536
lect	-1537
▁eff	-1538
▁ins	-1539
▁job	-1540
ility	-1541
▁best	-1542
▁sort	-1543
▁terr	-1544
▁wasn	-1545
ecause	-1546
ressed	-1547
▁fight	-1548
▁nurse	-1549
ing▁for	-1550
▁time▁I	-1551
▁to▁say	-1552
▁of▁that	-1553
▁reading	-1554
▁serious	-1555
▁suddenly	-1556
▁the▁most	-1557
▁feels▁like	-1558
igg	-1559
t▁do	-1560
▁Don	-1561
▁Her	-1562
▁bag	-1563
▁inv	-1564
▁came	-1565
▁draw	-1566
▁hosp	-1567
▁knew	-1568
ing▁in	-1569
selves	-1570
▁asked	-1571
▁crowd	-1572
▁on▁it	-1573
▁react	-1574
▁usual	-1575
▁any▁more	-1576
▁business	-1577
▁to▁Shizune	-1578
On	-1579
by	-1580
eri	-1581
ult	-1582
ved	-1583
ient	-1584
king	-1585
ouse	-1586
▁chi	-1587
▁ext	-1588
▁hat	-1589
lieve	-1590
s▁too	-1591
▁gest	-1592
▁imag	-1593
ooking	-1594
t▁like	-1595
▁across	-1596
▁can▁be	-1597
▁easily	-1598
▁forgot	-1599
▁please	-1600
▁take▁it	-1601
Of▁course	-1602
▁happened	-1603
▁hospital	-1604
s▁a▁little	-1605
▁attention	-1606
▁of▁course	-1607
▁for▁a▁while	-1608
▁immediately	-1609
Al	-1610
el	-1611
All	-1612
▁ap	-1613
ames	-1614
ited	-1615
▁arm	-1616
▁cor	-1617
aight	-1618
ecret	-1619
▁fish	-1620
▁hurt	-1621
▁of▁p	-1622
▁girls	-1623
▁manag	-1624
▁to▁my	-1625
▁end▁up	-1626
▁finish	-1627
▁how▁to	-1628
▁hungry	-1629
▁exactly	-1630
▁finally	-1631
▁obvious	-1632
▁with▁me	-1633
t▁have▁to	-1634
▁straight	-1635
▁they▁are	-1636
▁what▁she	-1637
ps	-1638
▁U	-1639
umb	-1640
ush	-1641
Like	-1642
Than	-1643
aces	-1644
ings	-1645
like	-1646
▁bod	-1647
▁col	-1648
▁pay	-1649
▁sad	-1650
Yuuko	-1651
ing▁a	-1652
kward	-1653
nyway	-1654
ouble	-1655
t▁get	-1656
▁cute	-1657
▁jump	-1658
s▁more	-1659
▁so▁it	-1660
fortable	-1661
ing▁that	-1662
▁suppose	-1663
▁although	-1664
▁the▁best	-1665
m▁going▁to	-1666
▁enough▁to	-1667
▁the▁other	-1668
▁about▁that	-1669
▁around▁the	-1670
▁you▁should	-1671
▁…	-1672
eal	-1673
iec	-1674
inc	-1675
▁My	-1676
Then	-1677
▁I▁w	-1678
▁box	-1679
▁car	-1680
▁guy	-1681
▁nat	-1682
▁sto	-1683
▁sub	-1684
Ahaha	-1685
▁I▁do	-1686
▁Just	-1687
▁nerv	-1688
▁prep	-1689
▁a▁bad	-1690
▁spend	-1691
s▁again	-1692
▁couldn	-1693
▁finger	-1694
▁to▁eat	-1695
▁attempt	-1696
▁of▁this	-1697
▁tomorrow	-1698
▁you▁were	-1699
▁one▁of▁the	-1700
▁makes▁me▁feel	-1701
At	-1702
ru	-1703
▁J	-1704
aku	-1705
ath	-1706
ord	-1707
▁ce	-1708
utou	-1709
▁a▁d	-1710
▁hit	-1711
▁mis	-1712
▁sho	-1713
amaku	-1714
ister	-1715
▁When	-1716
▁body	-1717
▁nods	-1718
▁onto	-1719
Really	-1720
ack▁of	-1721
ertain	-1722
ome▁on	-1723
▁I▁get	-1724
▁delic	-1725
▁funny	-1726
ecially	-1727
ing▁out	-1728
▁I▁mean	-1729
▁but▁she	-1730
▁gesture	-1731
▁that▁we	-1732
▁somewhere	-1733
…!	-1734
alm	-1735
ili	-1736
use	-1737
ored	-1738
ract	-1739
▁arr	-1740
▁gone	-1741
▁lean	-1742
▁mine	-1743
▁name	-1744
s▁very	-1745
▁appre	-1746
▁chest	-1747
▁frown	-1748
▁women	-1749
▁her▁to	-1750
▁proper	-1751
s▁really	-1752
▁Are▁you	-1753
▁and▁she	-1754
▁a▁small	-1755
▁friends	-1756
▁into▁my	-1757
▁nervous	-1758
▁she▁has	-1759
▁signing	-1760
▁usually	-1761
▁with▁you	-1762
▁I▁realize	-1763
gn	-1764
gs	-1765
Now	-1766
ket	-1767
Some	-1768
d▁be	-1769
▁big	-1770
▁shi	-1771
▁tou	-1772
ering	-1773
▁fill	-1774
▁home	-1775
▁spec	-1776
▁stud	-1777
esides	-1778
t▁look	-1779
▁pleas	-1780
▁relax	-1781
▁these	-1782
▁words	-1783
ed▁with	-1784
▁Yamaku	-1785
▁compet	-1786
▁rather	-1787
▁the▁fl	-1788
▁up▁and	-1789
▁in▁this	-1790
▁you▁don	-1791
▁Misha▁is	-1792
▁a▁couple	-1793
▁decide▁to	-1794
▁Shizune▁is	-1795
Hi	-1796
ix	-1797
agg	-1798
rom	-1799
set	-1800
lier	-1801
ream	-1802
ying	-1803
▁acc	-1804
▁ann	-1805
▁dep	-1806
▁may	-1807
▁res	-1808
aught	-1809
itive	-1810
s▁why	-1811
▁at▁a	-1812
▁coll	-1813
▁doub	-1814
▁ener	-1815
▁lead	-1816
▁lost	-1817
▁mood	-1818
▁on▁a	-1819
▁roof	-1820
sident	-1821
▁at▁my	-1822
▁decid	-1823
▁track	-1824
arently	-1825
▁Do▁you	-1826
▁barely	-1827
▁glance	-1828
▁such▁a	-1829
▁say▁that	-1830
▁standing	-1831
▁think▁of	-1832
▁I▁think▁I	-1833
▁talking▁about	-1834
▁student▁council▁room	-1835
ery	-1836
▁Is	-1837
▁ph	-1838
▁sn	-1839
▁ty	-1840
ches	-1841
ffee	-1842
▁ign	-1843
▁lik	-1844
▁pol	-1845
▁pos	-1846
Sorry	-1847
ed▁me	-1848
ortun	-1849
▁Okay	-1850
▁comm	-1851
s▁only	-1852
t▁hear	-1853
t▁help	-1854
▁Akira	-1855
▁cover	-1856
▁do▁it	-1857
▁games	-1858
▁knock	-1859
▁the▁l	-1860
▁worry	-1861
▁bother	-1862
ing▁them	-1863
▁further	-1864
▁is▁that	-1865
▁perfect	-1866
▁the▁last	-1867
▁president	-1868
▁situation	-1869
▁starting▁to	-1870
Or	-1871
gu	-1872
ile	-1873
izz	-1874
oid	-1875
head	-1876
ower	-1877
▁nec	-1878
▁tri	-1879
t▁see	-1880
wards	-1881
▁arms	-1882
▁as▁a	-1883
▁cond	-1884
▁drop	-1885
▁live	-1886
▁luck	-1887
▁prom	-1888
▁seat	-1889
I▁know	-1890
ve▁got	-1891
▁After	-1892
▁chess	-1893
▁speak	-1894
s▁still	-1895
▁coffee	-1896
▁sounds	-1897
▁awkward	-1898
▁silence	-1899
▁tell▁me	-1900
▁the▁two	-1901
▁that▁was	-1902
▁when▁she	-1903
▁because▁I	-1904
▁but▁I▁don	-1905
▁direction	-1906
▁more▁than	-1907
▁sometimes	-1908
s▁something	-1909
▁that▁I▁can	-1910
cr	-1911
pl	-1912
che	-1913
As▁I	-1914
aken	-1915
▁Did	-1916
▁bow	-1917
▁det	-1918
▁ind	-1919
▁mon	-1920
I▁see	-1921
ed▁on	-1922
iting	-1923
ively	-1924
▁Like	-1925
▁fair	-1926
▁took	-1927
▁yeah	-1928
Before	-1929
I▁didn	-1930
ishing	-1931
m▁just	-1932
▁Every	-1933
▁has▁a	-1934
▁by▁the	-1935
▁longer	-1936
▁smiles	-1937
▁transl	-1938
▁window	-1939
▁you▁to	-1940
ing▁with	-1941
▁appreci	-1942
▁forward	-1943
▁holding	-1944
▁pick▁up	-1945
▁time▁to	-1946
▁to▁have	-1947
s▁already	-1948
▁about▁to	-1949
▁finished	-1950
▁surprise	-1951
▁the▁fact	-1952
▁away▁from	-1953
▁there▁was	-1954
▁you▁would	-1955
▁on▁her▁face	-1956
▁through▁the	-1957
?'	-1958
▁G	-1959
ash	-1960
rup	-1961
Sure	-1962
ault	-1963
▁	-1964
e	-1965
t	-1966
o	-1967
a	-1968
n	-1969
i	-1970
s	-1971
h	-1972
r	-1973
l	-1974
u	-1975
d	-1976
y	-1977
g	-1978
m	-1979
c	-1980
w	-1981
f	-1982
.	-1983
p	-1984
,	-1985
b	-1986
k	-1987
I	-1988
'	-1989
v	-1990
S	-1991
?	-1992
T	-1993
H	-1994
…	-1995
!	-1996
z	-1997
W	-1998
j	-1999
A	-2000
M	-2001
~	-2002
Y	-2003
x	-2004
N	-2005
q	-2006
B	-2007
L	-2008
O	-2009
-	-2010
E	-2011
D	-2012
C	-2013
R	-2014
F	-2015
;	-2016
P	-2017
K	-2018
G	-2019
J	-2020
U	-2021
:	-2022
—	-2023
0	-2024
V	-2025
3	-2026
2	-2027
é	-2028
1	-2029
5	-2030
*	-2031
4	-2032
Q	-2033
6	-2034
(	-2035
)	-2036
7	-2037
8	-2038
9	-2039
"	-2040
%	-2041
X	-2042
Z	-2043
/	-2044
à	-2045
