<unk>	0
▁t	-0
he	-1
▁a	-2
in	-3
▁s	-4
ou	-5
re	-6
▁w	-7
ha	-8
ing	-9
▁m	-10
▁b	-11
▁the	-12
▁o	-13
▁I	-14
▁to	-15
it	-16
▁f	-17
er	-18
▁c	-19
nd	-20
is	-21
▁d	-22
▁l	-23
ll	-24
es	-25
on	-26
en	-27
▁he	-28
or	-29
hat	-30
▁p	-31
an	-32
▁g	-33
▁of	-34
▁n	-35
om	-36
▁be	-37
▁th	-38
st	-39
ed	-40
▁e	-41
▁y	-42
▁and	-43
ly	-44
▁it	-45
ow	-46
▁her	-47
▁ha	-48
▁in	-49
▁you	-50
▁that	-51
ay	-52
le	-53
at	-54
ar	-55
gh	-56
ve	-57
ot	-58
et	-59
ke	-60
▁u	-61
▁me	-62
as	-63
ac	-64
▁re	-65
ic	-66
▁my	-67
▁on	-68
▁st	-69
ut	-70
▁is	-71
oo	-72
ee	-73
id	-74
ld	-75
se	-76
out	-77
▁she	-78
lly	-79
al	-80
ght	-81
ver	-82
▁for	-83
▁li	-84
▁as	-85
▁h	-86
ent	-87
▁r	-88
▁do	-89
ak	-90
▁an	-91
ould	-92
ion	-93
ith	-94
im	-95
▁we	-96
▁with	-97
ir	-98
▁at	-99
ch	-100
ust	-101
ad	-102
▁not	-103
ight	-104
her	-105
un	-106
ore	-107
▁j	-108
▁like	-109
▁but	-110
▁so	-111
ally	-112
▁k	-113
hing	-114
ur	-115
▁S	-116
▁can	-117
if	-118
▁som	-119
ter	-120
▁H	-121
han	-122
ook	-123
The	-124
▁this	-125
▁have	-126
▁fr	-127
s▁a	-128
▁see	-129
ink	-130
ind	-131
hi	-132
ain	-133
▁up	-134
ec	-135
▁just	-136
▁was	-137
▁ab	-138
ant	-139
▁sh	-140
ce	-141
▁out	-142
pp	-143
ea	-144
▁think	-145
ack	-146
▁don	-147
ro	-148
▁tr	-149
▁look	-150
ess	-151
am	-152
ven	-153
▁go	-154
il	-155
ough	-156
▁su	-157
▁kn	-158
▁if	-159
eel	-160
ing▁to	-161
▁feel	-162
▁what	-163
▁any	-164
ill	-165
▁wor	-166
qu	-167
▁cl	-168
ound	-169
▁about	-170
▁from	-171
▁ne	-172
▁know	-173
▁ex	-174
ake	-175
s▁to	-176
It	-177
very	-178
▁all	-179
lf	-180
▁tim	-181
▁com	-182
▁get	-183
▁al	-184
▁con	-185
▁of▁the	-186
us	-187
▁wh	-188
ab	-189
mi	-190
▁would	-191
op	-192
▁some	-193
art	-194
Li	-195
▁the▁s	-196
▁want	-197
▁It	-198
ako	-199
▁ar	-200
way	-201
You	-202
anako	-203
ell	-204
one	-205
▁qu	-206
ood	-207
▁time	-208
▁are	-209
▁int	-210
ide	-211
est	-212
▁more	-213
ass	-214
▁no	-215
▁seem	-216
▁really	-217
▁back	-218
▁M	-219
Lilly	-220
▁or	-221
une	-222
▁whe	-223
ag	-224
itt	-225
hiz	-226
hizune	-227
ed▁to	-228
all	-229
She	-230
self	-231
ss	-232
ation	-233
ep	-234
ate	-235
alk	-236
ig	-237
au	-238
Emi	-239
▁even	-240
▁somet	-241
our	-242
▁there	-243
▁us	-244
▁a▁l	-245
▁one	-246
▁I▁can	-247
▁A	-248
▁does	-249
Rin	-250
ast	-251
▁un	-252
▁now	-253
are	-254
▁in▁the	-255
ard	-256
ther	-257
ice	-258
ace	-259
fore	-260
▁say	-261
own	-262
fter	-263
▁right	-264
ong	-265
▁ag	-266
▁something	-267
ous	-268
ort	-269
ond	-270
ick	-271
ive	-272
ud	-273
▁W	-274
ct	-275
ost	-276
ers	-277
▁Hanako	-278
ry	-279
▁Lilly	-280
▁before	-281
▁pre	-282
▁should	-283
That	-284
▁did	-285
ittle	-286
▁way	-287
▁thing	-288
ect	-289
▁than	-290
▁pl	-291
▁too	-292
▁Shizune	-293
ul	-294
▁pro	-295
▁hand	-296
and	-297
▁by	-298
▁into	-299
ck	-300
▁off	-301
▁mu	-302
▁here	-303
▁your	-304
isha	-305
ist	-306
▁could	-307
act	-308
▁how	-309
▁gu	-310
▁only	-311
ie	-312
▁a▁s	-313
ine	-314
chan	-315
▁down	-316
thing	-317
▁le	-318
iv	-319
▁again	-320
▁other	-321
▁over	-322
▁they	-323
ame	-324
os	-325
ool	-326
akes	-327
▁then	-328
▁lea	-329
ought	-330
▁sp	-331
▁much	-332
▁The	-333
ure	-334
▁try	-335
▁gr	-336
icchan	-337
ing▁the	-338
▁been	-339
▁though	-340
▁that▁I	-341
▁v	-342
ite	-343
▁Rin	-344
▁ro	-345
▁doesn	-346
▁after	-347
be	-348
ose	-349
▁bec	-350
▁a▁b	-351
▁when	-352
▁sl	-353
~!	-354
ting	-355
▁every	-356
um	-357
▁I▁don	-358
▁thought	-359
▁exp	-360
ning	-361
▁good	-362
▁want▁to	-363
ge	-364
▁fe	-365
▁on▁the	-366
But	-367
ble	-368
▁around	-369
▁Emi	-370
isa	-371
chool	-372
pt	-373
▁Misha	-374
ause	-375
▁ey	-376
▁make	-377
▁take	-378
ere	-379
▁po	-380
▁to▁the	-381
▁class	-382
ff	-383
▁had	-384
▁en	-385
iz	-386
ra	-387
s▁like	-388
ious	-389
▁head	-390
▁de	-391
s▁the	-392
hile	-393
▁bet	-394
▁still	-395
▁work	-396
nt	-397
▁a▁little	-398
▁im	-399
▁and▁I	-400
▁start	-401
urn	-402
aybe	-403
ward	-404
▁tw	-405
▁br	-406
▁talk	-407
▁well	-408
▁myself	-409
▁pe	-410
▁guess	-411
▁thr	-412
▁room	-413
▁very	-414
ire	-415
s▁not	-416
lp	-417
▁man	-418
▁of▁her	-419
ually	-420
▁our	-421
▁kind	-422
ving	-423
Th	-424
isao	-425
▁who	-426
ome	-427
▁help	-428
▁the▁f	-429
▁has	-430
wn	-431
▁am	-432
able	-433
▁didn	-434
▁to▁be	-435
day	-436
em	-437
ty	-438
▁se	-439
▁sa	-440
▁day	-441
ress	-442
ap	-443
▁were	-444
ople	-445
▁mo	-446
▁sure	-447
▁har	-448
th	-449
udent	-450
▁going▁to	-451
▁bl	-452
ach	-453
irst	-454
▁door	-455
▁happ	-456
ity	-457
▁bre	-458
▁while	-459
▁them	-460
▁bot	-461
▁face	-462
▁ke	-463
He	-464
What	-465
ably	-466
▁eyes	-467
▁being	-468
▁people	-469
▁anything	-470
eah	-471
▁She	-472
▁hard	-473
kay	-474
ol	-475
ue	-476
ence	-477
▁You	-478
▁because	-479
s▁and	-480
▁che	-481
aking	-482
▁two	-483
▁his	-484
dd	-485
▁N	-486
orm	-487
ple	-488
▁I▁think	-489
nder	-490
s▁her	-491
ies	-492
▁makes	-493
▁let	-494
▁te	-495
int	-496
▁Hisao	-497
▁rem	-498
▁feeling	-499
▁mind	-500
▁walk	-501
▁through	-502
▁fl	-503
ft	-504
▁mean	-505
ign	-506
▁school	-507
▁have▁to	-508
▁sm	-509
▁at▁the	-510
▁pret	-511
ing▁her	-512
▁I▁was	-513
▁gl	-514
Well	-515
▁keep	-516
▁run	-517
od	-518
This	-519
ip	-520
▁sur	-521
▁real	-522
▁Hicchan	-523
ady	-524
▁quick	-525
pr	-526
▁end	-527
▁long	-528
▁tell	-529
▁kind▁of	-530
sp	-531
age	-532
▁a▁c	-533
▁under	-534
▁looking	-535
old	-536
most	-537
we	-538
▁got	-539
▁turn	-540
hy	-541
oun	-542
ves	-543
So	-544
▁of▁my	-545
atch	-546
▁why	-547
▁ask	-548
▁as▁I	-549
get	-550
▁wa	-551
bably	-552
▁that▁she	-553
▁pretty	-554
ish	-555
▁will	-556
▁never	-557
▁a▁m	-558
side	-559
▁isn	-560
ment	-561
▁least	-562
▁op	-563
▁pr	-564
▁things	-565
▁str	-566
onder	-567
▁find	-568
ise	-569
ily	-570
▁word	-571
▁looks	-572
ither	-573
ber	-574
other	-575
▁C	-576
▁act	-577
s▁me	-578
Yeah	-579
▁des	-580
▁but▁I	-581
▁away	-582
▁might	-583
▁probably	-584
▁cont	-585
▁giv	-586
t▁know	-587
▁said	-588
▁sha	-589
▁would▁be	-590
▁wonder	-591
ful	-592
▁dr	-593
▁few	-594
▁seems▁to	-595
iff	-596
▁open	-597
▁att	-598
▁E	-599
▁app	-600
I▁don	-601
oment	-602
▁That	-603
▁come	-604
▁imp	-605
▁as▁if	-606
▁'	-607
ince	-608
▁doing	-609
▁enough	-610
les	-611
ance	-612
▁the▁c	-613
Oh	-614
irl	-615
▁el	-616
▁dis	-617
▁last	-618
No	-619
We	-620
▁Y	-621
ase	-622
ize	-623
haha	-624
s▁are	-625
▁a▁p	-626
▁own	-627
m▁not	-628
▁both	-629
ich	-630
here	-631
▁the▁same	-632
▁first	-633
▁em	-634
▁jo	-635
▁ac	-636
▁fin	-637
orry	-638
ible	-639
▁T	-640
And	-641
▁to▁her	-642
▁id	-643
▁sc	-644
▁student	-645
ear	-646
▁put	-647
iend	-648
▁dec	-649
▁where	-650
less	-651
▁fo	-652
ounc	-653
▁with▁her	-654
▁surpr	-655
▁almost	-656
▁quickly	-657
▁from▁the	-658
ock	-659
erson	-660
▁diff	-661
▁else	-662
▁pain	-663
▁girl	-664
▁trying▁to	-665
As	-666
▁wr	-667
▁sit	-668
▁ent	-669
▁going	-670
▁in▁my	-671
s▁of	-672
▁rel	-673
▁okay	-674
ree	-675
▁for▁the	-676
t▁think	-677
▁stu	-678
row	-679
▁on▁her	-680
ever	-681
▁better	-682
estion	-683
▁I▁guess	-684
ody	-685
econd	-686
s▁that	-687
▁him	-688
ready	-689
▁supp	-690
▁sound	-691
fe	-692
▁little	-693
▁but▁it	-694
▁D	-695
▁if▁I	-696
▁takes	-697
▁someone	-698
▁about▁it	-699
Hanako	-700
ouncil	-701
s▁in	-702
▁point	-703
▁question	-704
end	-705
ating	-706
▁so▁I	-707
▁beg	-708
ather	-709
ks	-710
ary	-711
ied	-712
▁without	-713
ways	-714
▁each	-715
▁since	-716
▁as▁she	-717
▁happen	-718
▁it▁was	-719
▁at▁least	-720
che	-721
▁most	-722
▁the▁b	-723
unch	-724
▁need	-725
▁gives	-726
My	-727
▁stop	-728
▁chan	-729
uk	-730
xt	-731
oice	-732
▁care	-733
▁must	-734
▁friend	-735
▁underst	-736
ark	-737
ang	-738
I▁can	-739
▁a▁bit	-740
▁another	-741
▁co	-742
ently	-743
▁nice	-744
▁which	-745
▁person	-746
Her	-747
▁for▁a	-748
ween	-749
▁what▁I	-750
▁this▁is	-751
ath	-752
▁ob	-753
▁everything	-754
ater	-755
▁give	-756
▁part	-757
▁stand	-758
vent	-759
▁sil	-760
▁either	-761
iet	-762
arly	-763
▁between	-764
fu	-765
ness	-766
▁place	-767
▁to▁do	-768
▁against	-769
s▁it	-770
▁nod	-771
ition	-772
▁wait	-773
ightly	-774
ng	-775
▁sk	-776
hind	-777
▁play	-778
▁idea	-779
▁if▁you	-780
ling	-781
▁hear	-782
▁to▁me	-783
▁for▁her	-784
ed▁by	-785
▁comp	-786
▁eas	-787
▁left	-788
▁behind	-789
▁anyway	-790
ub	-791
▁ever	-792
▁sign	-793
▁such	-794
▁understand	-795
If	-796
li	-797
igh	-798
▁at▁me	-799
Shizune	-800
ull	-801
orning	-802
▁expect	-803
leep	-804
▁begin	-805
te	-806
s▁just	-807
▁quite	-808
reat	-809
▁far	-810
sw	-811
sid	-812
▁St	-813
ing▁me	-814
▁seems	-815
▁ad	-816
▁slow	-817
▁today	-818
▁O	-819
az	-820
For	-821
▁read	-822
mm	-823
▁answ	-824
hicchan	-825
s▁up	-826
▁life	-827
▁teac	-828
ing▁it	-829
▁wouldn	-830
▁maybe	-831
▁night	-832
▁of▁us	-833
br	-834
mile	-835
▁out▁of	-836
▁morning	-837
oy	-838
ade	-839
vers	-840
ing▁my	-841
▁voice	-842
▁already	-843
▁differe	-844
▁makes▁me	-845
ual	-846
▁like▁that	-847
▁art	-848
fully	-849
▁in▁a	-850
t▁be	-851
▁conf	-852
▁lunch	-853
▁to▁get	-854
led	-855
per	-856
ason	-857
▁But	-858
▁What	-859
ner	-860
▁dist	-861
▁as▁well	-862
▁surpris	-863
red	-864
atter	-865
ense	-866
▁bad	-867
▁cour	-868
▁show	-869
ont	-870
There	-871
▁fine	-872
kir	-873
▁set	-874
▁heart	-875
▁thinking	-876
air	-877
▁aw	-878
dden	-879
ib	-880
▁We	-881
kira	-882
▁book	-883
▁hold	-884
ention	-885
▁in▁her	-886
▁you▁know	-887
Hey	-888
▁with▁the	-889
uko	-890
uuko	-891
ately	-892
▁light	-893
▁at▁all	-894
t▁really	-895
lt	-896
og	-897
so	-898
▁per	-899
▁a▁few	-900
ression	-901
▁reason	-902
Just	-903
▁pass	-904
▁remem	-905
▁getting	-906
▁able	-907
▁move	-908
▁sudden	-909
▁ret	-910
▁rest	-911
gether	-912
▁herself	-913
ens	-914
▁realize	-915
▁course	-916
vious	-917
▁clos	-918
▁quiet	-919
▁I▁could	-920
ne	-921
▁always	-922
s▁al	-923
ve▁been	-924
▁for▁me	-925
ret	-926
▁those	-927
ug	-928
▁lau	-929
▁pick	-930
This▁is	-931
iss	-932
▁I▁have	-933
▁different	-934
▁answer	-935
▁to▁see	-936
ail	-937
▁on▁my	-938
▁to▁my	-939
Not	-940
ated	-941
▁wee	-942
▁a▁lot	-943
ps	-944
▁If	-945
▁resp	-946
ing▁up	-947
▁hop	-948
▁fing	-949
t▁have	-950
▁leave	-951
▁teacher	-952
▁do▁you	-953
▁everyone	-954
hen	-955
ird	-956
▁eat	-957
▁next	-958
▁Shicchan	-959
fort	-960
▁And	-961
▁I▁feel	-962
llow	-963
▁cle	-964
▁won	-965
round	-966
▁call	-967
▁it▁is	-968
▁smile	-969
▁notice	-970
▁new	-971
ingly	-972
▁close	-973
▁comple	-974
▁slightly	-975
ange	-976
ll▁be	-977
▁side	-978
▁each▁other	-979
▁B	-980
Maybe	-981
erest	-982
ically	-983
▁front	-984
▁their	-985
s▁out	-986
▁at▁her	-987
▁ch	-988
▁arm	-989
▁try▁to	-990
▁actually	-991
▁remember	-992
▁the▁school	-993
▁nur	-994
▁hands	-995
av	-996
ert	-997
▁yes	-998
▁once	-999
▁like▁this	-1000
hed	-1001
▁are▁you	-1002
Ah	-1003
Why	-1004
ush	-1005
▁bu	-1006
▁stay	-1007
▁and▁the	-1008
ild	-1009
ten	-1010
▁sim	-1011
Misha	-1012
▁made	-1013
udent▁C	-1014
▁having	-1015
▁I▁should	-1016
udent▁Council	-1017
▁fun	-1018
sider	-1019
▁nothing	-1020
ny	-1021
oud	-1022
ove	-1023
ival	-1024
room	-1025
ply	-1026
t▁you	-1027
▁body	-1028
▁need▁to	-1029
▁the▁door	-1030
▁Student▁Council	-1031
uck	-1032
t▁even	-1033
▁when▁I	-1034
ial	-1035
▁bus	-1036
I▁think	-1037
ute	-1038
With	-1039
▁tea	-1040
▁expression	-1041
ji	-1042
blem	-1043
▁conc	-1044
▁inst	-1045
▁worry	-1046
▁wrong	-1047
up	-1048
▁unt	-1049
▁norm	-1050
▁of▁a	-1051
ations	-1052
▁of▁it	-1053
▁soon	-1054
▁nurse	-1055
▁if▁she	-1056
▁moment	-1057
▁interest	-1058
raw	-1059
▁done	-1060
▁hall	-1061
▁problem	-1062
icul	-1063
mall	-1064
aring	-1065
▁slowly	-1066
▁with▁a	-1067
After	-1068
▁fall	-1069
▁watch	-1070
▁words	-1071
▁all▁the	-1072
▁ple	-1073
▁Akira	-1074
▁a▁moment	-1075
Ken	-1076
oub	-1077
Kenji	-1078
▁making	-1079
I▁guess	-1080
▁complete	-1081
▁poss	-1082
▁sleep	-1083
▁I▁didn	-1084
ans	-1085
cus	-1086
ired	-1087
▁past	-1088
re▁you	-1089
▁happy	-1090
▁taking	-1091
▁somew	-1092
▁sorry	-1093
▁until	-1094
▁matter	-1095
pping	-1096
▁step	-1097
▁stuff	-1098
▁table	-1099
▁alone	-1100
▁able▁to	-1101
t▁want▁to	-1102
▁that▁you	-1103
▁rec	-1104
▁seen	-1105
es▁her	-1106
▁running	-1107
▁that▁it	-1108
▁dorm	-1109
▁into▁the	-1110
▁old	-1111
▁vis	-1112
▁desk	-1113
▁half	-1114
▁follow	-1115
ory	-1116
▁spe	-1117
estival	-1118
▁I▁know	-1119
▁rather	-1120
▁talking	-1121
▁to▁make	-1122
▁P	-1123
▁hair	-1124
▁less	-1125
▁wind	-1126
▁of▁me	-1127
aku	-1128
ump	-1129
▁ca	-1130
▁acc	-1131
▁leg	-1132
ahaha	-1133
▁track	-1134
▁convers	-1135
How	-1136
▁cur	-1137
▁hur	-1138
amaku	-1139
▁notic	-1140
▁outside	-1141
Good	-1142
ount	-1143
s▁ab	-1144
▁cha	-1145
▁feels	-1146
▁suddenly	-1147
▁ass	-1148
▁dee	-1149
▁Maybe	-1150
▁catch	-1151
Do	-1152
ates	-1153
▁eye	-1154
uation	-1155
▁small	-1156
▁Yamaku	-1157
▁to▁say	-1158
▁suppose	-1159
▁after▁all	-1160
▁wanted▁to	-1161
hes	-1162
ief	-1163
outh	-1164
▁a▁f	-1165
▁meet	-1166
▁break	-1167
▁back▁to	-1168
▁cr	-1169
ions	-1170
▁yet	-1171
▁told	-1172
▁haven	-1173
▁laugh	-1174
arr	-1175
lic	-1176
▁libr	-1177
▁ser	-1178
▁I▁am	-1179
▁I▁just	-1180
▁classroom	-1181
▁also	-1182
▁smil	-1183
▁event	-1184
Even	-1185
s▁ag	-1186
arent	-1187
▁may	-1188
▁comes	-1189
▁sense	-1190
cept	-1191
▁air	-1192
irect	-1193
▁mouth	-1194
▁world	-1195
▁anyone	-1196
▁I▁want▁to	-1197
▁the▁first	-1198
▁bed	-1199
▁ear	-1200
itting	-1201
▁a▁good	-1202
▁second	-1203
▁she▁is	-1204
▁strange	-1205
ave	-1206
ead	-1207
osp	-1208
▁Even	-1209
▁exact	-1210
▁entire	-1211
▁together	-1212
▁conversation	-1213
t▁seem	-1214
▁you▁can	-1215
▁many	-1216
▁mine	-1217
▁of▁them	-1218
ces	-1219
terday	-1220
▁from▁her	-1221
▁the▁p	-1222
▁times	-1223
der	-1224
ross	-1225
▁bit	-1226
▁use	-1227
▁war	-1228
▁inside	-1229
▁but▁she	-1230
▁to▁think	-1231
cc	-1232
ved	-1233
utou	-1234
▁pull	-1235
▁sort	-1236
▁direct	-1237
▁friends	-1238
▁obvious	-1239
pl	-1240
uh	-1241
ical	-1242
pped	-1243
▁Her	-1244
▁and▁then	-1245
ject	-1246
▁she▁was	-1247
idd	-1248
ve▁got	-1249
▁students	-1250
▁def	-1251
wards	-1252
▁week	-1253
▁consider	-1254
In	-1255
ative	-1256
▁silence	-1257
▁so▁much	-1258
▁feels▁like	-1259
imes	-1260
▁eff	-1261
▁met	-1262
▁year	-1263
▁saying	-1264
▁in▁front	-1265
▁min	-1266
s▁about	-1267
▁decide	-1268
ax	-1269
Than	-1270
▁food	-1271
▁Yuuko	-1272
▁react	-1273
no	-1274
ides	-1275
▁normal	-1276
▁return	-1277
▁right▁now	-1278
▁completely	-1279
s▁no	-1280
▁fur	-1281
kward	-1282
▁There	-1283
▁later	-1284
▁library	-1285
arely	-1286
▁along	-1287
▁short	-1288
▁usual	-1289
▁contin	-1290
ed▁me	-1291
▁best	-1292
▁expl	-1293
▁grin	-1294
▁inter	-1295
▁yesterday	-1296
~.	-1297
ned	-1298
oor	-1299
ered	-1300
s▁all	-1301
▁came	-1302
▁join	-1303
▁shoulder	-1304
▁exc	-1305
▁top	-1306
m▁sure	-1307
▁I▁had	-1308
▁heard	-1309
▁L	-1310
Yes	-1311
ier	-1312
igg	-1313
▁fam	-1314
▁inc	-1315
▁wall	-1316
▁exactly	-1317
to	-1318
▁sw	-1319
ings	-1320
sent	-1321
orrow	-1322
▁club	-1323
▁fact	-1324
▁weird	-1325
▁time▁I	-1326
▁for▁you	-1327
Re	-1328
aki	-1329
Okay	-1330
▁if▁it	-1331
▁coming	-1332
▁import	-1333
▁seems▁to▁be	-1334
iness	-1335
▁dark	-1336
▁hope	-1337
▁tired	-1338
▁and▁Misha	-1339
St	-1340
ci	-1341
alm	-1342
▁fast	-1343
▁happened	-1344
▁have▁been	-1345
Don	-1346
▁draw	-1347
▁reg	-1348
▁chest	-1349
▁to▁go	-1350
▁a▁small	-1351
▁used▁to	-1352
▁even▁though	-1353
▁In	-1354
▁gen	-1355
▁tak	-1356
igure	-1357
s▁been	-1358
▁Kenji	-1359
▁glass	-1360
▁awkward	-1361
▁what▁she	-1362
▁attention	-1363
how	-1364
vel	-1365
▁ap	-1366
Like	-1367
When	-1368
▁Not	-1369
ially	-1370
▁late	-1371
▁great	-1372
head	-1373
▁res	-1374
▁breath	-1375
▁respon	-1376
▁any▁more	-1377
▁bo	-1378
s▁my	-1379
▁bag	-1380
ertain	-1381
▁change	-1382
▁I▁thought	-1383
.'	-1384
iven	-1385
▁odd	-1386
s▁around	-1387
▁fingers	-1388
▁hallway	-1389
▁looks▁like	-1390
ery	-1391
reet	-1392
▁ref	-1393
isapp	-1394
ouple	-1395
▁important	-1396
pe	-1397
▁So	-1398
angu	-1399
omet	-1400
ract	-1401
▁dro	-1402
▁doub	-1403
▁manag	-1404
by	-1405
erv	-1406
empt	-1407
▁They	-1408
▁deal	-1409
▁hang	-1410
▁thank	-1411
▁disapp	-1412
▁figure	-1413
I▁wonder	-1414
▁serious	-1415
ict	-1416
ile	-1417
ibly	-1418
pite	-1419
▁langu	-1420
▁like▁a	-1421
▁must▁be	-1422
wor	-1423
ying	-1424
▁ext	-1425
▁sub	-1426
▁is▁a	-1427
lie	-1428
▁My	-1429
▁ter	-1430
▁lost	-1431
▁paint	-1432
▁and▁it	-1433
▁with▁me	-1434
gry	-1435
aper	-1436
▁says	-1437
▁build	-1438
▁check	-1439
▁the▁m	-1440
▁finally	-1441
▁for▁a▁while	-1442
▁F	-1443
aught	-1444
ed▁up	-1445
er▁than	-1446
ident	-1447
I▁feel	-1448
t▁help	-1449
▁order	-1450
▁the▁st	-1451
▁and▁she	-1452
▁sitting	-1453
d▁be	-1454
▁low	-1455
▁aren	-1456
▁game	-1457
▁onto	-1458
▁town	-1459
▁wasn	-1460
▁a▁long	-1461
med	-1462
▁ra	-1463
lves	-1464
▁dep	-1465
▁goes	-1466
▁drink	-1467
s▁again	-1468
▁become	-1469
▁remind	-1470
▁language	-1471
▁when▁she	-1472
▁more▁than	-1473
▁-	-1474
ared	-1475
▁list	-1476
▁finis	-1477
▁whole	-1478
▁might▁be	-1479
▁going▁to▁be	-1480
body	-1481
ital	-1482
▁plan	-1483
▁at▁my	-1484
▁surprised	-1485
~?	-1486
used	-1487
▁barely	-1488
▁yourself	-1489
me	-1490
All	-1491
▁pa	-1492
t▁it	-1493
s▁for	-1494
▁empt	-1495
▁felt	-1496
▁hosp	-1497
though	-1498
▁painting	-1499
▁wants▁to	-1500
s▁a▁little	-1501
▁should▁be	-1502
eri	-1503
joy	-1504
▁cor	-1505
▁deep	-1506
▁hurt	-1507
▁rain	-1508
▁reach	-1509
▁could▁be	-1510
On	-1511
com	-1512
▁No	-1513
As▁I	-1514
▁easy	-1515
▁soft	-1516
▁three	-1517
ing▁out	-1518
▁forget	-1519
f▁course	-1520
▁to▁have	-1521
▁the▁only	-1522
ya	-1523
▁imag	-1524
▁stud	-1525
▁hard▁to	-1526
▁hospital	-1527
▁its	-1528
▁free	-1529
▁home	-1530
▁true	-1531
re▁not	-1532
▁early	-1533
ing▁for	-1534
▁window	-1535
▁I▁have▁to	-1536
ix	-1537
They	-1538
utes	-1539
▁How	-1540
▁kne	-1541
▁shr	-1542
ility	-1543
onest	-1544
▁miss	-1545
▁enjoy	-1546
▁with▁my	-1547
▁possible	-1548
mb	-1549
Then	-1550
▁relax	-1551
▁up▁and	-1552
▁council	-1553
▁from▁my	-1554
▁I▁wonder	-1555
Be	-1556
ime	-1557
mit	-1558
▁exam	-1559
▁prom	-1560
s▁only	-1561
▁appear	-1562
▁will▁be	-1563
▁es	-1564
▁I▁do	-1565
▁seat	-1566
morrow	-1567
▁stare	-1568
▁comfort	-1569
▁out▁of▁the	-1570
s▁on	-1571
▁car	-1572
Sorry	-1573
▁forg	-1574
▁lear	-1575
ressed	-1576
▁breat	-1577
▁ground	-1578
▁moving	-1579
fect	-1580
▁nat	-1581
▁fore	-1582
▁gone	-1583
▁lean	-1584
▁shak	-1585
▁warm	-1586
Do▁you	-1587
▁glance	-1588
▁leaving	-1589
▁minutes	-1590
▁working	-1591
el	-1592
ash	-1593
ged	-1594
omi	-1595
aces	-1596
like	-1597
ouse	-1598
▁hat	-1599
▁tou	-1600
itely	-1601
light	-1602
▁case	-1603
▁days	-1604
▁I▁get	-1605
▁as▁we	-1606
▁there▁is	-1607
▁whatever	-1608
▁of▁course	-1609
amn	-1610
▁He	-1611
▁sn	-1612
Hisao	-1613
antly	-1614
▁Just	-1615
▁high	-1616
▁nods	-1617
▁to▁a	-1618
Hicchan	-1619
▁realiz	-1620
▁toward	-1621
▁a▁second	-1622
▁ste	-1623
I▁was	-1624
ering	-1625
ister	-1626
▁hour	-1627
▁stra	-1628
▁defin	-1629
▁into▁my	-1630
▁you▁are	-1631
▁or▁something	-1632
ait	-1633
▁Do	-1634
▁opp	-1635
▁form	-1636
▁gigg	-1637
▁sigh	-1638
▁bring	-1639
▁speak	-1640
▁taken	-1641
▁attempt	-1642
▁further	-1643
▁that▁is	-1644
▁you▁were	-1645
Now	-1646
hip	-1647
s▁so	-1648
▁arr	-1649
t▁say	-1650
▁love	-1651
selves	-1652
▁books	-1653
▁girls	-1654
▁press	-1655
Are▁you	-1656
▁smiles	-1657
▁instead	-1658
▁walking	-1659
▁expected	-1660
▁somewhat	-1661
▁I▁suppose	-1662
umb	-1663
ural	-1664
▁inv	-1665
▁Mutou	-1666
▁doubt	-1667
▁empty	-1668
▁is▁it	-1669
▁closer	-1670
▁reaction	-1671
▁the▁time	-1672
▁situation	-1673
▁the▁other	-1674
uff	-1675
▁pos	-1676
s▁okay	-1677
▁given	-1678
▁the▁two	-1679
▁whether	-1680
▁a▁couple	-1681
▁G	-1682
▁R	-1683
irt	-1684
pid	-1685
ging	-1686
▁bes	-1687
▁chee	-1688
▁cond	-1689
▁grab	-1690
▁legs	-1691
▁worr	-1692
I▁know	-1693
▁the▁t	-1694
▁can▁be	-1695
▁simply	-1696
▁straight	-1697
▁surprise	-1698
▁tomorrow	-1699
▁with▁you	-1700
To	-1701
irm	-1702
tle	-1703
▁job	-1704
ed▁in	-1705
▁loud	-1706
▁pleas	-1707
▁spend	-1708
▁to▁take	-1709
Of▁course	-1710
Hmm	-1711
lect	-1712
▁gaz	-1713
ouble	-1714
t▁get	-1715
▁nerv	-1716
▁becom	-1717
▁shrug	-1718
osed▁to	-1719
ing▁them	-1720
▁reading	-1721
▁staring	-1722
▁the▁fact	-1723
ru	-1724
iec	-1725
olog	-1726
▁guy	-1727
▁sad	-1728
es▁me	-1729
k▁you	-1730
omiya	-1731
▁wish	-1732
Really	-1733
▁floor	-1734
▁throw	-1735
▁she▁doesn	-1736
▁around▁the	-1737
▁lo	-1738
▁ph	-1739
ream	-1740
ively	-1741
▁fill	-1742
▁knew	-1743
s▁right	-1744
▁manage	-1745
▁such▁a	-1746
▁my▁head	-1747
m▁going▁to	-1748
du	-1749
▁coll	-1750
▁effort	-1751
▁my▁eyes	-1752
▁seems▁like	-1753
~,	-1754
ord	-1755
▁roo	-1756
Yuuko	-1757
▁means	-1758
▁these	-1759
t▁worry	-1760
▁for▁it	-1761
▁like▁I	-1762
▁of▁that	-1763
▁thoughts	-1764
ude	-1765
lier	-1766
work	-1767
▁emb	-1768
▁sto	-1769
lieve	-1770
ously	-1771
▁yeah	-1772
▁I▁see	-1773
▁stupid	-1774
▁way▁to	-1775
▁glasses	-1776
▁sometimes	-1777
At	-1778
ez	-1779
iar	-1780
ient	-1781
noon	-1782
▁dur	-1783
▁sho	-1784
▁lead	-1785
▁terr	-1786
ack▁of	-1787
ing▁in	-1788
▁appre	-1789
▁often	-1790
▁paper	-1791
ctually	-1792
▁her▁to	-1793
▁I▁would	-1794
▁supposed▁to	-1795
▁student▁council	-1796
ank	-1797
ult	-1798
▁med	-1799
▁tri	-1800
ing▁a	-1801
▁heav	-1802
arrass	-1803
ooking	-1804
m▁sorry	-1805
▁easily	-1806
▁honest	-1807
▁listen	-1808
ing▁that	-1809
▁a▁lot▁of	-1810
▁difficul	-1811
▁response	-1812
▁about▁that	-1813
See	-1814
oid	-1815
▁lik	-1816
▁comm	-1817
ideaki	-1818
▁decid	-1819
▁forgot	-1820
▁how▁to	-1821
▁classes	-1822
▁explain	-1823
▁my▁mind	-1824
▁usually	-1825
ho	-1826
sh	-1827
min	-1828
oth	-1829
ches	-1830
t▁do	-1831
▁cut	-1832
▁lar	-1833
▁mis	-1834
▁calm	-1835
▁went	-1836
▁focus	-1837
ecially	-1838
s▁still	-1839
▁forward	-1840
▁in▁this	-1841
▁that▁we	-1842
▁the▁side	-1843
▁I▁think▁I	-1844
▁embarrass	-1845
▁Shizune▁and▁Misha	-1846
medi	-1847
▁state	-1848
▁couldn	-1849
▁immedi	-1850
▁sounds	-1851
▁to▁you	-1852
▁sort▁of	-1853
▁try▁and	-1854
▁worried	-1855
▁festival	-1856
▁my▁heart	-1857
▁over▁the	-1858
ift	-1859
edly	-1860
s▁off	-1861
s▁why	-1862
▁as▁a	-1863
ecause	-1864
▁as▁it	-1865
▁sight	-1866
▁please	-1867
▁breathing	-1868
▁there▁are	-1869
▁this▁time	-1870
▁for▁a▁moment	-1871
ges	-1872
ons	-1873
▁Or	-1874
Sure	-1875
▁bur	-1876
▁mem	-1877
where	-1878
t▁mind	-1879
▁visit	-1880
▁end▁up	-1881
▁my▁own	-1882
▁parent	-1883
▁of▁this	-1884
▁about▁her	-1885
▁sign▁language	-1886
Al	-1887
▁ed	-1888
ched	-1889
▁ann	-1890
▁lot	-1891
▁pus	-1892
▁mood	-1893
▁summ	-1894
I▁take	-1895
▁clear	-1896
▁pract	-1897
▁so▁it	-1898
▁across	-1899
▁bother	-1900
▁certain	-1901
▁her▁eyes	-1902
▁too▁much	-1903
▁afternoon	-1904
▁condition	-1905
▁somewhere	-1906
▁eventually	-1907
low	-1908
use	-1909
Come	-1910
▁Why	-1911
▁det	-1912
m▁just	-1913
▁ahead	-1914
▁appreci	-1915
▁building	-1916
▁down▁the	-1917
▁definitely	-1918
▁that▁I▁can	-1919
▁interesting	-1920
▁through▁the	-1921
▁To	-1922
▁ind	-1923
iliar	-1924
nyway	-1925
▁near	-1926
s▁to▁be	-1927
▁have▁a	-1928
▁This▁is	-1929
▁to▁keep	-1930
▁the▁last	-1931
Un	-1932
▁hit	-1933
▁hun	-1934
▁shut	-1935
▁delic	-1936
▁on▁it	-1937
▁touch	-1938
▁beside	-1939
▁concer	-1940
omething	-1941
s▁really	-1942
▁imagine	-1943
▁perfect	-1944
▁she▁can	-1945
▁she▁has	-1946
▁started	-1947
▁that▁was	-1948
▁I▁realize	-1949
▁direction	-1950
▁the▁nurse	-1951
▁makes▁me▁feel	-1952
Um	-1953
Huh	-1954
olor	-1955
▁chi	-1956
Every	-1957
▁This	-1958
▁knock	-1959
▁is▁not	-1960
▁no▁idea	-1961
▁one▁of▁the	-1962
▁find▁myself	-1963
Some	-1964
▁hum	-1965
▁ign	-1966
t▁see	-1967
▁cool	-1968
▁hate	-1969
lessly	-1970
▁store	-1971
▁into▁a	-1972
▁others	-1973
▁proper	-1974
▁somehow	-1975
She▁gives	-1976
s▁something	-1977
▁the▁festival	-1978
…?	-1979
rowd	-1980
▁big	-1981
▁pay	-1982
▁rep	-1983
▁swe	-1984
▁bell	-1985
▁busy	-1986
▁gaze	-1987
▁bright	-1988
▁gently	-1989
▁tell▁me	-1990
▁standing	-1991
m▁not▁sure	-1992
ky	-1993
ars	-1994
While	-1995
iddle	-1996
▁arms	-1997
I▁look	-1998
t▁look	-1999
▁moves	-2000
▁ready	-2001
▁trans	-2002
▁I▁mean	-2003
▁family	-2004
▁letter	-2005
▁despite	-2006
▁the▁way	-2007
▁trouble	-2008
▁as▁if▁she	-2009
▁but▁I▁don	-2010
▁managed▁to	-2011
ues	-2012
entr	-2013
ored	-2014
s▁an	-2015
▁nec	-2016
▁sun	-2017
▁Well	-2018
▁With	-2019
▁line	-2020
▁took	-2021
▁asked	-2022
▁assum	-2023
▁dormit	-2024
▁finger	-2025
▁finish	-2026
▁the▁most	-2027
▁enough▁to	-2028
▁immediately	-2029
▁talking▁about	-2030
gg	-2031
rom	-2032
▁occ	-2033
▁pat	-2034
Still	-2035
s▁too	-2036
▁feet	-2037
▁trip	-2038
▁and▁a	-2039
▁shirt	-2040
▁as▁the	-2041
▁they▁are	-2042
▁about▁this	-2043
▁on▁her▁face	-2044
ae	-2045
sit	-2046
▁For	-2047
▁saw	-2048
▁une	-2049
▁wom	-2050
ities	-2051
▁gest	-2052
▁name	-2053
▁prep	-2054
Before	-2055
iously	-2056
▁appro	-2057
▁do▁it	-2058
▁has▁a	-2059
s▁almost	-2060
▁time▁to	-2061
▁you▁don	-2062
▁distract	-2063
▁entirely	-2064
▁you▁should	-2065
ask	-2066
uses	-2067
void	-2068
ed▁it	-2069
umber	-2070
▁live	-2071
▁lock	-2072
▁on▁a	-2073
▁spec	-2074
s▁back	-2075
▁After	-2076
▁excit	-2077
▁found	-2078
▁sister	-2079
You▁know	-2080
s▁in▁the	-2081
ve▁never	-2082
▁Hideaki	-2083
▁make▁it	-2084
▁finished	-2085
▁into▁her	-2086
▁but▁I▁can	-2087
▁and▁Shizune	-2088
Or	-2089
cr	-2090
rap	-2091
avor	-2092
▁luck	-2093
▁a▁bad	-2094
▁hesit	-2095
▁but▁the	-2096
▁to▁look	-2097
▁concentr	-2098
▁continue	-2099
▁carefully	-2100
▁difficult	-2101
▁with▁that	-2102
ah	-2103
▁J	-2104
fer	-2105
ingle	-2106
▁hell	-2107
▁push	-2108
▁rais	-2109
▁self	-2110
▁yell	-2111
urning	-2112
▁cover	-2113
▁I▁haven	-2114
▁a▁while	-2115
▁my▁hand	-2116
▁business	-2117
▁her▁face	-2118
es▁her▁head	-2119
▁between▁us	-2120
ilt	-2121
ren	-2122
pect	-2123
▁aff	-2124
▁fut	-2125
▁ins	-2126
▁tre	-2127
▁win	-2128
ories	-2129
▁cold	-2130
▁drop	-2131
▁lips	-2132
▁pace	-2133
ed▁out	-2134
s▁down	-2135
t▁like	-2136
▁large	-2137
▁mother	-2138
▁not▁to	-2139
▁starts	-2140
▁we▁can	-2141
▁all▁that	-2142
▁that▁the	-2143
▁the▁feeling	-2144
ane	-2145
▁ce	-2146
▁Don	-2147
▁rub	-2148
ounter	-2149
s▁good	-2150
▁brief	-2151
▁frown	-2152
▁away▁from	-2153
ken	-2154
ault	-2155
ustr	-2156
▁adv	-2157
▁Then	-2158
▁foot	-2159
▁full	-2160
▁Every	-2161
▁white	-2162
▁as▁much	-2163
▁at▁this	-2164
▁gesture	-2165
▁pick▁up	-2166
t▁have▁to	-2167
▁I▁really	-2168
▁position	-2169
▁and▁Lilly	-2170
▁back▁to▁the	-2171
Er	-2172
Did	-2173
ger	-2174
ines	-2175
raid	-2176
▁bow	-2177
▁din	-2178
▁gre	-2179
▁huh	-2180
▁at▁a	-2181
ed▁and	-2182
s▁what	-2183
▁angry	-2184
▁annoy	-2185
▁by▁the	-2186
▁harder	-2187
▁parents	-2188
▁seconds	-2189
▁when▁you	-2190
▁all▁right	-2191
▁it▁would▁be	-2192
▁starting▁to	-2193
Is	-2194
ope	-2195
ames	-2196
rupt	-2197
▁add	-2198
▁drag	-2199
▁emot	-2200
▁glad	-2201
▁lose	-2202
▁mess	-2203
▁roof	-2204
▁tone	-2205
Hahaha	-2206
I▁just	-2207
esides	-2208
▁me▁to	-2209
▁stret	-2210
ing▁you	-2211
m▁still	-2212
▁apolog	-2213
▁eating	-2214
▁handle	-2215
▁looked	-2216
▁me▁and	-2217
▁one▁of	-2218
▁or▁not	-2219
▁summer	-2220
▁subject	-2221
s▁already	-2222
▁begins▁to	-2223
ai	-2224
ced	-2225
eat	-2226
oke	-2227
oss	-2228
come	-2229
irth	-2230
▁Now	-2231
▁a▁t	-2232
▁red	-2233
fraid	-2234
spect	-2235
▁pack	-2236
▁piec	-2237
d▁like	-2238
s▁with	-2239
t▁take	-2240
▁kinda	-2241
▁worse	-2242
ing▁and	-2243
▁asleep	-2244
▁caught	-2245
▁mention	-2246
I▁thought	-2247
▁accident	-2248
▁back▁and	-2249
▁distance	-2250
▁her▁hand	-2251
s▁probably	-2252
▁shoulders	-2253
▁a▁couple▁of	-2254
~…	-2255
▁At	-2256
aint	-2257
▁lay	-2258
▁mon	-2259
▁nor	-2260
▁ris	-2261
▁Than	-2262
▁ener	-2263
▁fair	-2264
▁grad	-2265
▁sens	-2266
▁wave	-2267
Thanks	-2268
s▁face	-2269
▁color	-2270
▁count	-2271
arently	-2272
▁attack	-2273
▁discus	-2274
▁easier	-2275
▁experi	-2276
ing▁with	-2277
▁Are▁you	-2278
▁waiting	-2279
s▁nothing	-2280
ventually	-2281
▁movement	-2282
▁that▁way	-2283
▁last▁night	-2284
▁talking▁to	-2285
?'	-2286
Hi	-2287
ik	-2288
cket	-2289
wise	-2290
▁box	-2291
▁hot	-2292
▁sky	-2293
▁uns	-2294
I▁see	-2295
ecret	-2296
▁fail	-2297
▁roll	-2298
▁wake	-2299
s▁fine	-2300
▁blind	-2301
▁carry	-2302
▁funny	-2303
comfort	-2304
ed▁with	-2305
▁I▁take	-2306
▁Nomiya	-2307
▁and▁we	-2308
▁a▁hand	-2309
▁chance	-2310
▁tried▁to	-2311
▁about▁the	-2312
▁against▁the	-2313
▁shakes▁her▁head	-2314
aw	-2315
akai	-2316
aste	-2317
▁Did	-2318
▁abs	-2319
▁squ	-2320
ed▁on	-2321
▁clot	-2322
▁jump	-2323
I▁didn	-2324
▁chair	-2325
▁water	-2326
▁amount	-2327
▁number	-2328
▁clearly	-2329
▁lack▁of	-2330
▁present	-2331
▁shouldn	-2332
▁I▁notice	-2333
▁tell▁you	-2334
▁the▁best	-2335
▁obviously	-2336
▁surprisingly	-2337
den	-2338
iew	-2339
uth	-2340
▁As	-2341
▁ir	-2342
ello	-2343
read	-2344
uine	-2345
▁mot	-2346
ances	-2347
ision	-2348
▁note	-2349
Wahaha	-2350
s▁eyes	-2351
t▁mean	-2352
▁greet	-2353
Is▁that	-2354
irthday	-2355
▁It▁was	-2356
▁leaves	-2357
▁to▁ask	-2358
▁we▁are	-2359
▁earlier	-2360
▁genuine	-2361
▁playing	-2362
▁smiling	-2363
▁told▁me	-2364
▁we▁were	-2365
▁before▁I	-2366
▁for▁that	-2367
▁how▁much	-2368
▁like▁she	-2369
▁that▁much	-2370
▁both▁of▁us	-2371
hus	-2372
iny	-2373
omp	-2374
cing	-2375
husi	-2376
ific	-2377
inct	-2378
oint	-2379
▁esp	-2380
▁pur	-2381
asure	-2382
▁Like	-2383
▁When	-2384
▁prot	-2385
ilence	-2386
▁fight	-2387
▁gener	-2388
▁house	-2389
▁up▁to	-2390
▁noticed	-2391
▁since▁I	-2392
▁the▁end	-2393
▁but▁that	-2394
▁what▁you	-2395
▁you▁have	-2396
▁I▁can▁see	-2397
▁because▁I	-2398
▁especially	-2399
▁towards▁the	-2400
An	-2401
any	-2402
asp	-2403
hys	-2404
alth	-2405
oney	-2406
ection	-2407
t▁feel	-2408
▁allow	-2409
▁cheek	-2410
▁cheer	-2411
▁chess	-2412
▁meant	-2413
unately	-2414
▁accept	-2415
▁frustr	-2416
▁come▁to	-2417
▁is▁that	-2418
▁nervous	-2419
▁quietly	-2420
▁to▁find	-2421
▁to▁talk	-2422
I▁want▁to	-2423
She▁looks	-2424
▁I▁can▁do	-2425
▁decide▁to	-2426
▁out▁of▁my	-2427
▁relations	-2428
▁comfortable	-2429
bye	-2430
orn	-2431
oup	-2432
▁ho	-2433
Wait	-2434
▁blue	-2435
▁cute	-2436
If▁you	-2437
s▁more	-2438
wanako	-2439
▁guard	-2440
▁worth	-2441
You▁don	-2442
▁artist	-2443
▁of▁you	-2444
▁with▁it	-2445
▁would▁have	-2446
astic	-2447
▁grow	-2448
▁ones	-2449
▁pres	-2450
▁reac	-2451
It▁was	-2452
s▁very	-2453
▁an▁un	-2454
▁crowd	-2455
▁keeps	-2456
▁level	-2457
▁reply	-2458
▁stall	-2459
▁longer	-2460
▁middle	-2461
▁simple	-2462
▁neither	-2463
I▁suppose	-2464
▁begin▁to	-2465
t▁understand	-2466
By	-2467
eed	-2468
▁si	-2469
ular	-2470
ality	-2471
▁eyeb	-2472
▁wand	-2473
▁known	-2474
▁medic	-2475
▁phone	-2476
▁stick	-2477
▁afraid	-2478
▁is▁the	-2479
▁let▁me	-2480
▁of▁our	-2481
▁strong	-2482
s▁pretty	-2483
▁discuss	-2484
▁respond	-2485
▁birthday	-2486
▁feelings	-2487
▁silently	-2488
▁which▁is	-2489
▁behind▁her	-2490
▁some▁kind▁of	-2491
irc	-2492
the	-2493
tic	-2494
▁On	-2495
▁ty	-2496
▁cre	-2497
▁fre	-2498
▁ill	-2499
Mutou	-2500
itten	-2501
▁caus	-2502
▁suit	-2503
ing▁on	-2504
t▁that	-2505
▁aside	-2506
▁heavy	-2507
▁learn	-2508
▁young	-2509
Because	-2510
▁I▁look	-2511
▁a▁seat	-2512
▁pocket	-2513
▁seeing	-2514
ituation	-2515
▁brought	-2516
▁letting	-2517
Thank▁you	-2518
▁I▁wouldn	-2519
▁and▁more	-2520
▁familiar	-2521
▁and▁Hanako	-2522
▁the▁teacher	-2523
▁in▁the▁morning	-2524
gy	-2525
und	-2526
▁Is	-2527
ffee	-2528
lease	-2529
riend	-2530
s▁got	-2531
▁doll	-2532
▁joke	-2533
▁phys	-2534
igning	-2535
s▁away	-2536
s▁hard	-2537
s▁nice	-2538
▁a▁big	-2539
▁child	-2540
▁force	-2541
▁shock	-2542
▁spent	-2543
▁nobody	-2544
I▁try▁to	-2545
▁I▁still	-2546
▁and▁her	-2547
▁eyebrow	-2548
▁the▁sky	-2549
▁you▁two	-2550
t▁think▁I	-2551
▁think▁of	-2552
▁and▁I▁can	-2553
▁even▁more	-2554
▁there▁was	-2555
▁against▁my	-2556
▁relationship	-2557
cap	-2558
cha	-2559
now	-2560
king	-2561
oard	-2562
▁All	-2563
▁caf	-2564
▁cat	-2565
▁equ	-2566
▁obs	-2567
Akira	-2568
▁ball	-2569
▁hasn	-2570
ed▁the	-2571
▁const	-2572
▁noise	-2573
▁smell	-2574
▁tries	-2575
ibility	-2576
▁corner	-2577
▁may▁be	-2578
▁nearly	-2579
▁relief	-2580
▁remain	-2581
▁silent	-2582
d▁better	-2583
▁like▁it	-2584
▁the▁one	-2585
▁to▁know	-2586
s▁against	-2587
▁surround	-2588
▁to▁leave	-2589
▁the▁sound	-2590
re▁going▁to	-2591
▁around▁her	-2592
▁rest▁of▁the	-2593
ips	-2594
ors	-2595
▁ev	-2596
▁uh	-2597
▁uni	-2598
Hello	-2599
lcome	-2600
▁view	-2601
I▁have	-2602
▁is▁so	-2603
▁share	-2604
You▁can	-2605
▁to▁eat	-2606
▁do▁that	-2607
▁how▁she	-2608
▁stopped	-2609
▁while▁I	-2610
▁although	-2611
▁and▁that	-2612
t▁know▁what	-2613
isf	-2614
Damn	-2615
e▁of	-2616
▁a▁d	-2617
▁fit	-2618
▁pen	-2619
atisf	-2620
hance	-2621
▁kept	-2622
▁kiss	-2623
▁sent	-2624
▁clean	-2625
▁cloud	-2626
▁on▁me	-2627
▁weren	-2628
▁has▁to	-2629
▁hungry	-2630
▁so▁long	-2631
s▁herself	-2632
▁gives▁me	-2633
▁it▁doesn	-2634
▁uncomfort	-2635
▁once▁again	-2636
▁reminds▁me	-2637
▁the▁first▁time	-2638
aff	-2639
ale	-2640
awn	-2641
ugg	-2642
▁ve	-2643
I▁am	-2644
ages	-2645
iday	-2646
▁los	-2647
▁mus	-2648
▁pol	-2649
Right	-2650
▁wear	-2651
Anyway	-2652
▁I▁got	-2653
▁Nakai	-2654
▁black	-2655
▁enter	-2656
▁in▁an	-2657
▁occas	-2658
▁pause	-2659
▁train	-2660
▁dinner	-2661
▁a▁quick	-2662
▁becomes	-2663
▁did▁you	-2664
▁in▁your	-2665
▁see▁you	-2666
▁turning	-2667
▁for▁some	-2668
▁has▁been	-2669
▁problems	-2670
▁wondering	-2671
▁back▁to▁my	-2672
▁the▁second	-2673
▁as▁possible	-2674
▁rather▁than	-2675
▁in▁front▁of▁me	-2676
ian	-2677
izz	-2678
uka	-2679
arch	-2680
ield	-2681
land	-2682
▁ago	-2683
▁cas	-2684
▁inf	-2685
ezuka	-2686
ience	-2687
itive	-2688
▁cons	-2689
▁gets	-2690
▁pill	-2691
▁skin	-2692
ed▁her	-2693
espite	-2694
t▁make	-2695
ushing	-2696
▁fault	-2697
▁knows	-2698
▁troub	-2699
▁trust	-2700
s▁a▁bit	-2701
▁a▁part	-2702
▁coffee	-2703
▁except	-2704
▁future	-2705
▁thanks	-2706
▁as▁they	-2707
▁signing	-2708
▁weather	-2709
s▁because	-2710
▁it▁would	-2711
▁say▁that	-2712
▁work▁out	-2713
Eventually	-2714
s▁her▁head	-2715
▁manage▁to	-2716
▁otherwise	-2717
▁seem▁to▁be	-2718
▁that▁I▁don	-2719
bit	-2720
dow	-2721
unt	-2722
urpr	-2723
▁arg	-2724
▁boy	-2725
ghter	-2726
▁chat	-2727
▁curi	-2728
▁deli	-2729
▁edge	-2730
▁flow	-2731
▁whis	-2732
I▁mean	-2733
▁admit	-2734
▁apart	-2735
▁offer	-2736
ning▁to	-2737
s▁at▁me	-2738
ving▁to	-2739
▁health	-2740
▁wanted	-2741
re▁right	-2742
▁contact	-2743
▁giggles	-2744
▁meeting	-2745
▁natural	-2746
▁of▁time	-2747
▁up▁with	-2748
▁but▁then	-2749
▁confused	-2750
▁laughter	-2751
▁terrible	-2752
▁coming▁to	-2753
▁disappear	-2754
▁the▁right	-2755
▁apparently	-2756
▁appreciate	-2757
▁experience	-2758
▁at▁the▁same	-2759
Ha	-2760
Uh	-2761
…!	-2762
enty	-2763
time	-2764
well	-2765
yond	-2766
▁lie	-2767
▁soc	-2768
ature	-2769
s▁his	-2770
▁disc	-2771
▁hide	-2772
▁post	-2773
▁wood	-2774
t▁want	-2775
▁I▁did	-2776
▁games	-2777
▁green	-2778
▁money	-2779
▁study	-2780
Come▁on	-2781
▁Do▁you	-2782
▁If▁you	-2783
▁and▁me	-2784
▁by▁now	-2785
▁ignore	-2786
▁passes	-2787
▁changed	-2788
▁enthusi	-2789
▁promise	-2790
▁to▁help	-2791
▁as▁I▁can	-2792
▁like▁you	-2793
▁the▁small	-2794
What▁do▁you	-2795
ing▁herself	-2796
▁disappoint	-2797
▁the▁Student▁Council	-2798
00	-2799
mp	-2800
Can	-2801
ior	-2802
s▁d	-2803
▁er	-2804
Once	-2805
lish	-2806
▁Sae	-2807
▁lap	-2808
night	-2809
usion	-2810
▁tent	-2811
ishing	-2812
▁Sorry	-2813
▁blank	-2814
▁cross	-2815
▁waves	-2816
▁why▁I	-2817
onsider	-2818
▁I▁wasn	-2819
▁Rin▁is	-2820
▁imposs	-2821
▁likely	-2822
▁secret	-2823
Although	-2824
t▁matter	-2825
▁I▁start	-2826
▁from▁me	-2827
▁holding	-2828
▁occasion	-2829
▁over▁her	-2830
▁presence	-2831
▁continues	-2832
▁forgotten	-2833
▁seriously	-2834
▁about▁what	-2835
▁to▁Shizune	-2836
Let	-2837
cot	-2838
s▁r	-2839
haps	-2840
just	-2841
▁opt	-2842
▁sle	-2843
Where	-2844
anger	-2845
iling	-2846
s▁you	-2847
▁city	-2848
▁fear	-2849
▁wide	-2850
bition	-2851
s▁true	-2852
▁at▁it	-2853
▁favor	-2854
▁if▁we	-2855
▁tight	-2856
ing▁off	-2857
▁energy	-2858
▁living	-2859
It▁doesn	-2860
ometimes	-2861
s▁of▁the	-2862
s▁to▁the	-2863
▁but▁not	-2864
▁knowing	-2865
She▁doesn	-2866
▁a▁single	-2867
▁for▁this	-2868
▁going▁on	-2869
▁possibly	-2870
▁properly	-2871
▁sit▁down	-2872
▁sleeping	-2873
▁the▁room	-2874
▁say▁something	-2875
▁something▁that	-2876
rp	-2877
amp	-2878
eech	-2879
spic	-2880
utif	-2881
▁lip	-2882
▁vac	-2883
es▁of	-2884
olute	-2885
▁a▁br	-2886
▁cane	-2887
▁circ	-2888
▁gave	-2889
▁meal	-2890
▁thin	-2891
▁above	-2892
▁a▁bre	-2893
▁bread	-2894
▁clock	-2895
▁lying	-2896
▁sheet	-2897
▁silly	-2898
▁turns	-2899
ve▁seen	-2900
▁effect	-2901
▁for▁my	-2902
▁laughs	-2903
▁than▁I	-2904
▁the▁sc	-2905
▁way▁of	-2906
▁briefly	-2907
▁collect	-2908
▁comment	-2909
▁to▁hear	-2910
The▁nurse	-2911
▁a▁person	-2912
▁homework	-2913
▁previous	-2914
▁thing▁to	-2915
▁statement	-2916
▁to▁Hanako	-2917
▁we▁should	-2918
▁out▁of▁her	-2919
▁other▁people	-2920
▁this▁morning	-2921
▁something▁else	-2922
hh	-2923
▁…	-2924
erc	-2925
orr	-2926
que	-2927
sue	-2928
eria	-2929
mosp	-2930
tles	-2931
▁Let	-2932
▁bas	-2933
▁hid	-2934
▁four	-2935
▁gall	-2936
▁hadn	-2937
▁repl	-2938
▁rout	-2939
▁skip	-2940
▁slip	-2941
▁text	-2942
▁unus	-2943
inking	-2944
▁agree	-2945
▁as▁he	-2946
▁a▁new	-2947
▁badly	-2948
▁brush	-2949
▁disab	-2950
▁escap	-2951
▁exist	-2952
▁month	-2953
▁peace	-2954
ll▁just	-2955
ve▁ever	-2956
▁atmosp	-2957
▁beyond	-2958
▁commun	-2959
▁had▁to	-2960
▁hardly	-2961
▁itself	-2962
▁opport	-2963
▁seemed	-2964
▁the▁sp	-2965
▁weight	-2966
There▁is	-2967
m▁pretty	-2968
ould▁you	-2969
▁I▁never	-2970
▁company	-2971
▁however	-2972
Something	-2973
▁her▁head	-2974
▁particul	-2975
▁to▁Lilly	-2976
▁and▁I▁don	-2977
▁atmosphere	-2978
▁impossible	-2979
▁to▁try▁and	-2980
▁all▁the▁time	-2981
▁the▁situation	-2982
One	-2983
arm	-2984
mon	-2985
▁Al	-2986
▁ut	-2987
Look	-2988
▁bro	-2989
▁buy	-2990
▁cup	-2991
▁pop	-2992
▁unc	-2993
ained	-2994
▁gate	-2995
▁neat	-2996
es▁and	-2997
eteria	-2998
ipping	-2999
t▁hear	-3000
▁go▁to	-3001
Besides	-3002
ing▁too	-3003
▁contro	-3004
▁giggle	-3005
▁you▁to	-3006
Actually	-3007
Shicchan	-3008
▁meaning	-3009
▁putting	-3010
▁respons	-3011
▁see▁her	-3012
▁stretch	-3013
▁of▁being	-3014
▁opportun	-3015
▁certainly	-3016
▁interrupt	-3017
▁just▁like	-3018
▁perfectly	-3019
Even▁though	-3020
▁I▁think▁it	-3021
What▁are▁you	-3022
▁with▁Hanako	-3023
▁uncomfortable	-3024
▁the▁same▁thing	-3025
▁at▁the▁same▁time	-3026
bb	-3027
gr	-3028
fast	-3029
hyth	-3030
s▁go	-3031
▁a▁h	-3032
▁ble	-3033
▁men	-3034
▁sol	-3035
ended	-3036
s▁ago	-3037
s▁how	-3038
▁Some	-3039
▁am▁I	-3040
▁area	-3041
▁blow	-3042
▁kill	-3043
▁same	-3044
▁unif	-3045
▁and▁d	-3046
▁avoid	-3047
▁a▁min	-3048
▁hours	-3049
▁incre	-3050
▁reass	-3051
atively	-3052
s▁a▁lot	-3053
▁Tezuka	-3054
▁and▁my	-3055
▁assume	-3056
▁a▁very	-3057
▁during	-3058
▁father	-3059
▁my▁way	-3060
▁places	-3061
▁put▁it	-3062
▁suspic	-3063
s▁on▁the	-3064
▁gallery	-3065
▁in▁that	-3066
▁make▁me	-3067
▁off▁the	-3068
▁seem▁to	-3069
ing▁their	-3070
t▁seem▁to	-3071
▁becoming	-3072
▁help▁you	-3073
ing▁around	-3074
▁must▁have	-3075
▁ourselves	-3076
▁that▁this	-3077
▁could▁have	-3078
▁or▁at▁least	-3079
▁more▁and▁more	-3080
gha	-3081
uct	-3082
uss	-3083
ized	-3084
lebr	-3085
s▁as	-3086
▁See	-3087
▁kid	-3088
▁lit	-3089
▁par	-3090
▁ten	-3091
Ahaha	-3092
ening	-3093
entle	-3094
hered	-3095
oring	-3096
▁Come	-3097
▁Good	-3098
▁exha	-3099
▁main	-3100
▁plac	-3101
▁road	-3102
▁send	-3103
▁spot	-3104
▁weak	-3105
t▁been	-3106
▁bored	-3107
▁contr	-3108
▁dream	-3109
▁shake	-3110
▁us▁to	-3111
▁works	-3112
▁compet	-3113
▁resist	-3114
▁so▁far	-3115
▁speech	-3116
▁transl	-3117
▁concern	-3118
▁it▁wasn	-3119
▁of▁what	-3120
▁out▁the	-3121
▁special	-3122
▁the▁sun	-3123
▁uniform	-3124
There▁are	-3125
ed▁by▁the	-3126
▁Misha▁is	-3127
▁communic	-3128
ll▁have▁to	-3129
▁I▁guess▁I	-3130
▁apologize	-3131
▁they▁were	-3132
fortunately	-3133
▁Shizune▁is	-3134
▁decided▁to	-3135
▁in▁the▁end	-3136
▁through▁my	-3137
▁I▁wanted▁to	-3138
▁sounds▁like	-3139
▁on▁the▁other	-3140
▁everyone▁else	-3141
▁seems▁to▁have	-3142
▁thinking▁about	-3143
▁to▁think▁of▁it	-3144
Ex	-3145
Who	-3146
eal	-3147
ene	-3148
set	-3149
▁Th	-3150
cess	-3151
ghai	-3152
ined	-3153
llen	-3154
over	-3155
rent	-3156
▁cry	-3157
▁tot	-3158
cious	-3159
orner	-3160
▁Scot	-3161
▁fish	-3162
▁requ	-3163
I▁turn	-3164
idence	-3165
m▁fine	-3166
s▁over	-3167
s▁room	-3168
t▁just	-3169
▁brain	-3170
▁invit	-3171
▁oddly	-3172
▁truth	-3173
▁write	-3174
ed▁that	-3175
hanghai	-3176
s▁wrong	-3177
▁in▁any	-3178
▁not▁be	-3179
▁on▁top	-3180
▁settle	-3181
▁steady	-3182
▁unlike	-3183
That▁was	-3184
▁You▁can	-3185
▁careful	-3186
▁confirm	-3187
▁forever	-3188
▁measure	-3189
▁reflect	-3190
s▁hard▁to	-3191
▁I▁try▁to	-3192
▁in▁order	-3193
▁turns▁to	-3194
▁voice▁is	-3195
▁amount▁of	-3196
▁concerned	-3197
▁dormitory	-3198
▁for▁a▁few	-3199
▁genuinely	-3200
▁really▁is	-3201
▁considering	-3202
Sh	-3203
ta	-3204
man	-3205
not	-3206
ogn	-3207
Your	-3208
atic	-3209
book	-3210
hich	-3211
tern	-3212
t▁go	-3213
▁laz	-3214
▁spr	-3215
As▁we	-3216
board	-3217
ences	-3218
▁butt	-3219
▁card	-3220
▁exhi	-3221
▁grim	-3222
▁sugg	-3223
oliday	-3224
▁chuck	-3225
▁dorms	-3226
▁elect	-3227
▁extre	-3228
▁hurry	-3229
▁lower	-3230
▁oppos	-3231
▁plans	-3232
▁round	-3233
▁shuff	-3234
▁third	-3235
▁weeks	-3236
▁women	-3237
Nothing	-3238
▁I▁hope	-3239
▁closed	-3240
▁gentle	-3241
▁necess	-3242
▁recogn	-3243
▁regret	-3244
s▁a▁good	-3245
▁Iwanako	-3246
▁clothes	-3247
▁control	-3248
▁counter	-3249
▁towards	-3250
▁to▁give	-3251
▁Shanghai	-3252
▁anywhere	-3253
▁delicate	-3254
▁makes▁it	-3255
▁normally	-3256
▁sense▁of	-3257
▁the▁more	-3258
▁told▁you	-3259
▁depressed	-3260
▁feel▁like	-3261
▁look▁like	-3262
▁I▁was▁just	-3263
▁because▁it	-3264
▁before▁she	-3265
▁that▁I▁was	-3266
▁anyone▁else	-3267
▁of▁the▁room	-3268
nce	-3269
▁Oh	-3270
airs	-3271
apan	-3272
ives	-3273
ming	-3274
oose	-3275
ower	-3276
rect	-3277
rodu	-3278
▁ate	-3279
▁tem	-3280
▁Okay	-3281
▁a▁bl	-3282
▁dead	-3283
▁pour	-3284
▁sand	-3285
▁sick	-3286
▁team	-3287
d▁have	-3288
ing▁is	-3289
ll▁get	-3290
nglish	-3291
▁exams	-3292
▁exerc	-3293
▁flick	-3294
▁limit	-3295
d▁never	-3296
looking	-3297
olutely	-3298
▁I▁find	-3299
▁asking	-3300
▁interp	-3301
▁in▁his	-3302
▁it▁out	-3303
▁pauses	-3304
▁I▁might	-3305
▁evening	-3306
▁himself	-3307
▁if▁they	-3308
▁process	-3309
▁routine	-3310
I▁quickly	-3311
▁I▁couldn	-3312
▁in▁class	-3313
▁is▁still	-3314
▁like▁the	-3315
▁this▁way	-3316
▁to▁start	-3317
▁about▁you	-3318
▁much▁more	-3319
▁of▁Hanako	-3320
▁I▁can▁feel	-3321
▁a▁long▁time	-3322
▁embarrassed	-3323
▁most▁of▁the	-3324
▁opportunity	-3325
▁or▁anything	-3326
▁the▁silence	-3327
▁think▁about	-3328
t▁really▁know	-3329
▁in▁the▁first	-3330
,'	-3331
bar	-3332
eze	-3333
uge	-3334
yle	-3335
▁Sh	-3336
ngue	-3337
s▁ar	-3338
▁anx	-3339
▁gro	-3340
arily	-3341
osity	-3342
udden	-3343
▁conv	-3344
▁ease	-3345
▁fire	-3346
▁neck	-3347
▁nose	-3348
When▁I	-3349
sident	-3350
▁below	-3351
▁stuck	-3352
Despite	-3353
s▁doing	-3354
▁attend	-3355
▁a▁book	-3356
▁a▁word	-3357
▁celebr	-3358
▁manner	-3359
▁prefer	-3360
▁say▁it	-3361
▁scared	-3362
▁search	-3363
▁shower	-3364
▁spread	-3365
▁to▁Rin	-3366
▁up▁the	-3367
▁and▁you	-3368
▁believe	-3369
▁content	-3370
▁exhaust	-3371
▁to▁come	-3372
▁what▁it	-3373
▁when▁it	-3374
t▁believe	-3375
▁decision	-3376
▁directly	-3377
▁opposite	-3378
▁speaking	-3379
▁the▁hell	-3380
t▁remember	-3381
▁behind▁me	-3382
▁that▁they	-3383
▁on▁the▁table	-3384
▁that▁kind▁of	-3385
▁student▁council▁room	-3386
Nah	-3387
att	-3388
eep	-3389
▁Mr	-3390
▁ju	-3391
ived	-3392
lies	-3393
s▁is	-3394
▁fix	-3395
▁mix	-3396
▁non	-3397
▁unf	-3398
azaki	-3399
iment	-3400
ished	-3401
right	-3402
▁char	-3403
▁held	-3404
▁path	-3405
▁shop	-3406
▁thro	-3407
iently	-3408
s▁from	-3409
utiful	-3410
▁burst	-3411
▁descr	-3412
▁final	-3413
▁group	-3414
▁leans	-3415
▁sweat	-3416
▁to▁it	-3417
▁trick	-3418
▁twice	-3419
▁worst	-3420
Somehow	-3421
ination	-3422
ressive	-3423
s▁after	-3424
uddenly	-3425
▁I▁knew	-3426
▁at▁Rin	-3427
▁satisf	-3428
▁shrugs	-3429
barazaki	-3430
▁and▁now	-3431
▁a▁smile	-3432
▁let▁her	-3433
▁of▁your	-3434
▁to▁meet	-3435
▁visible	-3436
▁written	-3437
All▁right	-3438
▁all▁this	-3439
▁it▁seems	-3440
▁of▁Lilly	-3441
▁that▁Emi	-3442
▁the▁book	-3443
ing▁myself	-3444
▁curiosity	-3445
▁every▁day	-3446
▁seemingly	-3447
▁with▁them	-3448
▁attempt▁to	-3449
▁if▁you▁don	-3450
▁now▁that▁I	-3451
For▁a▁moment	-3452
▁because▁she	-3453
▁dormitories	-3454
▁a▁little▁more	-3455
▁in▁the▁first▁place	-3456
His	-3457
aid	-3458
cer	-3459
rit	-3460
uly	-3461
▁sy	-3462
From	-3463
iety	-3464
ised	-3465
rawn	-3466
spir	-3467
▁a▁r	-3468
▁bea	-3469
▁ord	-3470
▁scr	-3471
▁und	-3472
ccess	-3473
▁clim	-3474
▁date	-3475
▁heat	-3476
▁none	-3477
▁ring	-3478
▁Japan	-3479
▁Right	-3480
▁anger	-3481
▁compl	-3482
▁extra	-3483
▁femin	-3484
▁forth	-3485
▁lives	-3486
▁so▁we	-3487
▁strik	-3488
▁tried	-3489
▁utter	-3490
▁woman	-3491
However	-3492
▁adjust	-3493
▁classm	-3494
▁nature	-3495
▁the▁fl	-3496
▁vision	-3497
ing▁down	-3498
s▁always	-3499
▁English	-3500
▁extreme	-3501
▁take▁it	-3502
▁why▁she	-3503
▁and▁look	-3504
▁art▁club	-3505
▁a▁bit▁of	-3506
▁emotions	-3507
s▁not▁like	-3508
t▁help▁but	-3509
▁Ibarazaki	-3510
▁be▁honest	-3511
▁having▁to	-3512
▁off▁guard	-3513
▁president	-3514
▁the▁point	-3515
▁with▁this	-3516
m▁surprised	-3517
▁exhibition	-3518
▁instead▁of	-3519
▁themselves	-3520
▁concentrate	-3521
▁in▁the▁middle	-3522
▁the▁classroom	-3523
sy	-3524
▁3	-3525
acy	-3526
imp	-3527
ppy	-3528
ager	-3529
oken	-3530
uing	-3531
▁dig	-3532
▁dry	-3533
▁due	-3534
▁pan	-3535
azing	-3536
ll▁go	-3537
utter	-3538
xpect	-3539
▁mail	-3540
▁star	-3541
▁stom	-3542
resent	-3543
s▁into	-3544
s▁your	-3545
▁I▁won	-3546
▁and▁f	-3547
▁had▁a	-3548
▁juice	-3549
▁plain	-3550
▁topic	-3551
▁a▁deep	-3552
▁breeze	-3553
▁cheeks	-3554
▁just▁a	-3555
▁mostly	-3556
▁shadow	-3557
▁wooden	-3558
At▁least	-3559
▁do▁this	-3560
▁grounds	-3561
▁holiday	-3562
▁missing	-3563
▁moments	-3564
▁and▁even	-3565
▁picks▁up	-3566
▁studying	-3567
▁with▁Rin	-3568
Then▁again	-3569
▁I▁need▁to	-3570
▁beautiful	-3571
▁breakfast	-3572
▁would▁you	-3573
m▁trying▁to	-3574
▁with▁Lilly	-3575
▁better▁than	-3576
▁in▁the▁same	-3577
Unfortunately	-3578
▁the▁only▁one	-3579
▁with▁Shizune	-3580
▁anything▁else	-3581
▁looking▁at▁me	-3582
▁think▁about▁it	-3583
Aw	-3584
uc	-3585
ata	-3586
lex	-3587
zen	-3588
▁Be	-3589
▁ta	-3590
ague	-3591
▁Sat	-3592
▁hug	-3593
▁jud	-3594
▁rid	-3595
▁shy	-3596
I▁get	-3597
apers	-3598
eople	-3599
es▁it	-3600
hythm	-3601
ipped	-3602
▁beat	-3603
▁brow	-3604
▁clas	-3605
▁conn	-3606
▁mach	-3607
▁tiny	-3608
s▁hand	-3609
t▁care	-3610
▁Still	-3611
▁blame	-3612
▁deter	-3613
▁dress	-3614
iculous	-3615
▁I▁want	-3616
▁amused	-3617
▁choice	-3618
▁incred	-3619
▁lately	-3620
▁no▁one	-3621
▁office	-3622
▁social	-3623
▁unable	-3624
▁wander	-3625
ving▁the	-3626
▁a▁break	-3627
▁general	-3628
▁pushing	-3629
▁tightly	-3630
▁we▁have	-3631
She▁takes	-3632
▁At▁least	-3633
▁Scotland	-3634
▁about▁my	-3635
▁about▁to	-3636
▁down▁and	-3637
▁in▁a▁way	-3638
▁one▁hand	-3639
▁practice	-3640
▁shopping	-3641
▁tell▁her	-3642
▁we▁could	-3643
▁any▁other	-3644
▁back▁of▁my	-3645
▁wanting▁to	-3646
▁should▁have	-3647
▁that▁Hanako	-3648
▁supposed▁to▁be	-3649
Hm	-3650
Me	-3651
aa	-3652
cy	-3653
▁z	-3654
ipp	-3655
rew	-3656
tte	-3657
▁fu	-3658
Here	-3659
inal	-3660
m▁so	-3661
play	-3662
uess	-3663
vert	-3664
▁dut	-3665
▁tap	-3666
Never	-3667
istic	-3668
▁Yeah	-3669
▁fold	-3670
▁tens	-3671
▁upon	-3672
Nomiya	-3673
either	-3674
ensive	-3675
s▁head	-3676
▁a▁sha	-3677
▁shoot	-3678
▁vague	-3679
Without	-3680
ressing	-3681
robably	-3682
s▁to▁me	-3683
▁I▁need	-3684
▁a▁nice	-3685
▁by▁her	-3686
▁it▁all	-3687
▁throat	-3688
It▁takes	-3689
▁and▁Rin	-3690
▁and▁get	-3691
▁excited	-3692
▁falling	-3693
▁for▁now	-3694
▁increas	-3695
▁just▁as	-3696
▁my▁face	-3697
▁respect	-3698
▁stomach	-3699
▁when▁we	-3700
▁with▁an	-3701
wards▁the	-3702
▁and▁take	-3703
▁a▁chance	-3704
▁distinct	-3705
▁have▁you	-3706
▁like▁her	-3707
▁my▁mouth	-3708
ll▁see▁you	-3709
s▁actually	-3710
▁and▁there	-3711
▁intention	-3712
▁no▁matter	-3713
▁paintings	-3714
▁some▁time	-3715
▁you▁would	-3716
s▁like▁this	-3717
▁end▁of▁the	-3718
▁that▁Lilly	-3719
▁the▁street	-3720
m▁not▁really	-3721
t▁seem▁to▁be	-3722
▁things▁that	-3723
▁this▁school	-3724
▁for▁a▁second	-3725
▁I▁find▁myself	-3726
▁open▁the▁door	-3727
▁what▁happened	-3728
oc	-3729
Have	-3730
ench	-3731
iate	-3732
▁log	-3733
▁var	-3734
hetic	-3735
ified	-3736
▁five	-3737
▁hast	-3738
▁hill	-3739
▁mark	-3740
▁pant	-3741
▁pink	-3742
▁snap	-3743
▁stro	-3744
▁tast	-3745
▁ways	-3746
As▁she	-3747
But▁it	-3748
I▁give	-3749
t▁stop	-3750
▁Since	-3751
▁While	-3752
▁aware	-3753
▁envel	-3754
▁it▁up	-3755
▁mural	-3756
▁raise	-3757
▁tense	-3758
▁truly	-3759
▁waste	-3760
▁years	-3761
ilities	-3762
sidered	-3763
▁Anyway	-3764
▁as▁her	-3765
▁became	-3766
▁catche	-3767
▁conven	-3768
▁excuse	-3769
▁fairly	-3770
▁faster	-3771
▁helped	-3772
▁of▁all	-3773
▁trying	-3774
▁warmth	-3775
▁yellow	-3776
s▁of▁her	-3777
s▁to▁her	-3778
▁even▁if	-3779
▁good▁at	-3780
▁lightly	-3781
▁look▁at	-3782
▁on▁that	-3783
▁on▁your	-3784
▁passing	-3785
▁pretend	-3786
▁to▁that	-3787
▁univers	-3788
▁exercise	-3789
▁far▁from	-3790
▁Something	-3791
▁for▁me▁to	-3792
▁last▁time	-3793
▁myself▁to	-3794
▁number▁of	-3795
▁questions	-3796
I▁wonder▁if	-3797
▁impression	-3798
▁in▁silence	-3799
▁looking▁at	-3800
▁happened▁to	-3801
▁someone▁who	-3802
▁waiting▁for	-3803
▁beginning▁to	-3804
▁one▁of▁those	-3805
▁someone▁else	-3806
ox	-3807
▁U	-3808
asy	-3809
lev	-3810
mer	-3811
pha	-3812
urb	-3813
▁ur	-3814
Only	-3815
Very	-3816
erve	-3817
hone	-3818
ilty	-3819
pose	-3820
▁bra	-3821
▁pun	-3822
▁wra	-3823
Since	-3824
es▁to	-3825
imple	-3826
izing	-3827
▁From	-3828
▁cake	-3829
▁cast	-3830
▁land	-3831
▁lift	-3832
▁pale	-3833
▁park	-3834
▁rush	-3835
▁task	-3836
▁term	-3837
▁tick	-3838
▁yawn	-3839
So▁you	-3840
istory	-3841
▁accom	-3842
▁activ	-3843
▁blood	-3844
▁freez	-3845
▁fresh	-3846
▁grins	-3847
▁issue	-3848
▁party	-3849
▁skill	-3850
▁twist	-3851
re▁just	-3852
▁couple	-3853
▁danger	-3854
▁deeply	-3855
▁exchan	-3856
▁from▁a	-3857
▁guilty	-3858
▁member	-3859
Everyone	-3860
▁but▁you	-3861
▁display	-3862
▁introdu	-3863
▁like▁an	-3864
▁on▁this	-3865
▁relaxed	-3866
▁that▁he	-3867
▁welcome	-3868
▁You▁know	-3869
▁about▁me	-3870
▁as▁Lilly	-3871
▁a▁minute	-3872
▁bothered	-3873
▁ended▁up	-3874
▁hang▁out	-3875
▁onto▁the	-3876
▁she▁just	-3877
▁the▁city	-3878
▁tries▁to	-3879
▁vacation	-3880
▁watching	-3881
▁whenever	-3882
▁where▁we	-3883
Not▁really	-3884
▁confident	-3885
▁extremely	-3886
▁making▁me	-3887
▁nervously	-3888
▁represent	-3889
▁starts▁to	-3890
▁absolutely	-3891
▁considered	-3892
▁discussion	-3893
▁even▁if▁it	-3894
▁think▁that	-3895
▁between▁her	-3896
▁I▁think▁that	-3897
▁it▁feels▁like	-3898
▁in▁front▁of▁her	-3899
▁in▁the▁hospital	-3900
▁something▁like▁that	-3901
ia	-3902
asm	-3903
iod	-3904
Fine	-3905
beat	-3906
ices	-3907
ichi	-3908
ilar	-3909
kend	-3910
oing	-3911
▁age	-3912
▁loc	-3913
▁spl	-3914
But▁I	-3915
getic	-3916
idden	-3917
igare	-3918
nding	-3919
ument	-3920
▁beha	-3921
▁cook	-3922
▁fell	-3923
▁musc	-3924
▁save	-3925
▁shot	-3926
▁teas	-3927
▁used	-3928
aching	-3929
m▁glad	-3930
▁amuse	-3931
▁crack	-3932
▁habit	-3933
▁human	-3934
▁match	-3935
▁power	-3936
Looking	-3937
idently	-3938
s▁voice	-3939
▁I▁said	-3940
▁absent	-3941
▁acting	-3942
▁common	-3943
▁giving	-3944
▁object	-3945
▁period	-3946
▁plenty	-3947
▁street	-3948
But▁that	-3949
I▁really	-3950
s▁mother	-3951
t▁expect	-3952
▁Because	-3953
▁emotion	-3954
▁glances	-3955
▁healthy	-3956
▁is▁over	-3957
▁learned	-3958
▁made▁me	-3959
▁perhaps	-3960
▁so▁many	-3961
▁weekend	-3962
▁with▁us	-3963
Well▁then	-3964
ed▁by▁her	-3965
▁breaking	-3966
▁for▁your	-3967
▁she▁does	-3968
s▁together	-3969
▁back▁down	-3970
▁cafeteria	-3971
▁she▁would	-3972
s▁all▁right	-3973
▁figure▁out	-3974
▁surprising	-3975
▁than▁usual	-3976
▁want▁to▁be	-3977
▁longer▁than	-3978
▁one▁another	-3979
▁to▁make▁sure	-3980
af	-3981
co	-3982
zy	-3983
,▁'	-3984
inc	-3985
t▁I	-3986
uch	-3987
unk	-3988
▁3-	-3989
▁um	-3990
aked	-3991
itch	-3992
miss	-3993
ooth	-3994
▁bat	-3995
▁wet	-3996
Thank	-3997
acing	-3998
etter	-3999
ildly	-4000
ledge	-4001
uring	-4002
using	-4003
▁damn	-4004
▁exit	-4005
▁mere	-4006
▁priv	-4007
▁runs	-4008
m▁here	-4009
▁	-4010
e	-4011
t	-4012
o	-4013
a	-4014
n	-4015
s	-4016
i	-4017
h	-4018
r	-4019
l	-4020
d	-4021
u	-4022
m	-4023
y	-4024
g	-4025
c	-4026
f	-4027
w	-4028
.	-4029
p	-4030
b	-4031
,	-4032
k	-4033
I	-4034
'	-4035
v	-4036
?	-4037
S	-4038
T	-4039
H	-4040
…	-4041
W	-4042
A	-4043
j	-4044
z	-4045
x	-4046
Y	-4047
!	-4048
M	-4049
E	-4050
L	-4051
q	-4052
R	-4053
N	-4054
-	-4055
B	-4056
O	-4057
~	-4058
D	-4059
C	-4060
F	-4061
G	-4062
;	-4063
P	-4064
J	-4065
U	-4066
K	-4067
—	-4068
0	-4069
:	-4070
V	-4071
2	-4072
3	-4073
é	-4074
1	-4075
5	-4076
Q	-4077
(	-4078
)	-4079
4	-4080
*	-4081
6	-4082
7	-4083
8	-4084
9	-4085
%	-4086
/	-4087
Z	-4088
X	-4089
ç	-4090
<	-4091
>	-4092
à	-4093
