<unk>	0
▁н	-0
то	-1
▁п	-2
▁с	-3
▁в	-4
но	-5
▁о	-6
ко	-7
ть	-8
▁по	-9
ет	-10
▁м	-11
ра	-12
▁не	-13
▁и	-14
ро	-15
ен	-16
▁ч	-17
на	-18
ка	-19
▁д	-20
го	-21
ст	-22
▁на	-23
▁т	-24
ся	-25
ва	-26
▁б	-27
ли	-28
за	-29
ла	-30
ер	-31
▁что	-32
▁у	-33
ль	-34
ло	-35
ни	-36
▁я	-37
во	-38
ит	-39
ем	-40
▁е	-41
да	-42
ри	-43
▁за	-44
▁э	-45
не	-46
сь	-47
же	-48
хо	-49
▁к	-50
▁ка	-51
ре	-52
ма	-53
▁то	-54
▁ко	-55
▁это	-56
ру	-57
ле	-58
▁ра	-59
▁про	-60
▁мо	-61
ны	-62
ки	-63
▁бы	-64
ми	-65
▁та	-66
ля	-67
ени	-68
▁от	-69
де	-70
мо	-71
до	-72
ча	-73
ется	-74
та	-75
▁при	-76
▁вс	-77
ти	-78
▁со	-79
▁во	-80
ди	-81
▁но	-82
▁об	-83
ста	-84
▁она	-85
▁до	-86
ви	-87
сто	-88
по	-89
▁з	-90
ку	-91
▁мен	-92
еб	-93
ду	-94
ыва	-95
бо	-96
ться	-97
▁как	-98
▁её	-99
чи	-100
ну	-101
▁меня	-102
ше	-103
▁вы	-104
лу	-105
▁го	-106
шь	-107
▁так	-108
ере	-109
▁хо	-110
ня	-111
▁мне	-112
▁ни	-113
▁раз	-114
его	-115
льно	-116
ши	-117
▁г	-118
ей	-119
▁Х	-120
вер	-121
сть	-122
▁из	-123
жи	-124
ме	-125
му	-126
ря	-127
ша	-128
те	-129
гда	-130
га	-131
По	-132
жа	-133
▁ли	-134
бы	-135
▁же	-136
▁ты	-137
лько	-138
ве	-139
▁С	-140
уд	-141
жно	-142
▁бо	-143
▁да	-144
сти	-145
▁а	-146
юсь	-147
▁всё	-148
▁Н	-149
ры	-150
чно	-151
лю	-152
зу	-153
▁мы	-154
ёт	-155
нако	-156
ид	-157
ву	-158
ил	-159
нима	-160
▁Я	-161
гу	-162
са	-163
▁сво	-164
▁сто	-165
кой	-166
▁де	-167
сли	-168
ебя	-169
▁М	-170
че	-171
енно	-172
лы	-173
со	-174
тя	-175
Она	-176
дно	-177
▁ве	-178
па	-179
ют	-180
▁бе	-181
дит	-182
▁под	-183
рав	-184
рем	-185
▁пре	-186
ин	-187
ение	-188
ума	-189
▁зна	-190
▁чтобы	-191
ень	-192
чит	-193
щё	-194
вет	-195
ный	-196
гля	-197
▁пос	-198
ного	-199
ща	-200
ха	-201
илли	-202
ги	-203
анако	-204
▁Э	-205
Лилли	-206
щи	-207
ебе	-208
▁–	-209
▁дру	-210
▁кото	-211
▁са	-212
ему	-213
каза	-214
ак	-215
ной	-216
▁пере	-217
нэ	-218
зунэ	-219
идзунэ	-220
▁ме	-221
си	-222
▁ещё	-223
▁ста	-224
▁ре	-225
▁вз	-226
▁буд	-227
це	-228
▁врем	-229
▁ру	-230
вы	-231
ём	-232
▁ш	-233
про	-234
▁чу	-235
ения	-236
ско	-237
▁В	-238
▁Т	-239
Рин	-240
ще	-241
▁боль	-242
вать	-243
▁ст	-244
▁просто	-245
▁воз	-246
▁сло	-247
▁Лилли	-248
▁ви	-249
вно	-250
▁па	-251
▁рас	-252
▁Ханако	-253
ешь	-254
▁каж	-255
Не	-256
нно	-257
▁ф	-258
би	-259
▁те	-260
Да	-261
ком	-262
жет	-263
▁Сидзунэ	-264
ке	-265
вст	-266
пи	-267
▁оста	-268
▁дума	-269
ние	-270
жу	-271
вает	-272
ные	-273
▁когда	-274
ба	-275
▁голо	-276
ным	-277
▁только	-278
▁чем	-279
ите	-280
▁могу	-281
▁если	-282
пе	-283
ят	-284
▁лю	-285
се	-286
ту	-287
ут	-288
ци	-289
об	-290
▁уже	-291
мот	-292
▁гово	-293
▁Рин	-294
мы	-295
ды	-296
▁для	-297
чу	-298
тому	-299
ты	-300
▁что▁я	-301
▁оч	-302
▁К	-303
▁себя	-304
▁все	-305
лось	-306
▁чувст	-307
вля	-308
ная	-309
▁дела	-310
ывает	-311
ное	-312
▁И	-313
▁время	-314
ится	-315
лся	-316
▁ча	-317
▁тебя	-318
▁было	-319
тян	-320
▁ей	-321
иттян	-322
▁ма	-323
▁Эми	-324
пу	-325
пер	-326
лась	-327
▁не▁с	-328
нов	-329
▁этом	-330
▁нет	-331
спо	-332
ств	-333
▁после	-334
▁кажется	-335
▁даже	-336
ходит	-337
▁Ми	-338
▁тебе	-339
~!	-340
▁нас	-341
зо	-342
▁его	-343
ска	-344
▁того	-345
▁По	-346
▁неё	-347
шо	-348
ца	-349
▁быть	-350
▁ней	-351
▁х	-352
▁сказа	-353
чего	-354
ния	-355
ыта	-356
дь	-357
На	-358
▁дол	-359
▁«	-360
ясь	-361
Но	-362
ётся	-363
▁ком	-364
▁си	-365
бе	-366
Это	-367
▁или	-368
▁шко	-369
сту	-370
▁гла	-371
▁кон	-372
▁пред	-373
▁О	-374
Что	-375
▁есть	-376
▁что▁она	-377
иса	-378
чина	-379
▁ми	-380
зи	-381
▁больше	-382
шу	-383
мен	-384
дела	-385
стро	-386
▁очень	-387
▁пыта	-388
зна	-389
▁я▁не	-390
час	-391
▁он	-392
гляд	-393
дом	-394
ейчас	-395
сколько	-396
▁пер	-397
ски	-398
▁этого	-399
лё	-400
▁сле	-401
▁которы	-402
исао	-403
▁не▁по	-404
удь	-405
ных	-406
бира	-407
сте	-408
сно	-409
▁ну	-410
много	-411
▁будто	-412
▁тоже	-413
ительно	-414
кр	-415
▁слу	-416
▁может	-417
кое	-418
▁знаю	-419
▁А	-420
ющи	-421
нь	-422
▁их	-423
рит	-424
▁ва	-425
Ты	-426
десь	-427
▁само	-428
▁подо	-429
▁ро	-430
▁свои	-431
▁Но	-432
▁пока	-433
▁начина	-434
лас	-435
Про	-436
▁жи	-437
ходи	-438
нее	-439
▁ку	-440
ются	-441
▁сейчас	-442
нт	-443
▁поч	-444
▁улы	-445
будь	-446
▁бу	-447
стоя	-448
ство	-449
прав	-450
чь	-451
▁они	-452
▁Не	-453
жен	-454
гово	-455
нибудь	-456
▁На	-457
▁помо	-458
йти	-459
нова	-460
▁мои	-461
▁тем	-462
▁здесь	-463
▁немного	-464
ную	-465
▁Она	-466
▁эти	-467
▁будет	-468
меча	-469
▁ис	-470
▁понима	-471
▁рабо	-472
▁стра	-473
чива	-474
▁ничего	-475
▁обра	-476
▁пу	-477
ром	-478
бой	-479
Если	-480
▁кра	-481
рошо	-482
вую	-483
▁ле	-484
▁у▁меня	-485
▁комна	-486
▁двер	-487
▁и▁не	-488
▁Хисао	-489
▁ответ	-490
▁вер	-491
▁прои	-492
тно	-493
можно	-494
дня	-495
▁ус	-496
нечно	-497
ней	-498
дя	-499
▁спо	-500
вой	-501
стью	-502
▁глаза	-503
▁ки	-504
ываю	-505
луч	-506
▁ла	-507
гра	-508
хоже	-509
Ну	-510
вши	-511
том	-512
рави	-513
▁без	-514
пы	-515
ваю	-516
▁Это	-517
▁в▁по	-518
щу	-519
рой	-520
при	-521
▁Хиттян	-522
▁замеча	-523
▁че	-524
▁сер	-525
перь	-526
▁ско	-527
▁слова	-528
дер	-529
жда	-530
зыва	-531
лись	-532
егодня	-533
▁сторо	-534
▁клас	-535
верное	-536
рить	-537
▁ша	-538
дол	-539
▁одно	-540
▁прав	-541
от	-542
тра	-543
дин	-544
▁ведь	-545
▁вопро	-546
▁том	-547
▁хоте	-548
раз	-549
вл	-550
сле	-551
▁и▁с	-552
ков	-553
▁хочу	-554
огда	-555
су	-556
▁ти	-557
кры	-558
ряд	-559
▁поня	-560
кая	-561
Мо	-562
вс	-563
кие	-564
лиш	-565
ть▁на	-566
пол	-567
дума	-568
▁луч	-569
▁сдела	-570
этому	-571
▁всего	-572
жд	-573
пре	-574
▁думаю	-575
▁Д	-576
нтере	-577
цо	-578
▁им	-579
чита	-580
▁мной	-581
ена	-582
▁и▁я	-583
лишком	-584
▁поз	-585
▁друго	-586
За	-587
▁себе	-588
гла	-589
лее	-590
кого	-591
▁лишь	-592
сё	-593
бу	-594
▁сказать	-595
▁несколько	-596
▁уч	-597
▁нам	-598
▁У	-599
▁уда	-600
тельно	-601
Хо	-602
▁чём	-603
▁тво	-604
▁подоб	-605
вить	-606
Эми	-607
▁смот	-608
▁се	-609
▁потому	-610
▁выгля	-611
раж	-612
▁увер	-613
мет	-614
▁вот	-615
стви	-616
▁тут	-617
нуть	-618
▁Миша	-619
Мы	-620
всем	-621
хи	-622
соб	-623
жду	-624
▁Ты	-625
▁кто	-626
вольно	-627
▁что▁это	-628
ель	-629
▁можно	-630
▁обы	-631
▁день	-632
мина	-633
▁не▁могу	-634
▁случа	-635
рова	-636
▁сегодня	-637
ить	-638
▁был	-639
лове	-640
▁собира	-641
▁расс	-642
ставля	-643
▁взгляд	-644
При	-645
ять	-646
▁с▁ней	-647
▁об▁этом	-648
▁хоч	-649
жида	-650
▁пол	-651
▁жиз	-652
бли	-653
ёр	-654
ров	-655
тов	-656
шей	-657
▁сме	-658
▁нужно	-659
сы	-660
Как	-661
▁уди	-662
▁заня	-663
▁од	-664
▁вст	-665
▁гру	-666
▁этот	-667
деть	-668
▁такой	-669
▁буду	-670
▁полу	-671
▁дверь	-672
▁снова	-673
ёл	-674
вшись	-675
▁совсем	-676
Мне	-677
зы	-678
руг	-679
правля	-680
вая	-681
вра	-682
▁стоит	-683
лем	-684
▁что▁ты	-685
▁чувствую	-686
мер	-687
бра	-688
рачива	-689
кра	-690
ний	-691
лага	-692
▁них	-693
▁понимаю	-694
жит	-695
▁была	-696
ким	-697
▁глу	-698
▁внима	-699
▁су	-700
▁более	-701
▁времени	-702
ятно	-703
вле	-704
кон	-705
ён	-706
▁много	-707
▁име	-708
▁теперь	-709
▁уж	-710
▁кни	-711
▁учит	-712
Ра	-713
Её	-714
пыт	-715
▁тру	-716
▁чего	-717
▁поэтому	-718
нут	-719
жать	-720
обще	-721
▁вме	-722
▁беспо	-723
Так	-724
ких	-725
▁пи	-726
▁нача	-727
▁возможно	-728
ением	-729
емся	-730
▁послед	-731
▁хотя	-732
▁лучше	-733
▁довольно	-734
Нет	-735
▁продол	-736
рое	-737
▁пла	-738
▁там	-739
▁почему	-740
▁хорошо	-741
▁челове	-742
▁ду	-743
вается	-744
▁слишком	-745
смот	-746
стно	-747
умаю	-748
дум	-749
ками	-750
▁кар	-751
▁пле	-752
▁Ш	-753
тем	-754
▁моей	-755
▁своей	-756
кает	-757
льный	-758
▁улыба	-759
нии	-760
▁Да	-761
ению	-762
помина	-763
лет	-764
▁где	-765
▁пря	-766
▁быстро	-767
кий	-768
▁кру	-769
пуска	-770
▁голову	-771
▁конечно	-772
пло	-773
▁пово	-774
▁всегда	-775
ении	-776
ывая	-777
ита	-778
▁ок	-779
лыша	-780
▁так▁что	-781
щей	-782
▁бро	-783
рядке	-784
▁правда	-785
▁ря	-786
ор	-787
дёт	-788
▁на▁меня	-789
тив	-790
▁и▁в	-791
▁доста	-792
ственно	-793
шло	-794
кото	-795
блю	-796
ными	-797
▁надо	-798
▁не▁так	-799
Ханако	-800
▁руки	-801
▁вообще	-802
вый	-803
дить	-804
▁обо	-805
Я▁не	-806
ывается	-807
фе	-808
кла	-809
стра	-810
▁взгля	-811
жешь	-812
▁уро	-813
▁не▁за	-814
▁чувство	-815
▁начинает	-816
▁це	-817
▁над	-818
ваться	-819
▁улыб	-820
хожу	-821
▁дей	-822
▁мой	-823
▁бли	-824
зно	-825
рее	-826
когда	-827
▁и▁по	-828
▁этим	-829
▁насто	-830
▁Б	-831
▁моё	-832
▁пар	-833
▁пра	-834
▁в▁этом	-835
▁пло	-836
Сидзунэ	-837
▁интере	-838
▁в▁порядке	-839
Ка	-840
чешь	-841
вя	-842
▁совет	-843
тия	-844
▁Хо	-845
▁преж	-846
▁успе	-847
сить	-848
».	-849
Он	-850
ции	-851
▁сп	-852
▁смо	-853
▁друг	-854
▁учени	-855
ьё	-856
▁ло	-857
чает	-858
▁ника	-859
▁свою	-860
ства	-861
▁этой	-862
▁равно	-863
▁обычно	-864
▁такое	-865
▁сделать	-866
нец	-867
чем	-868
▁тому	-869
▁рядом	-870
Юко	-871
ерез	-872
паси	-873
▁вид	-874
ствен	-875
▁поднима	-876
▁выглядит	-877
пасибо	-878
казыва	-879
▁говори	-880
сты	-881
нить	-882
▁мог	-883
ваюсь	-884
▁момен	-885
ленно	-886
▁возвра	-887
▁вопрос	-888
▁Мне	-889
▁стара	-890
▁пор	-891
▁между	-892
▁о▁том	-893
▁ту	-894
▁делать	-895
▁уви	-896
▁всё▁же	-897
▁Мо	-898
дать	-899
Во	-900
▁какой	-901
вые	-902
▁руку	-903
▁которые	-904
ража	-905
▁Шко	-906
▁лице	-907
▁похоже	-908
▁проб	-909
▁ко▁мне	-910
▁словно	-911
Зна	-912
ход	-913
▁встре	-914
▁работа	-915
▁со▁мной	-916
ню	-917
чески	-918
▁следу	-919
рю	-920
дей	-921
▁осо	-922
▁собой	-923
▁счита	-924
▁ут	-925
▁лицо	-926
▁мере	-927
▁мысли	-928
▁вол	-929
▁перед	-930
кло	-931
кую	-932
жима	-933
чера	-934
▁разгово	-935
цу	-936
вуш	-937
льше	-938
▁приш	-939
▁реши	-940
Просто	-941
▁замечаю	-942
жется	-943
,▁–	-944
▁но▁я	-945
▁затем	-946
▁о▁чём	-947
▁прямо	-948
▁станов	-949
▁уверен	-950
ньше	-951
роде	-952
точно	-953
Ми	-954
▁П	-955
Всё	-956
что	-957
▁мол	-958
▁объ	-959
▁край	-960
смотря	-961
▁наверное	-962
димо	-963
разу	-964
▁мыс	-965
▁обе	-966
клю	-967
▁любо	-968
▁один	-969
ровать	-970
▁други	-971
▁Ситтян	-972
▁должен	-973
▁дви	-974
▁паль	-975
▁принима	-976
ствительно	-977
▁настолько	-978
▁жа	-979
держи	-980
▁ожида	-981
▁у▁неё	-982
▁вместе	-983
▁говорит	-984
▁ц	-985
▁би	-986
▁ощу	-987
▁и▁на	-988
▁нрав	-989
▁проблем	-990
ник	-991
ству	-992
лагаю	-993
▁Если	-994
ет▁меня	-995
▁никогда	-996
лож	-997
зывает	-998
шно	-999
ющий	-1000
▁Что	-1001
▁поя	-1002
▁некото	-1003
▁возвраща	-1004
пря	-1005
рет	-1006
▁гу	-1007
сит	-1008
▁ри	-1009
чему	-1010
▁нео	-1011
ться▁в	-1012
тель	-1013
▁небо	-1014
▁кивает	-1015
шая	-1016
ть▁в	-1017
▁дело	-1018
▁обще	-1019
ражение	-1020
▁стороны	-1021
кун	-1022
мся	-1023
года	-1024
▁с▁то	-1025
▁я▁по	-1026
цы	-1027
▁здо	-1028
тер	-1029
смотря▁на	-1030
ез	-1031
▁продолжа	-1032
▁иг	-1033
Когда	-1034
▁жела	-1035
▁него	-1036
▁хоть	-1037
▁случае	-1038
Ко	-1039
дел	-1040
▁Как	-1041
▁сту	-1042
▁и▁за	-1043
▁который	-1044
▁пытаюсь	-1045
нет	-1046
ном	-1047
▁всё▁равно	-1048
гка	-1049
дзи	-1050
верш	-1051
От	-1052
яс	-1053
мыс	-1054
▁отно	-1055
иту	-1056
кто	-1057
лов	-1058
▁вос	-1059
▁игра	-1060
▁почти	-1061
луй	-1062
▁тя	-1063
▁Аки	-1064
▁всех	-1065
▁куда	-1066
▁хоро	-1067
▁девуш	-1068
▁самом	-1069
▁делает	-1070
Ла	-1071
ья	-1072
ендзи	-1073
▁зада	-1074
Раз	-1075
лен	-1076
▁как▁я	-1077
▁людей	-1078
▁Мы	-1079
клад	-1080
льку	-1081
▁вне	-1082
▁через	-1083
▁школе	-1084
▁слегка	-1085
▁действительно	-1086
ходя	-1087
▁свет	-1088
▁секун	-1089
▁становится	-1090
Эй	-1091
▁язы	-1092
ступа	-1093
▁значит	-1094
вто	-1095
юда	-1096
▁кори	-1097
▁другой	-1098
▁помочь	-1099
▁потому▁что	-1100
маку	-1101
рово	-1102
▁говоря	-1103
▁прежде	-1104
▁нравится	-1105
щего	-1106
конец	-1107
▁деле	-1108
роятно	-1109
ках	-1110
той	-1111
▁ды	-1112
▁дер	-1113
▁тре	-1114
▁именно	-1115
ге	-1116
сут	-1117
щая	-1118
итуа	-1119
▁серд	-1120
зап	-1121
чить	-1122
▁отве	-1123
▁сама	-1124
▁думал	-1125
▁улыбается	-1126
Ни	-1127
То	-1128
Ямаку	-1129
▁место	-1130
▁моего	-1131
щее	-1132
вали	-1133
▁зву	-1134
зможно	-1135
▁раньше	-1136
гко	-1137
дели	-1138
ести	-1139
▁мед	-1140
жалуй	-1141
кус	-1142
втра	-1143
ешься	-1144
полне	-1145
▁пода	-1146
▁сильно	-1147
▁приходит	-1148
вай	-1149
кти	-1150
рую	-1151
▁спи	-1152
▁тер	-1153
▁впер	-1154
▁откр	-1155
▁коридо	-1156
▁понять	-1157
▁это▁не	-1158
Ага	-1159
чёт	-1160
▁фи	-1161
Миша	-1162
▁иде	-1163
▁эта	-1164
▁замет	-1165
▁уста	-1166
▁комнату	-1167
чат	-1168
гает	-1169
Думаю	-1170
▁которой	-1171
кам	-1172
оте	-1173
▁сча	-1174
▁конце	-1175
▁точно	-1176
▁хотел	-1177
▁хочет	-1178
доб	-1179
уто	-1180
Ладно	-1181
▁горо	-1182
ставить	-1183
▁когда▁я	-1184
▁странно	-1185
▁самом▁деле	-1186
вли	-1187
нные	-1188
шего	-1189
▁молча	-1190
вляется	-1191
вал	-1192
▁Юко	-1193
▁бла	-1194
▁неу	-1195
▁долж	-1196
▁нами	-1197
▁узна	-1198
блиоте	-1199
нуться	-1200
▁ситуа	-1201
▁хочешь	-1202
вершенно	-1203
▁начинаю	-1204
Вот	-1205
пом	-1206
ток	-1207
чки	-1208
▁хва	-1209
▁свой	-1210
▁привы	-1211
▁школы	-1212
сом	-1213
стя	-1214
ливо	-1215
▁тогда	-1216
▁занима	-1217
он	-1218
нять	-1219
▁тех	-1220
▁наши	-1221
▁прид	-1222
▁достаточно	-1223
ельд	-1224
▁наде	-1225
▁потом	-1226
▁думать	-1227
▁всё▁ещё	-1228
нув	-1229
рая	-1230
ений	-1231
вания	-1232
▁серьё	-1233
▁что▁мы	-1234
нной	-1235
роме	-1236
▁вижу	-1237
▁если▁бы	-1238
вари	-1239
писа	-1240
прави	-1241
▁не▁в	-1242
▁карти	-1243
▁библиоте	-1244
ум	-1245
еру	-1246
шую	-1247
▁Ка	-1248
жити	-1249
ступ	-1250
Может	-1251
▁доро	-1252
▁реша	-1253
естива	-1254
▁хочется	-1255
хва	-1256
▁ид	-1257
▁ос	-1258
▁недо	-1259
▁способ	-1260
▁у▁тебя	-1261
▁как▁она	-1262
лей	-1263
▁эту	-1264
▁класс	-1265
▁общежити	-1266
зад	-1267
ция	-1268
ывать	-1269
▁были	-1270
▁броса	-1271
▁знаешь	-1272
▁спокой	-1273
▁крайней	-1274
▁говорить	-1275
рачивается	-1276
вед	-1277
два	-1278
гнов	-1279
щение	-1280
▁вчера	-1281
чку	-1282
▁ба	-1283
▁зака	-1284
▁тиши	-1285
▁оказыва	-1286
еня	-1287
▁должно	-1288
▁подума	-1289
▁фестива	-1290
▁крайней▁мере	-1291
зя	-1292
ться▁с	-1293
▁закон	-1294
▁плохо	-1295
▁внимание	-1296
лом	-1297
рот	-1298
гать	-1299
дите	-1300
вести	-1301
▁лица	-1302
▁знако	-1303
ета	-1304
▁ху	-1305
▁поско	-1306
▁столь	-1307
▁комнате	-1308
Вы	-1309
ены	-1310
мат	-1311
После	-1312
днако	-1313
▁Миши	-1314
▁воло	-1315
▁на▁её	-1316
▁позво	-1317
▁и▁у	-1318
▁спро	-1319
▁заставля	-1320
ете	-1321
▁лё	-1322
▁моя	-1323
▁всем	-1324
▁сюда	-1325
▁мгнов	-1326
▁мысль	-1327
▁попро	-1328
▁совершенно	-1329
вое	-1330
льного	-1331
▁жизнь	-1332
▁предпо	-1333
▁что▁не	-1334
▁с▁тобой	-1335
»,	-1336
▁бес	-1337
▁два	-1338
▁беспоко	-1339
▁сказала	-1340
▁смотрит	-1341
▁сторону	-1342
▁насколько	-1343
дый	-1344
дыха	-1345
▁гля	-1346
ствие	-1347
▁жизни	-1348
▁вполне	-1349
▁пытается	-1350
жем	-1351
ёшь	-1352
▁ин	-1353
▁му	-1354
запно	-1355
▁круж	-1356
▁прошло	-1357
щую	-1358
жить	-1359
▁вста	-1360
▁и▁от	-1361
▁кого	-1362
▁чита	-1363
▁наблю	-1364
▁даже▁не	-1365
ёд	-1366
▁вся	-1367
▁Я▁не	-1368
▁своих	-1369
▁Кендзи	-1370
▁опуска	-1371
обра	-1372
▁жесто	-1373
▁оказа	-1374
▁причи	-1375
▁завтра	-1376
йся	-1377
▁вд	-1378
нный	-1379
сили	-1380
▁стол	-1381
чается	-1382
▁назад	-1383
▁обраща	-1384
▁было▁бы	-1385
▁придётся	-1386
▁ничего▁не	-1387
чка	-1388
мени	-1389
▁пой	-1390
водит	-1391
▁не▁смо	-1392
▁скорее	-1393
рма	-1394
таки	-1395
▁мою	-1396
▁тол	-1397
▁весь	-1398
▁друз	-1399
▁опре	-1400
▁вроде	-1401
▁голос	-1402
говорить	-1403
▁ж	-1404
рен	-1405
▁То	-1406
Конечно	-1407
▁ск	-1408
ника	-1409
чный	-1410
▁кое	-1411
▁неде	-1412
Почему	-1413
▁рукой	-1414
▁прекра	-1415
▁хотела	-1416
▁головой	-1417
▁удаётся	-1418
тся	-1419
▁Со	-1420
▁сом	-1421
▁бума	-1422
▁едва	-1423
▁ты▁не	-1424
▁такого	-1425
▁трудно	-1426
▁человек	-1427
▁Ч	-1428
круг	-1429
▁в▁её	-1430
▁самы	-1431
даю	-1432
цию	-1433
▁Так	-1434
зко	-1435
чеви	-1436
▁мень	-1437
▁такие	-1438
▁этому	-1439
▁неболь	-1440
▁поскольку	-1441
До	-1442
дох	-1443
ющих	-1444
▁сам	-1445
▁сразу	-1446
▁состоя	-1447
▁Е	-1448
▁соб	-1449
▁друга	-1450
стоянно	-1451
нтересно	-1452
Хм	-1453
тить	-1454
▁фор	-1455
▁гото	-1456
▁как▁и	-1457
▁ладно	-1458
собенно	-1459
▁как▁будто	-1460
~.	-1461
бро	-1462
шку	-1463
▁виду	-1464
▁моих	-1465
▁отли	-1466
▁произо	-1467
▁пытаясь	-1468
▁выражение	-1469
фи	-1470
сло	-1471
▁За	-1472
▁ему	-1473
▁ска	-1474
сторо	-1475
▁забы	-1476
няется	-1477
▁проис	-1478
цов	-1479
щем	-1480
вини	-1481
воль	-1482
▁дня	-1483
▁сид	-1484
навли	-1485
▁откры	-1486
▁мне▁не	-1487
▁против	-1488
мя	-1489
чаю	-1490
▁наш	-1491
▁оно	-1492
лённо	-1493
▁испо	-1494
▁одна	-1495
▁так▁и	-1496
жалуйста	-1497
вым	-1498
шой	-1499
наче	-1500
раши	-1501
▁слы	-1502
печат	-1503
Хорошо	-1504
казать	-1505
▁своим	-1506
▁класса	-1507
▁может▁быть	-1508
зом	-1509
рно	-1510
я▁по	-1511
еперь	-1512
ступи	-1513
▁верно	-1514
▁скоро	-1515
▁вокруг	-1516
▁а▁затем	-1517
▁здорово	-1518
▁медленно	-1519
верх	-1520
льзя	-1521
юсь▁в	-1522
ждения	-1523
▁месте	-1524
▁слыша	-1525
▁учите	-1526
▁концов	-1527
▁переста	-1528
▁с▁Ханако	-1529
им	-1530
чо	-1531
все	-1532
ску	-1533
▁тот	-1534
▁пора	-1535
▁удив	-1536
Значит	-1537
Привет	-1538
▁непри	-1539
▁прави	-1540
▁можешь	-1541
лки	-1542
▁ним	-1543
▁Даже	-1544
▁чуть	-1545
▁долго	-1546
▁к▁ней	-1547
▁часть	-1548
▁благода	-1549
▁которая	-1550
▁которую	-1551
▁наконец	-1552
▁конце▁концов	-1553
еди	-1554
зда	-1555
сов	-1556
вала	-1557
тяги	-1558
▁кры	-1559
▁реш	-1560
▁теле	-1561
▁таким	-1562
воз	-1563
нным	-1564
рого	-1565
▁вам	-1566
▁чай	-1567
▁я▁и	-1568
▁двери	-1569
▁пробе	-1570
▁видимо	-1571
▁настро	-1572
▁сказал	-1573
▁чувства	-1574
▁прежде▁чем	-1575
▁оп	-1576
▁эк	-1577
нице	-1578
новь	-1579
реть	-1580
чение	-1581
▁в▁том	-1582
▁глубо	-1583
▁задум	-1584
▁объяс	-1585
▁останавли	-1586
~?	-1587
под	-1588
яза	-1589
дает	-1590
него	-1591
чать	-1592
раздо	-1593
щения	-1594
▁смыс	-1595
▁нелов	-1596
▁разве	-1597
▁у▁нас	-1598
▁жестов	-1599
▁так▁же	-1600
ёрт	-1601
▁пе	-1602
ружа	-1603
стве	-1604
▁вас	-1605
ходим	-1606
чилось	-1607
▁пойти	-1608
▁таком	-1609
▁фельд	-1610
▁она▁не	-1611
▁взглядом	-1612
лый	-1613
▁уго	-1614
▁авто	-1615
Прости	-1616
▁разговор	-1617
▁Во	-1618
▁лан	-1619
ление	-1620
▁разо	-1621
▁вдруг	-1622
▁напря	-1623
▁одной	-1624
▁каждый	-1625
▁на▁неё	-1626
▁Ну	-1627
дишь	-1628
лень	-1629
плохо	-1630
▁силь	-1631
▁Думаю	-1632
▁такая	-1633
▁работы	-1634
▁гораздо	-1635
рое▁время	-1636
Из	-1637
дой	-1638
мыш	-1639
▁До	-1640
▁убе	-1641
▁Муто	-1642
▁един	-1643
Похоже	-1644
говари	-1645
▁возду	-1646
▁призна	-1647
▁что▁мне	-1648
▁постоянно	-1649
стой	-1650
▁лёг	-1651
▁весе	-1652
▁прош	-1653
▁своё	-1654
▁тихо	-1655
▁плеча	-1656
▁практи	-1657
Наверное	-1658
▁чувствую▁себя	-1659
циа	-1660
щий	-1661
▁Та	-1662
либо	-1663
ружи	-1664
▁кла	-1665
▁лет	-1666
Хисао	-1667
нения	-1668
▁дыха	-1669
▁и▁вы	-1670
▁какое	-1671
▁отнош	-1672
Спасибо	-1673
▁комнаты	-1674
▁я▁не▁могу	-1675
слу	-1676
▁ше	-1677
нием	-1678
нное	-1679
ющие	-1680
▁вто	-1681
▁оде	-1682
▁люди	-1683
▁дальше	-1684
▁я▁замечаю	-1685
рь	-1686
ним	-1687
ятся	-1688
▁Всё	-1689
▁оди	-1690
▁свя	-1691
▁идти	-1692
▁норма	-1693
▁прово	-1694
чевидно	-1695
▁момент	-1696
ман	-1697
нию	-1698
▁Ни	-1699
▁ры	-1700
▁кре	-1701
▁спа	-1702
▁сте	-1703
▁ужа	-1704
равда	-1705
▁обяза	-1706
Кажется	-1707
▁обратно	-1708
ред	-1709
▁га	-1710
▁зво	-1711
▁нес	-1712
▁уме	-1713
▁но▁в	-1714
▁пару	-1715
У▁меня	-1716
вление	-1717
▁места	-1718
▁очере	-1719
▁Просто	-1720
Со	-1721
Ха	-1722
нок	-1723
леко	-1724
льные	-1725
пусти	-1726
▁вновь	-1727
▁минут	-1728
▁сердце	-1729
бин	-1730
▁Её	-1731
▁ак	-1732
▁ши	-1733
▁ули	-1734
ногда	-1735
▁ними	-1736
▁поло	-1737
▁радо	-1738
▁успо	-1739
▁впечат	-1740
▁перево	-1741
Та	-1742
щь	-1743
Хотя	-1744
ляет	-1745
нему	-1746
нная	-1747
чная	-1748
▁сму	-1749
ствия	-1750
▁вещи	-1751
▁движ	-1752
▁Акира	-1753
▁усили	-1754
▁больши	-1755
▁если▁я	-1756
▁напомина	-1757
▁особенно	-1758
▁учеников	-1759
▁поговорить	-1760
чер	-1761
▁Он	-1762
ской	-1763
енной	-1764
▁ноги	-1765
▁и▁при	-1766
▁должно▁быть	-1767
▁несмотря▁на	-1768
ее	-1769
их	-1770
▁Са	-1771
жусь	-1772
▁Они	-1773
▁сви	-1774
▁Может	-1775
▁видел	-1776
▁другу	-1777
ться▁на	-1778
▁но▁она	-1779
▁следует	-1780
▁внимания	-1781
жды	-1782
мол	-1783
Даже	-1784
льзо	-1785
▁всю	-1786
▁с▁к	-1787
держа	-1788
стави	-1789
юсь▁к	-1790
▁моим	-1791
▁делаю	-1792
▁никак	-1793
▁никто	-1794
▁меня▁в	-1795
▁своего	-1796
▁я▁могу	-1797
▁разговари	-1798
рер	-1799
дной	-1800
▁сем	-1801
ло▁бы	-1802
льным	-1803
▁внут	-1804
▁иначе	-1805
▁прогу	-1806
▁осторо	-1807
▁посмот	-1808
▁совета	-1809
▁не▁знаю	-1810
▁хотя▁бы	-1811
▁внезапно	-1812
хом	-1813
врем	-1814
редо	-1815
▁дли	-1816
чения	-1817
ется▁в	-1818
жимает	-1819
▁особо	-1820
▁перем	-1821
▁хвата	-1822
▁осозна	-1823
▁первый	-1824
▁когда▁она	-1825
▁представля	-1826
ан	-1827
дви	-1828
нача	-1829
няет	-1830
▁пись	-1831
Хиттян	-1832
▁волну	-1833
▁испыт	-1834
▁какие	-1835
▁вздыха	-1836
▁должна	-1837
▁рассла	-1838
▁вероятно	-1839
▁совсем▁не	-1840
йд	-1841
лку	-1842
л▁в	-1843
▁ди	-1844
▁хи	-1845
чной	-1846
▁нау	-1847
▁удо	-1848
▁Хотя	-1849
▁каса	-1850
▁я▁за	-1851
▁готов	-1852
▁найти	-1853
▁малень	-1854
▁размыш	-1855
▁всё▁это	-1856
▁для▁меня	-1857
▁я▁понимаю	-1858
аки	-1859
так	-1860
▁сил	-1861
▁сол	-1862
▁сос	-1863
вляет	-1864
иться	-1865
▁рисо	-1866
▁решаю	-1867
▁смогу	-1868
▁то▁же	-1869
▁школу	-1870
▁далеко	-1871
▁чувству	-1872
идэ	-1873
кид	-1874
тий	-1875
шки	-1876
▁дома	-1877
идэаки	-1878
▁встрет	-1879
▁написа	-1880
▁интерес	-1881
▁образом	-1882
▁плечами	-1883
▁произно	-1884
▁тому▁же	-1885
▁я▁просто	-1886
льного▁совета	-1887
лён	-1888
став	-1889
ся▁в	-1890
льной	-1891
▁окон	-1892
▁груди	-1893
▁от▁меня	-1894
▁Школьного▁совета	-1895
них	-1896
тро	-1897
цен	-1898
даёт	-1899
ла▁в	-1900
▁нём	-1901
нятно	-1902
▁мага	-1903
▁и▁она	-1904
▁самое	-1905
▁видеть	-1906
▁встреча	-1907
▁сосредо	-1908
▁учитывая	-1909
▁мгновение	-1910
она	-1911
▁мя	-1912
Пока	-1913
льзу	-1914
▁При	-1915
▁жен	-1916
влека	-1917
димся	-1918
ления	-1919
▁исто	-1920
▁менее	-1921
▁не▁име	-1922
▁Наверное	-1923
▁оказывается	-1924
вают	-1925
▁Или	-1926
ждать	-1927
▁бесе	-1928
▁быст	-1929
▁коро	-1930
▁обща	-1931
▁побе	-1932
▁разд	-1933
▁тему	-1934
▁явно	-1935
ходить	-1936
▁которое	-1937
▁приходится	-1938
Бо	-1939
Го	-1940
еты	-1941
шед	-1942
кими	-1943
цами	-1944
матри	-1945
▁нару	-1946
▁туда	-1947
ываюсь	-1948
▁что▁в	-1949
крывает	-1950
▁классе	-1951
▁меньше	-1952
▁насчёт	-1953
▁во▁время	-1954
▁вспомина	-1955
▁направля	-1956
▁взгляд▁на	-1957
▁собираюсь	-1958
вак	-1959
цем	-1960
чая	-1961
чен	-1962
жели	-1963
ю▁её	-1964
▁наз	-1965
▁реа	-1966
▁шут	-1967
пешно	-1968
▁прер	-1969
▁слов	-1970
▁полно	-1971
▁спросить	-1972
▁практически	-1973
»?	-1974
хе	-1975
кну	-1976
лой	-1977
нем	-1978
ет▁в	-1979
куда	-1980
нику	-1981
тать	-1982
стати	-1983
▁необ	-1984
▁я▁бы	-1985
▁город	-1986
▁других	-1987
▁окружа	-1988
▁пережи	-1989
▁серьёз	-1990
▁подобное	-1991
▁этот▁раз	-1992
▁никогда▁не	-1993
м▁и	-1994
шер	-1995
дова	-1996
нови	-1997
▁тро	-1998
▁дере	-1999
▁каза	-2000
тывает	-2001
▁кроме	-2002
▁легко	-2003
▁потер	-2004
▁своём	-2005
▁из▁них	-2006
▁начать	-2007
▁тут▁же	-2008
▁для▁неё	-2009
▁с▁Лилли	-2010
чё	-2011
див	-2012
сси	-2013
шее	-2014
рует	-2015
▁бер	-2016
▁ску	-2017
▁цвет	-2018
ляется	-2019
▁книги	-2020
▁но▁не	-2021
▁голове	-2022
▁родите	-2023
▁что▁он	-2024
▁с▁Сидзунэ	-2025
▁появляется	-2026
няка	-2027
шься	-2028
▁изу	-2029
▁той	-2030
ть▁её	-2031
▁глупо	-2032
▁знать	-2033
▁кабин	-2034
▁могла	-2035
▁одино	-2036
▁свобо	-2037
▁слово	-2038
▁согла	-2039
▁вперёд	-2040
▁привет	-2041
▁услыша	-2042
▁беспокой	-2043
▁остаётся	-2044
▁по▁крайней▁мере	-2045
▁а▁я	-2046
▁три	-2047
замен	-2048
▁часто	-2049
▁чем▁я	-2050
▁чувак	-2051
верняка	-2052
▁ещё▁не	-2053
нюю	-2054
▁эн	-2055
▁пом	-2056
долго	-2057
лично	-2058
▁идёт	-2059
▁поки	-2060
▁хихи	-2061
Однако	-2062
диться	-2063
▁верну	-2064
▁отсут	-2065
▁другом	-2066
▁расска	-2067
▁Хидэаки	-2068
▁любопыт	-2069
▁сильнее	-2070
▁последний	-2071
▁продолжает	-2072
▁на▁самом▁деле	-2073
дца	-2074
емо	-2075
лез	-2076
ший	-2077
шка	-2078
▁дога	-2079
▁моём	-2080
▁обсу	-2081
▁поза	-2082
▁худо	-2083
▁права	-2084
▁стать	-2085
▁воспри	-2086
▁ожидал	-2087
▁опреде	-2088
▁с▁этим	-2089
▁разобра	-2090
▁не▁понима	-2091
▁мне▁кажется	-2092
ене	-2093
лок	-2094
щаю	-2095
▁взя	-2096
Разве	-2097
льном	-2098
▁забо	-2099
▁стоя	-2100
▁знает	-2101
▁впервые	-2102
▁дыхание	-2103
▁некоторы	-2104
▁человека	-2105
стей	-2106
щает	-2107
▁нер	-2108
▁нуж	-2109
▁мало	-2110
▁мимо	-2111
▁попа	-2112
▁прос	-2113
▁руба	-2114
▁собы	-2115
▁Когда	-2116
▁искус	-2117
▁случай	-2118
▁на▁лице	-2119
▁неплохо	-2120
гаю	-2121
рок	-2122
шёл	-2123
▁Вы	-2124
дешь	-2125
преж	-2126
рает	-2127
шает	-2128
▁люб	-2129
▁сда	-2130
▁шан	-2131
▁выбо	-2132
▁широ	-2133
Ничего	-2134
▁также	-2135
▁спраши	-2136
м▁случае	-2137
прежнему	-2138
▁увидеть	-2139
▁поворачива	-2140
ляю	-2141
щие	-2142
▁пот	-2143
нение	-2144
рится	-2145
▁я▁от	-2146
пример	-2147
удя▁по	-2148
▁книгу	-2149
▁телеф	-2150
▁настоя	-2151
▁на▁это	-2152
▁присут	-2153
▁честно	-2154
Возможно	-2155
▁которых	-2156
Интересно	-2157
▁некоторое▁время	-2158
..	-2159
~,	-2160
Ва	-2161
Они	-2162
пла	-2163
▁От	-2164
▁зр	-2165
▁чи	-2166
Меня	-2167
чень	-2168
чится	-2169
▁гром	-2170
▁язык	-2171
читься	-2172
▁важно	-2173
▁друзья	-2174
▁проблемы	-2175
▁поднимает	-2176
▁сосредото	-2177
из	-2178
▁уг	-2179
▁похо	-2180
▁реак	-2181
▁тело	-2182
ражает	-2183
▁моему	-2184
▁уходит	-2185
▁счастью	-2186
▁очевидно	-2187
▁только▁что	-2188
ск	-2189
▁Л	-2190
вых	-2191
еха	-2192
▁ще	-2193
Тебе	-2194
тоге	-2195
▁Вот	-2196
▁бол	-2197
▁мир	-2198
▁сна	-2199
▁эмо	-2200
▁идея	-2201
▁давно	-2202
▁и▁про	-2203
▁можем	-2204
▁насла	-2205
▁произ	-2206
▁нельзя	-2207
▁не▁при	-2208
▁говорила	-2209
▁которого	-2210
▁необходи	-2211
▁ответить	-2212
▁пожалуйста	-2213
сни	-2214
стли	-2215
чиво	-2216
▁дож	-2217
▁рад	-2218
▁уча	-2219
важно	-2220
дания	-2221
льных	-2222
ством	-2223
▁есте	-2224
▁запа	-2225
▁закан	-2226
▁и▁всё	-2227
▁распо	-2228
▁сомне	-2229
за▁того	-2230
▁Похоже	-2231
▁волосы	-2232
▁помощь	-2233
▁секунд	-2234
▁узнать	-2235
▁и▁правда	-2236
▁не▁очень	-2237
льный▁совет	-2238
кар	-2239
мия	-2240
тие	-2241
шла	-2242
щих	-2243
▁аб	-2244
кому	-2245
▁ото	-2246
▁сла	-2247
▁шаг	-2248
▁моло	-2249
▁сожа	-2250
гивает	-2251
▁Мишей	-2252
▁опять	-2253
▁плечо	-2254
Не▁знаю	-2255
ложение	-2256
▁сложно	-2257
▁расслаб	-2258
▁не▁может	-2259
▁осторожно	-2260
▁возможность	-2261
дим	-2262
дов	-2263
лег	-2264
ран	-2265
ю▁в	-2266
▁ат	-2267
лить	-2268
▁я▁в	-2269
страи	-2270
▁дней	-2271
▁и▁мы	-2272
▁непо	-2273
▁ради	-2274
▁фигу	-2275
ется▁к	-2276
▁взять	-2277
▁люблю	-2278
▁не▁на	-2279
▁с▁Рин	-2280
▁устро	-2281
▁начала	-2282
▁пришёл	-2283
▁неожида	-2284
▁удалось	-2285
▁успеваю	-2286
▁Из	-2287
ваясь	-2288
▁исче	-2289
Правда	-2290
▁в▁чём	-2291
▁двига	-2292
▁за▁то	-2293
▁не▁вы	-2294
▁стала	-2295
▁смотрю	-2296
▁в▁ответ	-2297
▁учителя	-2298
▁пальцами	-2299
▁стараюсь	-2300
▁хотелось	-2301
▁в▁сторону	-2302
▁нормально	-2303
▁так▁что▁я	-2304
▁не▁слишком	-2305
Ви	-2306
Эм	-2307
нит	-2308
чек	-2309
▁ум	-2310
▁пог	-2311
▁тём	-2312
Тогда	-2313
вание	-2314
▁Мишу	-2315
▁знал	-2316
чивает	-2317
▁Совет	-2318
ться▁от	-2319
▁большой	-2320
▁с▁собой	-2321
▁ощущение	-2322
▁пришлось	-2323
▁любом▁случае	-2324
ив	-2325
▁З	-2326
▁р	-2327
Доб	-2328
мос	-2329
нём	-2330
рать	-2331
чные	-2332
чным	-2333
▁заб	-2334
▁сти	-2335
▁фак	-2336
дится	-2337
ходят	-2338
▁одну	-2339
▁ясно	-2340
даётся	-2341
ровати	-2342
▁ближе	-2343
▁выпол	-2344
держать	-2345
▁думала	-2346
▁руками	-2347
▁уверена	-2348
▁замечает	-2349
▁открываю	-2350
вор	-2351
дра	-2352
ила	-2353
кай	-2354
чное	-2355
▁ног	-2356
▁тра	-2357
дание	-2358
сколь	-2359
▁беру	-2360
▁нена	-2361
Знаешь	-2362
ждение	-2363
ствует	-2364
▁накло	-2365
▁измени	-2366
▁что▁они	-2367
▁единствен	-2368
▁интересно	-2369
▁не▁так▁уж	-2370
жку	-2371
лан	-2372
мой	-2373
рый	-2374
фор	-2375
шет	-2376
ница	-2377
пыта	-2378
щему	-2379
▁тор	-2380
▁хму	-2381
енное	-2382
ывают	-2383
▁высо	-2384
▁обла	-2385
ряд▁ли	-2386
▁вовсе	-2387
▁держа	-2388
▁попыт	-2389
▁с▁кем	-2390
▁оконча	-2391
▁Кажется	-2392
▁думаешь	-2393
▁котором	-2394
▁столько	-2395
▁учитель	-2396
▁ситуации	-2397
▁Школьный▁совет	-2398
низ	-2399
▁жд	-2400
гото	-2401
стер	-2402
▁гор	-2403
▁дву	-2404
▁спе	-2405
▁дево	-2406
▁крас	-2407
▁объя	-2408
думать	-2409
чарова	-2410
▁мне▁в	-2411
▁вместо	-2412
▁но▁это	-2413
▁ответа	-2414
дивительно	-2415
▁состоянии	-2416
▁заставляет▁меня	-2417
▁л	-2418
гли	-2419
▁яр	-2420
возь	-2421
ки▁и	-2422
шить	-2423
влечь	-2424
крыть	-2425
сится	-2426
▁праз	-2427
Только	-2428
вления	-2429
▁вспом	-2430
▁какая	-2431
▁проти	-2432
▁страш	-2433
Когда▁я	-2434
▁весело	-2435
▁не▁было	-2436
▁улыбкой	-2437
▁чтобы▁я	-2438
▁серьёзно	-2439
▁отношения	-2440
жимает▁плечами	-2441
▁всё▁в▁порядке	-2442
жё	-2443
вит	-2444
гой	-2445
нам	-2446
рас	-2447
вели	-2448
кура	-2449
меня	-2450
ницы	-2451
шать	-2452
▁запи	-2453
▁либо	-2454
▁стои	-2455
▁тяже	-2456
▁утра	-2457
▁видом	-2458
▁выбра	-2459
▁грудь	-2460
▁конца	-2461
▁облег	-2462
▁сидит	-2463
▁твоей	-2464
временно	-2465
▁закончи	-2466
▁находит	-2467
▁смеётся	-2468
▁подумать	-2469
▁Сидзунэ▁и	-2470
кре	-2471
крен	-2472
сыпа	-2473
того	-2474
▁вет	-2475
▁мно	-2476
▁близ	-2477
▁ланч	-2478
▁ночь	-2479
▁срав	-2480
▁учеб	-2481
▁берёт	-2482
▁итоге	-2483
▁решил	-2484
▁собра	-2485
нувшись	-2486
▁Теперь	-2487
▁У▁меня	-2488
▁мог▁бы	-2489
▁что▁её	-2490
▁глазами	-2491
▁если▁ты	-2492
▁сколько	-2493
Я▁не▁могу	-2494
▁отвечает	-2495
▁при▁этом	-2496
▁полностью	-2497
▁последнее	-2498
ью	-2499
:▁«	-2500
?..	-2501
тит	-2502
▁Ко	-2503
▁зе	-2504
лови	-2505
пить	-2506
▁рот	-2507
▁чёр	-2508
нести	-2509
пустя	-2510
чного	-2511
чувст	-2512
▁пара	-2513
▁рано	-2514
▁рука	-2515
▁на▁то	-2516
▁нечто	-2517
▁прият	-2518
▁самый	-2519
▁Однако	-2520
▁будешь	-2521
▁как▁ты	-2522
▁одного	-2523
▁привык	-2524
▁работу	-2525
▁улыбка	-2526
▁картины	-2527
▁никаких	-2528
▁вздыхает	-2529
▁хихикает	-2530
▁чтобы▁по	-2531
▁происходит	-2532
▁впечатление	-2533
▁представить	-2534
ье	-2535
нев	-2536
пли	-2537
тки	-2538
шие	-2539
▁зо	-2540
махи	-2541
реди	-2542
тере	-2543
▁Нет	-2544
▁гра	-2545
▁пак	-2546
▁шах	-2547
▁изви	-2548
▁ладо	-2549
▁часы	-2550
▁этих	-2551
бовать	-2552
▁воспо	-2553
▁компа	-2554
▁лекар	-2555
▁на▁по	-2556
▁весьма	-2557
▁спиной	-2558
▁как▁раз	-2559
▁ученики	-2560
▁экзамен	-2561
▁случилось	-2562
ворачивается	-2563
▁одновременно	-2564
Бы	-2565
ок	-2566
вок	-2567
док	-2568
еры	-2569
лая	-2570
тая	-2571
шит	-2572
▁лу	-2573
Итак	-2574
ющей	-2575
▁опа	-2576
▁оши	-2577
▁чер	-2578
енный	-2579
▁книг	-2580
говори	-2581
▁вечер	-2582
▁пусть	-2583
▁созда	-2584
▁стола	-2585
Полагаю	-2586
▁письмо	-2587
▁поздно	-2588
▁с▁ними	-2589
▁что▁вы	-2590
▁девушка	-2591
▁момента	-2592
▁спасибо	-2593
▁счастли	-2594
▁необходимо	-2595
▁произносит	-2596
▁поворачивается	-2597
ерги	-2598
▁кри	-2599
▁реб	-2600
ревно	-2601
стику	-2602
▁вско	-2603
▁неве	-2604
▁печа	-2605
▁стро	-2606
▁тела	-2607
▁выраж	-2608
▁глядя	-2609
▁зачем	-2610
▁и▁мне	-2611
▁не▁от	-2612
▁проща	-2613
▁слышу	-2614
▁с▁Эми	-2615
▁таких	-2616
▁аккура	-2617
▁бегать	-2618
ственной	-2619
▁знакомы	-2620
▁я▁думаю	-2621
▁в▁коридо	-2622
▁не▁менее	-2623
▁этого▁не	-2624
▁всего▁лишь	-2625
▁другой▁стороны	-2626
▁пожимает▁плечами	-2627
дко	-2628
жив	-2629
йду	-2630
лек	-2631
сил	-2632
▁съ	-2633
ники	-2634
ющим	-2635
▁оба	-2636
итель	-2637
▁Меня	-2638
▁безу	-2639
▁в▁ру	-2640
▁иска	-2641
▁лест	-2642
▁проя	-2643
ваются	-2644
▁коман	-2645
▁могут	-2646
▁огляд	-2647
▁худож	-2648
▁школа	-2649
▁искрен	-2650
▁от▁неё	-2651
▁пальцы	-2652
▁поводу	-2653
▁смысла	-2654
▁неловко	-2655
▁подходит	-2656
Может▁быть	-2657
▁между▁нами	-2658
~…	-2659
Ве	-2660
дру	-2661
жки	-2662
лит	-2663
няя	-2664
пор	-2665
есть	-2666
зает	-2667
люсь	-2668
▁Про	-2669
ли▁бы	-2670
▁лежа	-2671
▁порт	-2672
▁с▁её	-2673
▁корот	-2674
▁подоз	-2675
▁трево	-2676
▁должны	-2677
▁друзей	-2678
▁иногда	-2679
▁истори	-2680
▁как▁бы	-2681
▁канику	-2682
▁на▁пол	-2683
▁улыбку	-2684
▁которым	-2685
▁Возможно	-2686
▁опускает	-2687
▁рождения	-2688
▁общежития	-2689
▁поэтому▁я	-2690
▁разговора	-2691
▁напоминает	-2692
сок	-2693
чие	-2694
▁ог	-2695
Но▁я	-2696
Я▁бы	-2697
ском	-2698
▁две	-2699
деюсь	-2700
нению	-2701
то▁не	-2702
х▁пор	-2703
▁Мише	-2704
▁Тебе	-2705
▁а▁не	-2706
▁бегу	-2707
▁избе	-2708
▁пути	-2709
▁твоя	-2710
▁чему	-2711
Теперь	-2712
нимает	-2713
▁её▁за	-2714
▁о▁ней	-2715
▁утром	-2716
ла▁меня	-2717
▁направ	-2718
▁неделю	-2719
▁потеря	-2720
▁пригла	-2721
▁пример	-2722
▁энерги	-2723
рывается	-2724
▁жестику	-2725
▁секунду	-2726
▁слышать	-2727
▁соревно	-2728
▁спокойно	-2729
▁после▁того	-2730
Ой	-2731
щим	-2732
▁Бо	-2733
солю	-2734
▁изо	-2735
▁кио	-2736
▁смы	-2737
ского	-2738
▁бесс	-2739
▁веща	-2740
▁зами	-2741
▁захо	-2742
▁утро	-2743
▁атмос	-2744
▁всему	-2745
▁наших	-2746
Если▁бы	-2747
▁Только	-2748
▁качает	-2749
▁с▁нами	-2750
▁что▁на	-2751
▁а▁потом	-2752
▁девушки	-2753
▁останови	-2754
▁наверняка	-2755
▁правильно	-2756
дев	-2757
дил	-2758
ент	-2759
хра	-2760
чет	-2761
▁фо	-2762
▁щё	-2763
вого	-2764
ерьё	-2765
йдёт	-2766
льта	-2767
▁тон	-2768
лению	-2769
▁закр	-2770
▁заме	-2771
▁мину	-2772
▁ночи	-2773
▁рада	-2774
▁солн	-2775
ванако	-2776
▁и▁так	-2777
▁на▁кры	-2778
▁никого	-2779
ственное	-2780
▁большую	-2781
▁вот▁так	-2782
▁недоста	-2783
▁тех▁пор	-2784
▁больнице	-2785
Я▁чувствую	-2786
▁рисования	-2787
▁на▁её▁лице	-2788
▁смотрит▁на▁меня	-2789
вот	-2790
емы	-2791
йте	-2792
лым	-2793
нку	-2794
спе	-2795
чив	-2796
▁Ве	-2797
вное	-2798
зить	-2799
▁иду	-2800
▁мор	-2801
▁пои	-2802
дцать	-2803
менно	-2804
ности	-2805
нство	-2806
▁зави	-2807
▁коло	-2808
▁лицу	-2809
▁очки	-2810
лась▁в	-2811
прочем	-2812
▁После	-2813
▁и▁это	-2814
▁каким	-2815
▁напро	-2816
▁посте	-2817
▁разли	-2818
▁рассе	-2819
▁другое	-2820
▁за▁ней	-2821
▁прибли	-2822
▁сажусь	-2823
▁что▁ей	-2824
▁оставля	-2825
▁движения	-2826
▁уверенно	-2827
▁что▁Лилли	-2828
гна	-2829
пит	-2830
шек	-2831
глас	-2832
нори	-2833
сажи	-2834
ский	-2835
▁гло	-2836
▁доб	-2837
▁кор	-2838
▁кро	-2839
▁горя	-2840
▁ли▁я	-2841
▁обна	-2842
▁стал	-2843
Я▁знаю	-2844
кивает	-2845
честве	-2846
▁её▁по	-2847
▁необы	-2848
▁понял	-2849
▁посет	-2850
▁резко	-2851
▁такую	-2852
▁что▁и	-2853
▁близко	-2854
▁бумаги	-2855
▁выгляд	-2856
▁ли▁она	-2857
▁в▁класс	-2858
▁занятий	-2859
▁ни▁было	-2860
▁прижима	-2861
▁сих▁пор	-2862
▁в▁классе	-2863
▁заставить	-2864
▁таком▁случае	-2865
▁качает▁головой	-2866
▁последнее▁время	-2867
Са	-2868
зин	-2869
тый	-2870
нную	-2871
чных	-2872
▁Саэ	-2873
▁важ	-2874
▁кол	-2875
▁нач	-2876
▁обу	-2877
жение	-2878
стрем	-2879
ющего	-2880
▁ждёт	-2881
▁прит	-2882
▁холо	-2883
биться	-2884
гается	-2885
ться▁к	-2886
ступает	-2887
▁вскоре	-2888
▁голосе	-2889
▁извини	-2890
▁из▁нас	-2891
▁магази	-2892
▁своими	-2893
▁смотре	-2894
▁смысле	-2895
▁тишина	-2896
то▁время	-2897
▁говорил	-2898
▁наблюда	-2899
▁использо	-2900
▁когда▁мы	-2901
▁благодаря	-2902
▁заканчива	-2903
▁определённо	-2904
Ах	-2905
гов	-2906
ети	-2907
лка	-2908
лые	-2909
шай	-2910
ился	-2911
тори	-2912
чную	-2913
▁жду	-2914
▁хло	-2915
ла▁на	-2916
нного	-2917
▁всём	-2918
▁её▁в	-2919
▁заст	-2920
▁кофе	-2921
▁креп	-2922
▁люби	-2923
▁наро	-2924
▁нога	-2925
▁посе	-2926
▁раду	-2927
▁разу	-2928
▁смех	-2929
▁чере	-2930
ложить	-2931
▁Тогда	-2932
▁лицом	-2933
▁обеща	-2934
▁общем	-2935
▁прико	-2936
▁склад	-2937
▁столи	-2938
▁уроки	-2939
▁языка	-2940
▁Почему	-2941
▁абсолю	-2942
▁винова	-2943
▁из▁тех	-2944
▁своему	-2945
▁успоко	-2946
ствовать	-2947
▁кровати	-2948
▁словами	-2949
▁что▁Эми	-2950
Я▁пытаюсь	-2951
▁для▁того	-2952
▁казалось	-2953
▁молчание	-2954
тия▁не▁име	-2955
▁больше▁не	-2956
▁вспоминаю	-2957
▁в▁комнату	-2958
▁жестикули	-2959
▁прекрасно	-2960
▁фестиваля	-2961
Несмотря▁на	-2962
▁что▁Ханако	-2963
рё	-2964
Сто	-2965
гие	-2966
жде	-2967
ляя	-2968
сла	-2969
▁ан	-2970
▁сы	-2971
Чёрт	-2972
▁дро	-2973
▁оби	-2974
▁опо	-2975
▁шра	-2976
▁шум	-2977
чером	-2978
▁звук	-2979
▁суще	-2980
▁хуже	-2981
зульта	-2982
интере	-2983
▁нашей	-2984
▁повер	-2985
▁связа	-2986
▁смысл	-2987
Поэтому	-2988
влекает	-2989
▁говорю	-2990
▁решила	-2991
▁справи	-2992
▁на▁стол	-2993
▁отправи	-2994
▁заняться	-2995
▁ни▁слова	-2996
▁проблема	-2997
▁провести	-2998
▁и▁Сидзунэ	-2999
▁не▁так▁ли	-3000
▁произошед	-3001
▁произошло	-3002
▁страшного	-3003
▁фестиваль	-3004
▁получается	-3005
▁скорее▁всего	-3006
Все	-3007
жён	-3008
каи	-3009
лед	-3010
шён	-3011
дьми	-3012
йдём	-3013
ми▁и	-3014
шний	-3015
▁дво	-3016
▁еду	-3017
▁еды	-3018
▁ока	-3019
▁све	-3020
▁учё	-3021
няюсь	-3022
▁в▁то	-3023
▁глаз	-3024
▁огра	-3025
▁озна	-3026
▁поме	-3027
▁шанс	-3028
Я▁хочу	-3029
казала	-3030
станов	-3031
▁возра	-3032
▁подня	-3033
Понятно	-3034
глядыва	-3035
ываться	-3036
▁другим	-3037
▁остави	-3038
▁самого	-3039
▁Спасибо	-3040
▁быстрее	-3041
▁вечером	-3042
▁делаешь	-3043
▁или▁нет	-3044
▁несколь	-3045
▁приятно	-3046
▁со▁всем	-3047
роме▁того	-3048
▁в▁голове	-3049
▁до▁конца	-3050
▁отправля	-3051
▁Интересно	-3052
▁подобного	-3053
▁сомневаюсь	-3054
нё	-3055
▁Р	-3056
рга	-3057
шем	-3058
шим	-3059
▁ха	-3060
ницу	-3061
ская	-3062
шнего	-3063
▁виде	-3064
▁вкус	-3065
▁губы	-3066
▁душе	-3067
▁меся	-3068
▁неза	-3069
▁не▁у	-3070
▁путь	-3071
▁теря	-3072
▁исклю	-3073
▁какую	-3074
▁короб	-3075
▁с▁тем	-3076
▁части	-3077
▁я▁при	-3078
▁я▁уже	-3079
▁бросаю	-3080
▁глазах	-3081
▁зрения	-3082
▁людьми	-3083
▁нашего	-3084
▁сквозь	-3085
рительно	-3086
▁занятия	-3087
▁не▁полу	-3088
▁с▁Мишей	-3089
▁так▁как	-3090
▁начинают	-3091
▁проходит	-3092
▁общежитие	-3093
▁попробовать	-3094
лин	-3095
мно	-3096
нул	-3097
дель	-3098
личе	-3099
лять	-3100
▁Все	-3101
▁бут	-3102
▁вдо	-3103
▁вла	-3104
споко	-3105
▁да▁и	-3106
▁заба	-3107
▁звон	-3108
▁кому	-3109
▁рису	-3110
▁стар	-3111
▁таре	-3112
▁твои	-3113
▁уйти	-3114
лассни	-3115
нности	-3116
▁будем	-3117
▁вести	-3118
▁давай	-3119
▁знала	-3120
▁свете	-3121
▁с▁ним	-3122
▁удивл	-3123
до▁мной	-3124
▁звучит	-3125
▁позади	-3126
▁приста	-3127
▁сдержи	-3128
▁тишине	-3129
▁уроков	-3130
▁усилия	-3131
▁бросает	-3132
▁надеюсь	-3133
▁причина	-3134
▁касается	-3135
▁не▁смогу	-3136
▁никакого	-3137
▁аккуратно	-3138
▁принимает	-3139
▁друг▁друга	-3140
▁настроение	-3141
▁собирается	-3142
▁ю	-3143
Или	-3144
аль	-3145
гче	-3146
дзу	-3147
езд	-3148
жим	-3149
лую	-3150
рак	-3151
чик	-3152
чём	-3153
▁Ра	-3154
ли▁в	-3155
ровь	-3156
тяну	-3157
▁выз	-3158
▁муж	-3159
▁уни	-3160
говор	-3161
едине	-3162
естно	-3163
пенно	-3164
стара	-3165
▁всей	-3166
▁неда	-3167
▁отда	-3168
▁сооб	-3169
▁твой	-3170
накоми	-3171
▁Накай	-3172
▁дости	-3173
▁каждо	-3174
▁празд	-3175
▁сохра	-3176
▁стало	-3177
▁столо	-3178
▁утрен	-3179
▁второй	-3180
▁но▁мне	-3181
▁пока▁я	-3182
▁тяжело	-3183
▁я▁знаю	-3184
▁глубоко	-3185
▁полагаю	-3186
▁решение	-3187
▁садится	-3188
▁упомина	-3189
▁фельдше	-3190
хватывает	-3191
▁например	-3192
▁определи	-3193
▁результа	-3194
▁так▁и▁не	-3195
▁это▁было	-3196
▁беспокоит	-3197
▁разочарова	-3198
▁несмотря▁на▁то	-3199
Де	-3200
Аки	-3201
дна	-3202
йдя	-3203
тил	-3204
цев	-3205
шли	-3206
▁Ви	-3207
Учит	-3208
лета	-3209
маты	-3210
нных	-3211
плох	-3212
▁пау	-3213
▁скр	-3214
Что▁ж	-3215
грать	-3216
лении	-3217
соеди	-3218
ужели	-3219
чился	-3220
▁вари	-3221
▁осно	-3222
▁подт	-3223
▁пото	-3224
▁речь	-3225
▁спор	-3226
Это▁не	-3227
▁возни	-3228
▁к▁нам	-3229
▁приня	-3230
ступить	-3231
▁беседу	-3232
▁к▁себе	-3233
▁мне▁на	-3234
▁прости	-3235
▁сделал	-3236
▁ужасно	-3237
▁что▁за	-3238
▁Иванако	-3239
▁волнова	-3240
▁желание	-3241
▁на▁полу	-3242
▁понятно	-3243
▁противо	-3244
Я▁не▁знаю	-3245
▁вопросом	-3246
▁говоришь	-3247
▁не▁будет	-3248
▁поднимаю	-3249
▁понимает	-3250
▁что▁тебе	-3251
▁чтобы▁она	-3252
▁до▁сих▁пор	-3253
▁показывает	-3254
рмо	-3255
▁чт	-3256
▁шу	-3257
Хоть	-3258
дный	-3259
крет	-3260
▁меч	-3261
▁моз	-3262
Давай	-3263
енным	-3264
жения	-3265
льное	-3266
▁дать	-3267
▁деся	-3268
▁жить	-3269
ваемся	-3270
юсь▁на	-3271
▁будут	-3272
▁довер	-3273
▁и▁без	-3274
▁по▁её	-3275
▁проще	-3276
▁сопро	-3277
скольку	-3278
▁автобу	-3279
▁другие	-3280
▁раздум	-3281
▁удивля	-3282
▁бессмыс	-3283
▁вопроса	-3284
▁другого	-3285
▁приходи	-3286
▁Я▁просто	-3287
▁эту▁тему	-3288
▁познакоми	-3289
▁заниматься	-3290
хая	-3291
ших	-3292
Муто	-3293
брас	-3294
вшей	-3295
ерно	-3296
лями	-3297
пуга	-3298
рота	-3299
то▁в	-3300
▁офи	-3301
▁рез	-3302
▁я▁с	-3303
Фельд	-3304
Кендзи	-3305
Я▁тоже	-3306
▁забыл	-3307
▁как▁в	-3308
▁матер	-3309
▁нежно	-3310
▁однок	-3311
▁разум	-3312
▁стади	-3313
▁старо	-3314
▁встаёт	-3315
▁голоса	-3316
▁игнори	-3317
▁я▁хочу	-3318
▁подтвер	-3319
▁телефон	-3320
▁успокаи	-3321
▁для▁тебя	-3322
▁от▁этого	-3323
▁удивление	-3324
▁что▁у▁меня	-3325
▁что▁я▁могу	-3326
естно▁говоря	-3327
▁В▁конце▁концов	-3328
сс	-3329
Пре	-3330
Шан	-3331
гло	-3332
чей	-3333
▁Ха	-3334
Я▁по	-3335
ваем	-3336
вяза	-3337
вался	-3338
енные	-3339
ствии	-3340
▁Я▁бы	-3341
▁логи	-3342
▁мило	-3343
▁тяжё	-3344
▁урок	-3345
▁я▁на	-3346
ряется	-3347
транно	-3348
▁видит	-3349
▁нрави	-3350
▁требу	-3351
▁что▁у	-3352
ется▁на	-3353
пустить	-3354
▁городе	-3355
▁не▁про	-3356
▁показа	-3357
▁прийти	-3358
Фельдшер	-3359
▁вряд▁ли	-3360
▁в▁дверь	-3361
▁в▁школе	-3362
▁и▁Лилли	-3363
▁удивлён	-3364
▁наслажда	-3365
▁поддержи	-3366
▁услышать	-3367
▁является	-3368
▁испытываю	-3369
▁находится	-3370
▁небольшой	-3371
▁по▁коридо	-3372
▁придумать	-3373
▁следующий	-3374
▁я▁начинаю	-3375
тия▁не▁имею	-3376
▁ещё▁больше	-3377
▁то▁ни▁было	-3378
▁удивительно	-3379
Вне	-3380
Тем	-3381
нки	-3382
хла	-3383
шаю	-3384
▁ад	-3385
вало	-3386
вном	-3387
лжно	-3388
рами	-3389
снов	-3390
увст	-3391
▁пят	-3392
▁час	-3393
Акира	-3394
А▁что	-3395
▁жаль	-3396
▁людя	-3397
▁маши	-3398
▁окно	-3399
▁пове	-3400
▁пона	-3401
▁торо	-3402
валась	-3403
чением	-3404
▁болез	-3405
▁видно	-3406
▁дерев	-3407
▁побли	-3408
▁реаги	-3409
▁стрем	-3410
▁убира	-3411
Наконец	-3412
носится	-3413
расплох	-3414
▁внутри	-3415
▁воздух	-3416
▁к▁тому	-3417
▁однако	-3418
▁работе	-3419
▁стоило	-3420
▁я▁буду	-3421
Я▁просто	-3422
▁Полагаю	-3423
▁волнуйся	-3424
▁и▁Ханако	-3425
▁напротив	-3426
▁не▁счита	-3427
▁собствен	-3428
▁хмурится	-3429
▁вернуться	-3430
▁в▁комнате	-3431
▁собирался	-3432
▁сравнению	-3433
▁рассказыва	-3434
▁обязательно	-3435
▁одноклассни	-3436
▁Ж	-3437
Ещё	-3438
мое	-3439
м▁с	-3440
чур	-3441
▁ух	-3442
горо	-3443
драв	-3444
ложи	-3445
цени	-3446
▁Для	-3447
▁зап	-3448
▁зем	-3449
ереди	-3450
праши	-3451
рудно	-3452
стаёт	-3453
▁вели	-3454
▁вслу	-3455
▁даёт	-3456
▁игры	-3457
▁и▁до	-3458
▁напо	-3459
▁орга	-3460
▁уров	-3461
Как▁бы	-3462
делать	-3463
лагода	-3464
▁вечно	-3465
▁обдум	-3466
▁переб	-3467
▁тепло	-3468
▁форму	-3469
видимся	-3470
▁дверью	-3471
▁догада	-3472
▁и▁есть	-3473
▁как▁мы	-3474
▁на▁ули	-3475
▁провер	-3476
▁рассея	-3477
тягивает	-3478
▁Не▁знаю	-3479
▁воздухе	-3480
▁пока▁не	-3481
▁расстро	-3482
лжно▁быть	-3483
▁в▁голову	-3484
▁обстанов	-3485
▁оставить	-3486
▁остаться	-3487
▁ситуацию	-3488
▁фельдшер	-3489
▁чтобы▁за	-3490
▁абсолютно	-3491
▁воспомина	-3492
▁не▁только	-3493
▁понимаешь	-3494
▁друг▁другу	-3495
▁и▁начинает	-3496
▁возможности	-3497
кт	-3498
▁Г	-3499
Мой	-3500
мый	-3501
нив	-3502
ске	-3503
тым	-3504
чай	-3505
щит	-3506
▁пы	-3507
л▁бы	-3508
нила	-3509
нося	-3510
сила	-3511
слей	-3512
счур	-3513
чкой	-3514
▁гал	-3515
▁мра	-3516
▁тща	-3517
▁упа	-3518
енько	-3519
▁вдох	-3520
▁выяс	-3521
▁губа	-3522
▁рода	-3523
▁сила	-3524
▁факт	-3525
▁физи	-3526
▁киваю	-3527
▁начал	-3528
▁плечи	-3529
▁повто	-3530
▁позже	-3531
▁порой	-3532
▁преду	-3533
▁пусто	-3534
▁самой	-3535
▁утвер	-3536
▁во▁мне	-3537
▁в▁этой	-3538
▁думает	-3539
▁красне	-3540
▁к▁чему	-3541
▁мыслей	-3542
▁устрем	-3543
▁читать	-3544
▁широко	-3545
интересо	-3546
правляет	-3547
▁в▁своей	-3548
▁к▁этому	-3549
▁на▁него	-3550
▁хватает	-3551
▁всех▁сил	-3552
▁интересу	-3553
▁не▁стоит	-3554
▁поспешно	-3555
▁чересчур	-3556
▁лекарства	-3557
▁некоторые	-3558
▁открывает	-3559
▁раздаётся	-3560
▁я▁не▁знаю	-3561
▁она▁просто	-3562
▁передо▁мной	-3563
▁несколько▁секунд	-3564
гая	-3565
дят	-3566
сед	-3567
▁пя	-3568
нишь	-3569
▁оза	-3570
▁сум	-3571
бычно	-3572
дного	-3573
мента	-3574
отлан	-3575
стной	-3576
ющими	-3577
▁Хоть	-3578
▁бега	-3579
▁в▁ка	-3580
▁груп	-3581
▁двое	-3582
▁идём	-3583
▁мело	-3584
▁отре	-3585
▁побы	-3586
▁пожа	-3587
▁поку	-3588
▁сидя	-3589
▁четы	-3590
Потому	-3591
ются▁в	-3592
▁ведёт	-3593
▁дождь	-3594
▁закры	-3595
▁легче	-3596
▁оправ	-3597
▁отчая	-3598
▁серде	-3599
▁столе	-3600
Сегодня	-3601
Так▁что	-3602
чувство	-3603
▁Совета	-3604
▁громко	-3605
▁и▁смот	-3606
▁переда	-3607
▁эмоции	-3608
▁Если▁бы	-3609
▁в▁руках	-3610
▁что▁всё	-3611
▁вовсе▁не	-3612
▁лестнице	-3613
▁на▁месте	-3614
▁означает	-3615
▁посетите	-3616
▁стараясь	-3617
▁странное	-3618
▁что▁я▁не	-3619
▁в▁котором	-3620
▁библиотеку	-3621
▁не▁понимаю	-3622
▁отсутствие	-3623
▁посмотреть	-3624
▁что▁Сидзунэ	-3625
▁чувствовать	-3626
▁изо▁всех▁сил	-3627
▁останавливается	-3628
Ох	-3629
гом	-3630
дро	-3631
рые	-3632
тые	-3633
▁жу	-3634
ремя	-3635
сами	-3636
шему	-3637
▁веж	-3638
▁пон	-3639
▁рук	-3640
▁тря	-3641
▁фре	-3642
ложен	-3643
скоре	-3644
слуши	-3645
юсь▁и	-3646
▁двух	-3647
▁игру	-3648
▁коле	-3649
▁на▁с	-3650
▁пойд	-3651
Кстати	-3652
Ну▁что	-3653
▁вслух	-3654
▁выход	-3655
▁ещё▁и	-3656
▁ждать	-3657
▁Хорошо	-3658
▁Я▁хочу	-3659
▁бывает	-3660
▁внутрь	-3661
▁количе	-3662
▁кружка	-3663
▁кружок	-3664
▁ли▁это	-3665
▁официа	-3666
▁совете	-3667
▁станет	-3668
казывает	-3669
▁заметил	-3670
▁магазин	-3671
▁пригото	-3672
▁причине	-3673
▁Школьном	-3674
▁осталось	-3675
▁показыва	-3676
▁работать	-3677
▁хотел▁бы	-3678
▁я▁должен	-3679
▁Я▁не▁могу	-3680
▁будто▁она	-3681
▁естествен	-3682
▁как▁можно	-3683
▁остальные	-3684
▁фельдшера	-3685
▁библиотека	-3686
▁постепенно	-3687
▁рассказать	-3688
▁я▁чувствую	-3689
▁то▁же▁самое	-3690
▁свою▁комнату	-3691
▁Школьном▁совете	-3692
ар	-3693
Зву	-3694
Моё	-3695
ери	-3696
пра	-3697
три	-3698
днее	-3699
сный	-3700
▁бле	-3701
▁выс	-3702
▁дет	-3703
▁хол	-3704
гнуть	-3705
готов	-3706
ждает	-3707
ность	-3708
шение	-3709
▁возь	-3710
▁зная	-3711
▁поце	-3712
▁пять	-3713
▁сами	-3714
▁сред	-3715
▁стен	-3716
▁чёрт	-3717
Некото	-3718
довать	-3719
енного	-3720
началу	-3721
▁Такое	-3722
▁болта	-3723
▁встаю	-3724
▁догад	-3725
▁запол	-3726
▁иметь	-3727
▁машет	-3728
▁намер	-3729
▁ни▁на	-3730
▁плани	-3731
▁подру	-3732
▁полож	-3733
▁пропа	-3734
▁редко	-3735
▁чашку	-3736
ться▁за	-3737
▁выстав	-3738
▁города	-3739
▁знаком	-3740
▁колоко	-3741
▁попыта	-3742
▁уже▁не	-3743
▁очередь	-3744
▁предпоч	-3745
▁принять	-3746
▁рубашку	-3747
▁считает	-3748
К▁тому▁же	-3749
▁никак▁не	-3750
▁присоеди	-3751
▁старается	-3752
▁тщательно	-3753
▁Может▁быть	-3754
▁в▁то▁время	-3755
▁как▁только	-3756
▁внимательно	-3757
▁представляю	-3758
▁язык▁жестов	-3759
▁совершенно▁не	-3760
▁несколько▁дней	-3761
фо	-3762
»▁–	-3763
влю	-3764
вни	-3765
дза	-3766
лке	-3767
лых	-3768
обо	-3769
ций	-3770
чил	-3771
▁бь	-3772
вобо	-3773
коло	-3774
сток	-3775
фера	-3776
▁губ	-3777
ельно	-3778
енных	-3779
▁безо	-3780
▁изоб	-3781
▁крат	-3782
▁паро	-3783
▁писа	-3784
▁сест	-3785
▁слож	-3786
▁твоё	-3787
Извини	-3788
ритори	-3789
▁вздох	-3790
▁замол	-3791
▁запах	-3792
▁любит	-3793
▁мягко	-3794
▁напол	-3795
▁непро	-3796
▁одним	-3797
▁одном	-3798
▁пробу	-3799
▁что▁с	-3800
▁я▁так	-3801
ходящее	-3802
▁дороге	-3803
▁инвали	-3804
▁кстати	-3805
▁первой	-3806
▁пришла	-3807
▁скрыть	-3808
▁следую	-3809
за▁этого	-3810
▁меня▁за	-3811
▁объятия	-3812
▁один▁из	-3813
▁считать	-3814
▁родители	-3815
▁ситуация	-3816
▁возникает	-3817
▁продолжаю	-3818
▁библиотеке	-3819
▁воспринима	-3820
▁нескольких	-3821
▁чем▁обычно	-3822
▁собираешься	-3823
▁я▁чувствую▁себя	-3824
Вз	-3825
рт	-3826
Сло	-3827
вом	-3828
зор	-3829
ква	-3830
мую	-3831
Пере	-3832
Я▁от	-3833
влет	-3834
глий	-3835
кать	-3836
нула	-3837
рыва	-3838
цией	-3839
ённо	-3840
▁Ско	-3841
▁год	-3842
▁зад	-3843
▁рит	-3844
▁сов	-3845
▁таб	-3846
▁тай	-3847
Шанха	-3848
Я▁уже	-3849
графи	-3850
добно	-3851
льную	-3852
ником	-3853
▁выра	-3854
▁глав	-3855
▁зара	-3856
▁ниже	-3857
▁поро	-3858
Видимо	-3859
емного	-3860
▁имеет	-3861
▁кладу	-3862
▁повед	-3863
▁самая	-3864
▁смущё	-3865
▁созна	-3866
▁я▁про	-3867
▁бежать	-3868
▁безраз	-3869
▁галере	-3870
▁парень	-3871
▁превра	-3872
▁что▁же	-3873
▁я▁вижу	-3874
возможно	-3875
ворачива	-3876
▁встречи	-3877
▁заметно	-3878
▁меня▁не	-3879
▁наедине	-3880
▁подхожу	-3881
▁прошлом	-3882
▁согласи	-3883
▁тебе▁не	-3884
▁если▁она	-3885
▁использу	-3886
▁ощущения	-3887
▁вспомнить	-3888
▁просто▁не	-3889
▁сожалению	-3890
▁человеком	-3891
▁я▁пытаюсь	-3892
▁смотрит▁на	-3893
уч	-3894
ях	-3895
…!	-3896
Мои	-3897
ини	-3898
ити	-3899
кру	-3900
нят	-3901
раю	-3902
уда	-3903
чим	-3904
чке	-3905
▁Бы	-3906
дают	-3907
дное	-3908
ждён	-3909
фель	-3910
хожи	-3911
ялся	-3912
▁Раз	-3913
▁дом	-3914
▁мяг	-3915
▁сби	-3916
Очень	-3917
Через	-3918
брать	-3919
знако	-3920
лость	-3921
▁Но▁я	-3922
▁мире	-3923
▁стоп	-3924
▁цели	-3925
Ситтян	-3926
У▁тебя	-3927
ющийся	-3928
▁Акиры	-3929
▁боюсь	-3930
▁вздра	-3931
▁домаш	-3932
▁ей▁на	-3933
▁нетер	-3934
▁ничем	-3935
▁появи	-3936
▁пусты	-3937
▁то▁ли	-3938
▁у▁них	-3939
ться▁до	-3940
▁Сейчас	-3941
▁большо	-3942
▁забыть	-3943
▁первым	-3944
▁причём	-3945
▁расста	-3946
▁сидеть	-3947
▁трудом	-3948
▁ты▁так	-3949
▁угодно	-3950
▁устраи	-3951
▁ходить	-3952
▁я▁тоже	-3953
Внезапно	-3954
▁взгляда	-3955
▁вопросы	-3956
▁встрети	-3957
▁выходит	-3958
▁опускаю	-3959
▁пожалуй	-3960
▁попытки	-3961
▁предмет	-3962
▁	-3963
о	-3964
е	-3965
а	-3966
т	-3967
н	-3968
и	-3969
с	-3970
в	-3971
р	-3972
л	-3973
м	-3974
к	-3975
д	-3976
у	-3977
я	-3978
п	-3979
,	-3980
ь	-3981
ч	-3982
.	-3983
ы	-3984
б	-3985
з	-3986
г	-3987
ж	-3988
й	-3989
ш	-3990
ю	-3991
х	-3992
ё	-3993
э	-3994
щ	-3995
?	-3996
-	-3997
Н	-3998
Я	-3999
ц	-4000
…	-4001
П	-4002
Х	-4003
С	-4004
О	-4005
М	-4006
В	-4007
Э	-4008
Т	-4009
!	-4010
К	-4011
Д	-4012
ф	-4013
И	-4014
Л	-4015
А	-4016
Р	-4017
–	-4018
~	-4019
Е	-4020
Ч	-4021
У	-4022
З	-4023
«	-4024
»	-4025
Б	-4026
:	-4027
Ш	-4028
ъ	-4029
Г	-4030
Ю	-4031
;	-4032
—	-4033
Ж	-4034
Ф	-4035
3	-4036
2	-4037
Ц	-4038
(	-4039
)	-4040
1	-4041
0	-4042
S	-4043
6	-4044
a	-4045
e	-4046
4	-4047
5	-4048
8	-4049
Ё	-4050
*	-4051
Й	-4052
Ы	-4053
9	-4054
A	-4055
M	-4056
X	-4057
n	-4058
Щ	-4059
Ь	-4060
7	-4061
E	-4062
I	-4063
L	-4064
V	-4065
l	-4066
o	-4067
x	-4068
%	-4069
B	-4070
G	-4071
O	-4072
c	-4073
d	-4074
i	-4075
r	-4076
u	-4077
v	-4078
ç	-4079
'	-4080
/	-4081
<	-4082
>	-4083
D	-4084
H	-4085
N	-4086
P	-4087
T	-4088
f	-4089
h	-4090
p	-4091
s	-4092
Ъ	-4093
