<unk>	0
▁н	-0
то	-1
▁п	-2
▁с	-3
▁в	-4
но	-5
▁о	-6
ть	-7
ко	-8
▁по	-9
ра	-10
ет	-11
▁м	-12
▁и	-13
▁не	-14
ро	-15
ен	-16
▁ч	-17
ка	-18
та	-19
го	-20
▁д	-21
▁на	-22
ва	-23
на	-24
ся	-25
▁б	-26
ли	-27
▁з	-28
ер	-29
ла	-30
ль	-31
ст	-32
▁у	-33
▁что	-34
ит	-35
ло	-36
ни	-37
во	-38
▁я	-39
ем	-40
▁т	-41
ри	-42
да	-43
▁е	-44
▁за	-45
же	-46
▁э	-47
не	-48
сь	-49
хо	-50
ре	-51
▁к	-52
▁то	-53
ма	-54
▁это	-55
▁ра	-56
▁ка	-57
▁бы	-58
▁та	-59
ны	-60
▁ко	-61
ки	-62
ру	-63
де	-64
▁про	-65
ле	-66
▁мо	-67
ля	-68
до	-69
▁от	-70
мо	-71
ча	-72
▁вс	-73
ени	-74
ид	-75
▁со	-76
ми	-77
▁при	-78
ется	-79
ти	-80
▁во	-81
сто	-82
зу	-83
▁С	-84
▁но	-85
бо	-86
ста	-87
за	-88
чи	-89
еня	-90
ди	-91
ку	-92
▁до	-93
по	-94
▁она	-95
еб	-96
▁об	-97
▁меня	-98
ви	-99
ыва	-100
ду	-101
ей	-102
шь	-103
▁вы	-104
▁так	-105
ша	-106
▁как	-107
ться	-108
ну	-109
лу	-110
его	-111
▁го	-112
сть	-113
тя	-114
ере	-115
▁хо	-116
льно	-117
ня	-118
нэ	-119
зунэ	-120
идзунэ	-121
▁ни	-122
▁мне	-123
му	-124
▁раз	-125
ме	-126
По	-127
▁Х	-128
▁же	-129
▁М	-130
вер	-131
▁Н	-132
ше	-133
ши	-134
сти	-135
▁г	-136
▁её	-137
▁ты	-138
▁из	-139
жи	-140
ря	-141
уд	-142
жно	-143
лю	-144
жа	-145
те	-146
ха	-147
▁Сидзунэ	-148
лько	-149
ве	-150
▁а	-151
гда	-152
бы	-153
га	-154
▁да	-155
▁всё	-156
▁Я	-157
чно	-158
▁бо	-159
▁ли	-160
ры	-161
▁де	-162
тян	-163
вет	-164
иттян	-165
ёт	-166
сли	-167
~!	-168
со	-169
юсь	-170
кой	-171
ень	-172
▁ве	-173
ву	-174
рав	-175
че	-176
ют	-177
▁зна	-178
нима	-179
▁сто	-180
ебя	-181
▁мы	-182
ума	-183
дно	-184
гу	-185
щё	-186
лы	-187
енно	-188
ный	-189
ите	-190
па	-191
▁пре	-192
▁сво	-193
▁–	-194
▁В	-195
▁Ми	-196
вно	-197
са	-198
рем	-199
ение	-200
▁Т	-201
▁ш	-202
▁О	-203
ного	-204
▁бе	-205
▁чтобы	-206
ебе	-207
ему	-208
ком	-209
вы	-210
си	-211
дит	-212
▁са	-213
▁ещё	-214
▁под	-215
ги	-216
ак	-217
гля	-218
би	-219
щи	-220
▁ме	-221
▁ф	-222
вать	-223
▁пос	-224
▁ре	-225
про	-226
нно	-227
ща	-228
каза	-229
▁пере	-230
▁па	-231
ут	-232
пи	-233
▁буд	-234
Это	-235
ту	-236
▁воз	-237
▁кото	-238
▁И	-239
▁ста	-240
▁К	-241
▁вз	-242
ще	-243
ём	-244
▁ру	-245
▁сло	-246
▁боль	-247
ил	-248
▁врем	-249
▁просто	-250
▁дру	-251
Не	-252
Да	-253
ешь	-254
▁лю	-255
жет	-256
це	-257
▁Хиттян	-258
▁оч	-259
▁дума	-260
пе	-261
нако	-262
▁чу	-263
ят	-264
▁рас	-265
▁оста	-266
ско	-267
ится	-268
▁только	-269
вает	-270
тра	-271
▁все	-272
▁уже	-273
об	-274
▁для	-275
▁если	-276
▁нет	-277
▁гово	-278
се	-279
ения	-280
▁чем	-281
▁было	-282
ты	-283
▁По	-284
ной	-285
▁каж	-286
ным	-287
▁шко	-288
ке	-289
ные	-290
ды	-291
лся	-292
▁ча	-293
тому	-294
▁не▁с	-295
Она	-296
ное	-297
▁«	-298
чу	-299
▁Л	-300
▁дела	-301
ци	-302
ние	-303
ба	-304
илли	-305
▁даже	-306
▁что▁я	-307
ство	-308
▁быть	-309
жу	-310
▁те	-311
ная	-312
▁когда	-313
чего	-314
пер	-315
ывает	-316
дь	-317
▁этом	-318
десь	-319
▁ви	-320
▁тебя	-321
зи	-322
ыта	-323
мы	-324
▁его	-325
ска	-326
лось	-327
▁себя	-328
пу	-329
удь	-330
ств	-331
▁он	-332
мот	-333
▁голо	-334
▁есть	-335
▁тебе	-336
зо	-337
Что	-338
▁ма	-339
▁нас	-340
▁могу	-341
вля	-342
▁здесь	-343
▁х	-344
чит	-345
лась	-346
ходит	-347
▁они	-348
нт	-349
▁время	-350
шо	-351
▁Миша	-352
▁ей	-353
▁их	-354
▁очень	-355
ительно	-356
гра	-357
▁неё	-358
сту	-359
ца	-360
бе	-361
▁Лилли	-362
▁ми	-363
▁Не	-364
▁того	-365
▁сказа	-366
На	-367
чина	-368
▁или	-369
будь	-370
сно	-371
▁дол	-372
▁П	-373
ётся	-374
▁пер	-375
▁пыта	-376
▁тоже	-377
нибудь	-378
▁Но	-379
▁си	-380
Но	-381
▁не▁по	-382
▁ней	-383
▁А	-384
Ты	-385
шу	-386
ски	-387
стро	-388
спо	-389
▁ва	-390
▁поч	-391
▁подо	-392
час	-393
▁больше	-394
каз	-395
ейчас	-396
ния	-397
▁может	-398
▁рабо	-399
кое	-400
▁пред	-401
▁этого	-402
ных	-403
ясь	-404
▁чув	-405
Если	-406
▁уч	-407
дела	-408
ин	-409
▁ку	-410
▁ну	-411
ходи	-412
▁кажется	-413
лас	-414
▁ком	-415
▁после	-416
Сидзунэ	-417
▁начина	-418
▁На	-419
бира	-420
▁Это	-421
▁само	-422
нь	-423
ству	-424
рит	-425
анако	-426
▁бу	-427
йти	-428
лё	-429
Шко	-430
зна	-431
сте	-432
гово	-433
▁пу	-434
▁гла	-435
▁кра	-436
дом	-437
нее	-438
▁Р	-439
нов	-440
хоже	-441
▁вид	-442
▁совет	-443
ваю	-444
▁что▁она	-445
▁я▁не	-446
▁которы	-447
гляд	-448
▁будет	-449
луч	-450
▁тут	-451
▁сейчас	-452
▁ки	-453
▁ничего	-454
дня	-455
▁сле	-456
равда	-457
ются	-458
▁ведь	-459
▁Шко	-460
сколько	-461
▁жи	-462
▁ла	-463
луча	-464
можно	-465
▁будто	-466
кая	-467
жен	-468
нтере	-469
▁понима	-470
▁у▁меня	-471
▁знаю	-472
чь	-473
ную	-474
том	-475
▁ус	-476
▁кон	-477
бой	-478
пра	-479
▁вер	-480
много	-481
ков	-482
рошо	-483
егодня	-484
при	-485
ром	-486
стью	-487
тно	-488
кр	-489
▁помо	-490
▁Ситтян	-491
лиш	-492
рить	-493
▁свои	-494
▁спо	-495
▁и▁не	-496
вается	-497
меча	-498
▁им	-499
▁двер	-500
лишком	-501
▁ответ	-502
▁ле	-503
зы	-504
ющи	-505
нова	-506
стоя	-507
▁пра	-508
▁тем	-509
▁У	-510
▁Она	-511
верное	-512
вс	-513
▁клас	-514
▁Ханако	-515
ней	-516
прав	-517
▁без	-518
▁одно	-519
▁Ты	-520
▁ша	-521
▁поз	-522
▁Д	-523
перь	-524
▁пока	-525
ена	-526
ход	-527
▁комна	-528
вой	-529
шей	-530
▁ско	-531
▁эти	-532
▁стра	-533
▁можно	-534
пы	-535
от	-536
▁ро	-537
дума	-538
вить	-539
▁нам	-540
▁них	-541
▁ст	-542
▁кто	-543
Ну	-544
▁мои	-545
рой	-546
кого	-547
огда	-548
▁том	-549
▁хоч	-550
▁себе	-551
▁немного	-552
▁че	-553
▁луч	-554
▁фе	-555
жда	-556
кие	-557
ть▁в	-558
▁и▁с	-559
За	-560
лись	-561
ываю	-562
нечно	-563
▁всего	-564
ывается	-565
▁замеча	-566
Ми	-567
мен	-568
▁поня	-569
▁сегодня	-570
дол	-571
ров	-572
ками	-573
стви	-574
этому	-575
▁подоб	-576
дер	-577
всем	-578
раща	-579
▁такой	-580
▁прои	-581
дин	-582
▁пи	-583
▁сер	-584
чита	-585
▁пол	-586
Мо	-587
су	-588
Нет	-589
вши	-590
льный	-591
пре	-592
▁много	-593
▁потому	-594
▁и▁я	-595
▁заня	-596
бли	-597
тов	-598
▁Да	-599
фе	-600
нет	-601
соб	-602
▁сторо	-603
▁собира	-604
▁что▁ты	-605
щу	-606
пол	-607
▁Рин	-608
▁хоте	-609
дни	-610
стива	-611
▁день	-612
гла	-613
ряд	-614
▁тво	-615
▁уда	-616
▁сдела	-617
лее	-618
ть▁на	-619
▁был	-620
▁чём	-621
▁словно	-622
▁ис	-623
▁вопро	-624
▁выгля	-625
▁друго	-626
▁возможно	-627
Хо	-628
вая	-629
чем	-630
жида	-631
▁обы	-632
▁надо	-633
Миша	-634
▁хочу	-635
▁совсем	-636
▁случа	-637
▁слишком	-638
дей	-639
▁су	-640
▁фестива	-641
▁мной	-642
▁Школьно	-643
кры	-644
мер	-645
▁нача	-646
▁думаю	-647
▁сказать	-648
бл	-649
сы	-650
лове	-651
обще	-652
▁там	-653
▁глаза	-654
хи	-655
сле	-656
▁пла	-657
▁уро	-658
▁буду	-659
▁нужно	-660
дёт	-661
правля	-662
▁жесто	-663
▁об▁этом	-664
ёз	-665
ять	-666
нуть	-667
▁лишь	-668
▁так▁что	-669
Эми	-670
▁улы	-671
▁дово	-672
тельно	-673
вый	-674
▁се	-675
▁где	-676
▁кни	-677
▁стоит	-678
▁чувству	-679
вл	-680
▁Хо	-681
▁уж	-682
умаю	-683
▁сме	-684
ваюсь	-685
сё	-686
ёр	-687
▁хотя	-688
Мы	-689
ывая	-690
▁тру	-691
▁язы	-692
▁была	-693
▁в▁по	-694
жду	-695
ить	-696
нчи	-697
▁почему	-698
бра	-699
вле	-700
ким	-701
мет	-702
Я▁не	-703
ными	-704
▁вот	-705
▁смот	-706
▁слова	-707
▁времени	-708
Как	-709
вид	-710
жит	-711
▁ду	-712
▁це	-713
деть	-714
лага	-715
ваться	-716
▁продол	-717
бу	-718
раз	-719
ятно	-720
▁пря	-721
▁несколько	-722
нут	-723
▁иг	-724
▁кру	-725
ственно	-726
▁теперь	-727
».	-728
яза	-729
итель	-730
▁увер	-731
▁чего	-732
▁лучше	-733
▁вообще	-734
стре	-735
▁жиз	-736
▁Если	-737
▁жестов	-738
▁на▁меня	-739
▁понимаю	-740
енд	-741
▁ти	-742
стно	-743
▁гру	-744
▁более	-745
▁дверь	-746
▁равно	-747
▁не▁так	-748
~.	-749
тем	-750
лыша	-751
▁пар	-752
▁чере	-753
▁взгляд	-754
▁правда	-755
▁что▁это	-756
Про	-757
▁ло	-758
чешь	-759
ендзи	-760
▁паль	-761
▁учени	-762
Так	-763
Юко	-764
иса	-765
ьёз	-766
▁пло	-767
▁с▁ней	-768
ких	-769
тив	-770
▁од	-771
жать	-772
исао	-773
ства	-774
▁успе	-775
▁Б	-776
▁Что	-777
▁насто	-778
▁снова	-779
сить	-780
▁име	-781
вшись	-782
▁людей	-783
▁работа	-784
▁глу	-785
▁над	-786
▁Миши	-787
▁руки	-788
▁этой	-789
▁челове	-790
▁начинает	-791
жешь	-792
стра	-793
ением	-794
жение	-795
▁интере	-796
Зна	-797
сты	-798
▁би	-799
▁игра	-800
▁и▁по	-801
ставля	-802
▁ок	-803
▁него	-804
▁фо	-805
▁уди	-806
▁расс	-807
ровать	-808
▁не▁за	-809
рова	-810
Мне	-811
вуш	-812
▁тому	-813
▁этот	-814
▁такое	-815
▁в▁этом	-816
▁похоже	-817
▁поэтому	-818
▁чувствую	-819
дум	-820
▁ту	-821
разу	-822
▁Мне	-823
▁довольно	-824
рачи	-825
▁нрав	-826
▁доста	-827
кла	-828
кра	-829
▁Со	-830
мина	-831
▁вме	-832
▁дело	-833
руг	-834
дить	-835
▁дей	-836
▁моей	-837
▁говорит	-838
цо	-839
▁ж	-840
ению	-841
смот	-842
▁Как	-843
вые	-844
ража	-845
▁бро	-846
▁какой	-847
▁о▁том	-848
▁быстро	-849
▁всегда	-850
▁обычно	-851
▁хорошо	-852
▁чи	-853
▁здо	-854
▁мой	-855
▁всех	-856
пыт	-857
емся	-858
▁всё▁равно	-859
~?	-860
ёл	-861
▁Е	-862
,▁–	-863
▁ут	-864
ении	-865
лучи	-866
чему	-867
▁смо	-868
▁я▁по	-869
▁внима	-870
▁прямо	-871
▁школе	-872
имо	-873
▁Кендзи	-874
вай	-875
оте	-876
▁осо	-877
▁выглядит	-878
Он	-879
жд	-880
блю	-881
кий	-882
▁Мо	-883
рово	-884
роде	-885
▁обра	-886
▁пробл	-887
▁делать	-888
Ка	-889
цу	-890
ску	-891
шло	-892
кает	-893
Хиттян	-894
▁други	-895
▁совета	-896
▁разгово	-897
ён	-898
рое	-899
▁ба	-900
▁жа	-901
▁обе	-902
блиоте	-903
▁взгля	-904
▁говори	-905
▁принима	-906
аз	-907
При	-908
кто	-909
пло	-910
рма	-911
▁и▁в	-912
враща	-913
ывать	-914
▁ожида	-915
▁настолько	-916
нец	-917
льку	-918
▁Хисао	-919
▁затем	-920
▁следу	-921
▁школы	-922
го▁совета	-923
йд	-924
дать	-925
нить	-926
▁куда	-927
▁не▁в	-928
▁реша	-929
▁этим	-930
▁думал	-931
▁Школьного▁совета	-932
Ни	-933
цы	-934
ета	-935
ном	-936
ньше	-937
▁иде	-938
▁кори	-939
▁обще	-940
▁один	-941
▁преж	-942
▁счита	-943
▁проблем	-944
▁хочется	-945
клю	-946
▁мог	-947
▁пор	-948
▁реши	-949
▁свою	-950
▁собой	-951
▁библиоте	-952
нии	-953
шая	-954
юда	-955
▁Юко	-956
▁моё	-957
помина	-958
▁девуш	-959
▁между	-960
▁нравится	-961
Эй	-962
пря	-963
шно	-964
▁ря	-965
адно	-966
▁обо	-967
▁эта	-968
пуска	-969
▁коро	-970
▁пово	-971
▁через	-972
▁коридо	-973
▁серьёз	-974
▁конечно	-975
▁сделать	-976
▁продолжа	-977
яс	-978
аки	-979
лен	-980
луй	-981
мыс	-982
ток	-983
паси	-984
когда	-985
▁оказ	-986
▁почти	-987
▁вопрос	-988
▁случае	-989
▁со▁мной	-990
им	-991
ню	-992
рю	-993
льз	-994
щей	-995
хожу	-996
чает	-997
▁Так	-998
▁сту	-999
▁уста	-1000
пасибо	-1001
▁ко▁мне	-1002
▁это▁не	-1003
▁с▁Сидзунэ	-1004
~,	-1005
ене	-1006
кам	-1007
▁Ка	-1008
▁ры	-1009
чера	-1010
держи	-1011
жалуй	-1012
▁зада	-1013
▁любо	-1014
▁неде	-1015
роятно	-1016
▁момен	-1017
▁у▁неё	-1018
▁который	-1019
▁пытаюсь	-1020
ствительно	-1021
идэ	-1022
сит	-1023
ции	-1024
чёт	-1025
▁Мы	-1026
льше	-1027
▁мыс	-1028
▁пле	-1029
▁хва	-1030
▁эту	-1031
днако	-1032
рядке	-1033
чески	-1034
▁недо	-1035
идэаки	-1036
▁значит	-1037
▁замечаю	-1038
Ко	-1039
Ха	-1040
ге	-1041
▁Эми	-1042
▁уви	-1043
▁жела	-1044
▁зако	-1045
▁край	-1046
▁ника	-1047
▁приш	-1048
▁место	-1049
▁самом	-1050
▁не▁могу	-1051
▁приходит	-1052
рее	-1053
втра	-1054
▁вос	-1055
▁спи	-1056
лагаю	-1057
▁беспо	-1058
▁чувство	-1059
▁возвраща	-1060
Во	-1061
ёшь	-1062
клад	-1063
▁хоро	-1064
▁хоть	-1065
▁должен	-1066
▁перево	-1067
То	-1068
вое	-1069
дел	-1070
ете	-1071
той	-1072
▁Про	-1073
▁нео	-1074
▁перед	-1075
▁хочет	-1076
▁хочешь	-1077
▁но▁я	-1078
виться	-1079
▁попро	-1080
▁своей	-1081
▁стара	-1082
▁тогда	-1083
▁действительно	-1084
От	-1085
▁ц	-1086
▁му	-1087
▁бли	-1088
ступи	-1089
▁спро	-1090
▁с▁то	-1091
стоянно	-1092
▁станов	-1093
▁наверное	-1094
бро	-1095
вал	-1096
▁ри	-1097
жити	-1098
щего	-1099
Думаю	-1100
Может	-1101
жется	-1102
ленно	-1103
▁деле	-1104
смотря	-1105
▁поско	-1106
▁думать	-1107
▁было▁бы	-1108
ках	-1109
кун	-1110
стя	-1111
сут	-1112
чат	-1113
тать	-1114
точно	-1115
▁мере	-1116
▁встре	-1117
▁мысли	-1118
▁о▁чём	-1119
▁плохо	-1120
▁улыба	-1121
▁всё▁же	-1122
▁говоря	-1123
вто	-1124
гко	-1125
▁мед	-1126
▁моя	-1127
▁неу	-1128
▁объ	-1129
▁тре	-1130
праши	-1131
▁и▁за	-1132
▁прав	-1133
ться▁в	-1134
▁уверен	-1135
▁общежити	-1136
▁пытается	-1137
▁в▁порядке	-1138
Вы	-1139
вед	-1140
ник	-1141
льзя	-1142
роме	-1143
ступ	-1144
полне	-1145
▁весе	-1146
▁и▁на	-1147
▁Хидэаки	-1148
▁самом▁деле	-1149
»,	-1150
Вот	-1151
воз	-1152
ний	-1153
чки	-1154
▁тя	-1155
нять	-1156
▁дер	-1157
дётся	-1158
▁свой	-1159
▁узна	-1160
▁голову	-1161
▁сильно	-1162
▁способ	-1163
▁что▁не	-1164
▁даже▁не	-1165
▁если▁бы	-1166
▁которые	-1167
уа	-1168
▁Ч	-1169
тия	-1170
хва	-1171
чка	-1172
щая	-1173
кото	-1174
ходя	-1175
▁Они	-1176
▁ощу	-1177
▁всем	-1178
▁пора	-1179
▁сюда	-1180
▁Совет	-1181
▁как▁я	-1182
▁мысль	-1183
▁вместе	-1184
нтересно	-1185
смотря▁на	-1186
тер	-1187
▁вол	-1188
▁доро	-1189
▁небо	-1190
▁сама	-1191
▁вроде	-1192
▁позво	-1193
▁послед	-1194
льный▁совет	-1195
Ва	-1196
дра	-1197
сло	-1198
вали	-1199
ющий	-1200
▁бес	-1201
▁ему	-1202
Когда	-1203
преде	-1204
▁выра	-1205
▁отве	-1206
▁секун	-1207
▁точно	-1208
▁делает	-1209
▁подума	-1210
▁раньше	-1211
▁никогда	-1212
▁ничего▁не	-1213
▁поскольку	-1214
▁потому▁что	-1215
пом	-1216
▁оп	-1217
▁фи	-1218
▁дви	-1219
▁мол	-1220
▁поя	-1221
▁тер	-1222
▁тех	-1223
вести	-1224
ствен	-1225
щение	-1226
▁друг	-1227
▁рядом	-1228
▁сразу	-1229
▁помочь	-1230
▁постоянно	-1231
▁может▁быть	-1232
кую	-1233
рет	-1234
чку	-1235
▁За	-1236
▁ска	-1237
▁верно	-1238
▁пойти	-1239
▁такая	-1240
▁должно	-1241
▁кивает	-1242
▁трудно	-1243
▁у▁тебя	-1244
▁начинаю	-1245
▁стороны	-1246
▁становится	-1247
Ага	-1248
рую	-1249
ция	-1250
лить	-1251
поло	-1252
тить	-1253
▁два	-1254
▁чай	-1255
Ладно	-1256
вания	-1257
ствие	-1258
▁бума	-1259
▁чуть	-1260
Почему	-1261
▁обяза	-1262
▁потом	-1263
ставить	-1264
▁другой	-1265
▁класса	-1266
▁поднима	-1267
рая	-1268
сом	-1269
что	-1270
итуа	-1271
ружи	-1272
▁сча	-1273
▁были	-1274
Значит	-1275
▁ладно	-1276
▁привы	-1277
▁говорить	-1278
фо	-1279
доб	-1280
зда	-1281
▁То	-1282
гает	-1283
гать	-1284
лаго	-1285
нной	-1286
▁вся	-1287
▁я▁в	-1288
ешься	-1289
▁испо	-1290
▁кого	-1291
▁откр	-1292
▁оказа	-1293
▁прово	-1294
▁именно	-1295
▁которой	-1296
▁придётся	-1297
жем	-1298
зап	-1299
зно	-1300
кти	-1301
лов	-1302
нный	-1303
писа	-1304
▁Или	-1305
▁зву	-1306
конец	-1307
▁Даже	-1308
▁вижу	-1309
▁руку	-1310
▁Мишей	-1311
▁класс	-1312
▁завтра	-1313
▁меня▁в	-1314
▁работы	-1315
жалуйста	-1316
▁здорово	-1317
▁комнате	-1318
▁Школьный▁совет	-1319
фи	-1320
зад	-1321
кус	-1322
рен	-1323
тель	-1324
незап	-1325
ступа	-1326
▁весь	-1327
▁виду	-1328
▁забы	-1329
▁разо	-1330
нуться	-1331
▁причи	-1332
▁у▁нас	-1333
говорить	-1334
нч	-1335
вли	-1336
лей	-1337
▁ид	-1338
▁ск	-1339
ской	-1340
▁вас	-1341
▁наш	-1342
▁тол	-1343
бинет	-1344
печат	-1345
▁Мишу	-1346
▁стол	-1347
▁улыб	-1348
▁броса	-1349
▁ситуа	-1350
▁против	-1351
Хм	-1352
▁л	-1353
▁Ну	-1354
ятся	-1355
▁сам	-1356
▁ску	-1357
▁убе	-1358
стику	-1359
▁горо	-1360
▁очки	-1361
▁замет	-1362
▁моего	-1363
▁мне▁не	-1364
▁понять	-1365
▁сказал	-1366
▁скорее	-1367
вительно	-1368
▁насколько	-1369
»?	-1370
дя	-1371
вую	-1372
уже	-1373
ёрт	-1374
цами	-1375
▁кио	-1376
▁сид	-1377
ление	-1378
▁Я▁не	-1379
▁в▁ка	-1380
▁долж	-1381
▁люди	-1382
▁с▁ни	-1383
▁конце	-1384
▁решаю	-1385
▁знаешь	-1386
▁а▁затем	-1387
▁хотя▁бы	-1388
ья	-1389
Рин	-1390
щий	-1391
либо	-1392
▁вам	-1393
▁гля	-1394
▁дня	-1395
лично	-1396
лённо	-1397
чевид	-1398
гивает	-1399
ываюсь	-1400
▁Думаю	-1401
▁настро	-1402
▁такого	-1403
▁комнату	-1404
еди	-1405
нув	-1406
▁Ни	-1407
▁Та	-1408
ений	-1409
чать	-1410
▁изу	-1411
еперь	-1412
жения	-1413
▁круж	-1414
▁лице	-1415
▁наде	-1416
Похоже	-1417
▁жизнь	-1418
▁такие	-1419
▁прежде	-1420
▁всё▁ещё	-1421
▁Наверное	-1422
вя	-1423
Всё	-1424
жды	-1425
лки	-1426
под	-1427
рно	-1428
▁Он	-1429
▁лё	-1430
▁ос	-1431
ливо	-1432
обра	-1433
чный	-1434
▁уго	-1435
▁ужа	-1436
▁нами	-1437
▁одна	-1438
▁отно	-1439
▁поло	-1440
▁самы	-1441
Привет	-1442
вильно	-1443
казать	-1444
▁вчера	-1445
▁жизни	-1446
▁кажды	-1447
▁скоро	-1448
▁ты▁не	-1449
ет▁меня	-1450
▁вполне	-1451
▁занима	-1452
▁не▁смо	-1453
▁хотела	-1454
▁что▁мы	-1455
▁закончи	-1456
▁интерес	-1457
▁когда▁я	-1458
▁с▁тобой	-1459
~…	-1460
вак	-1461
зко	-1462
лит	-1463
нер	-1464
рти	-1465
сов	-1466
▁От	-1467
льзо	-1468
наче	-1469
нные	-1470
чить	-1471
▁мою	-1472
▁фор	-1473
▁мень	-1474
▁возду	-1475
▁назад	-1476
▁совер	-1477
▁хотел	-1478
Конечно	-1479
вляется	-1480
незапно	-1481
собенно	-1482
Наверное	-1483
▁жестику	-1484
▁переста	-1485
▁сторону	-1486
дой	-1487
ены	-1488
щее	-1489
▁ин	-1490
няка	-1491
стой	-1492
▁Всё	-1493
▁вто	-1494
▁пое	-1495
Лилли	-1496
шенно	-1497
▁долго	-1498
▁своих	-1499
▁таким	-1500
▁таком	-1501
▁хвата	-1502
▁этому	-1503
▁впечат	-1504
▁посмот	-1505
▁тут▁же	-1506
▁смотрит	-1507
▁фестиваль	-1508
▁достаточно	-1509
рь	-1510
чо	-1511
лом	-1512
циа	-1513
▁ед	-1514
вари	-1515
▁пои	-1516
▁воло	-1517
▁свет	-1518
▁язык	-1519
▁молча	-1520
▁но▁не	-1521
верняка	-1522
читывая	-1523
▁обраща	-1524
▁удаётся	-1525
рачивается	-1526
▁улыбается	-1527
еру	-1528
чаю	-1529
шую	-1530
лень	-1531
нача	-1532
▁При	-1533
▁всю	-1534
▁жен	-1535
льные	-1536
▁Хотя	-1537
▁впер	-1538
▁гром	-1539
▁и▁от	-1540
Хорошо	-1541
▁особо	-1542
▁школу	-1543
▁получи	-1544
▁как▁она	-1545
▁которая	-1546
▁странно	-1547
▁учеников	-1548
▁оказывается	-1549
дца	-1550
мат	-1551
ред	-1552
щем	-1553
куда	-1554
реть	-1555
▁и▁у	-1556
▁нём	-1557
▁уме	-1558
ходим	-1559
▁обща	-1560
▁короб	-1561
▁месте	-1562
▁одной	-1563
▁разве	-1564
▁чувак	-1565
▁некото	-1566
▁руками	-1567
▁крайней	-1568
▁сказала	-1569
▁человек	-1570
▁жестикули	-1571
Из	-1572
:▁«	-1573
дви	-1574
ишь	-1575
л▁в	-1576
мыш	-1577
▁Вы	-1578
▁гу	-1579
друг	-1580
стве	-1581
▁наз	-1582
После	-1583
й▁раз	-1584
ствия	-1585
ывают	-1586
▁Мише	-1587
▁гото	-1588
▁лицо	-1589
▁моих	-1590
▁силь	-1591
▁чита	-1592
▁минут	-1593
▁никто	-1594
▁показ	-1595
▁своим	-1596
▁слыша	-1597
▁так▁и	-1598
▁часть	-1599
▁других	-1600
▁разговор	-1601
Го	-1602
емо	-1603
кло	-1604
цем	-1605
цию	-1606
шку	-1607
вила	-1608
жить	-1609
льзу	-1610
стей	-1611
чень	-1612
▁кое	-1613
▁пой	-1614
стати	-1615
сторо	-1616
▁выбо	-1617
▁едва	-1618
▁наши	-1619
▁смыс	-1620
▁я▁на	-1621
Ханако	-1622
зможно	-1623
▁и▁при	-1624
▁Похоже	-1625
▁можешь	-1626
▁опреде	-1627
▁первый	-1628
▁спокой	-1629
▁Сидзунэ▁и	-1630
▁крайней▁мере	-1631
До	-1632
Они	-1633
Раз	-1634
гка	-1635
лку	-1636
дает	-1637
нием	-1638
нным	-1639
ющих	-1640
▁Вот	-1641
▁зда	-1642
▁слы	-1643
▁шут	-1644
▁я▁и	-1645
▁вста	-1646
▁зака	-1647
▁лица	-1648
▁необ	-1649
▁стро	-1650
лагода	-1651
▁двери	-1652
▁из▁них	-1653
▁нельзя	-1654
▁пальцами	-1655
▁подобное	-1656
▁представля	-1657
хе	-1658
вым	-1659
щую	-1660
▁Во	-1661
▁пе	-1662
▁шу	-1663
воль	-1664
ла▁в	-1665
маку	-1666
▁взя	-1667
▁реш	-1668
▁сда	-1669
▁сом	-1670
нятно	-1671
чение	-1672
▁мало	-1673
▁явно	-1674
Однако	-1675
прочем	-1676
ходить	-1677
▁иначе	-1678
▁она▁не	-1679
▁слегка	-1680
▁пытаясь	-1681
▁серьёзно	-1682
▁совсем▁не	-1683
▁приходится	-1684
Та	-1685
жн	-1686
нок	-1687
спе	-1688
верх	-1689
вяза	-1690
дешь	-1691
жима	-1692
нная	-1693
сили	-1694
чная	-1695
▁соб	-1696
вание	-1697
▁идея	-1698
▁идти	-1699
▁мимо	-1700
▁пода	-1701
▁праз	-1702
▁я▁от	-1703
▁в▁том	-1704
▁глупо	-1705
▁как▁и	-1706
▁места	-1707
▁объяс	-1708
▁что▁в	-1709
▁Просто	-1710
▁больши	-1711
▁видимо	-1712
▁малень	-1713
▁неболь	-1714
▁размыш	-1715
▁спраши	-1716
▁внимание	-1717
▁спросить	-1718
▁фестиваля	-1719
▁поговорить	-1720
их	-1721
мя	-1722
щь	-1723
все	-1724
даю	-1725
чек	-1726
врем	-1727
гнов	-1728
луша	-1729
мени	-1730
ника	-1731
нице	-1732
▁кры	-1733
▁оде	-1734
▁оди	-1735
▁спе	-1736
▁с▁к	-1737
▁тро	-1738
Ямаку	-1739
ло▁бы	-1740
▁пару	-1741
▁я▁бы	-1742
▁и▁мне	-1743
▁прогу	-1744
▁разго	-1745
▁рукой	-1746
▁столь	-1747
чевидно	-1748
▁взглядом	-1749
▁последни	-1750
▁пожалуйста	-1751
Её	-1752
ан	-1753
▁З	-1754
йся	-1755
тий	-1756
уто	-1757
хом	-1758
щих	-1759
Даже	-1760
вала	-1761
вают	-1762
круг	-1763
махи	-1764
▁пом	-1765
▁удо	-1766
страи	-1767
▁поза	-1768
▁туда	-1769
▁я▁за	-1770
пример	-1771
▁видел	-1772
▁готов	-1773
▁друга	-1774
▁знать	-1775
▁какое	-1776
▁концо	-1777
▁мгнов	-1778
▁полно	-1779
рмально	-1780
▁прошло	-1781
▁следует	-1782
▁с▁Мишей	-1783
▁необходи	-1784
жё	-1785
кт	-1786
зом	-1787
лой	-1788
шой	-1789
▁До	-1790
▁Ха	-1791
▁ше	-1792
кими	-1793
него	-1794
▁выз	-1795
стрет	-1796
▁запи	-1797
▁иска	-1798
▁но▁в	-1799
▁побе	-1800
▁рано	-1801
▁теле	-1802
▁тему	-1803
Ничего	-1804
▁женщи	-1805
▁наблю	-1806
▁школа	-1807
▁языка	-1808
м▁совет	-1809
ться▁на	-1810
▁весело	-1811
▁знаком	-1812
▁концов	-1813
м▁совете	-1814
▁всё▁это	-1815
▁которую	-1816
▁тому▁же	-1817
▁собираюсь	-1818
▁возможность	-1819
▁язык▁жестов	-1820
▁конце▁концов	-1821
▁Школьном▁совете	-1822
кну	-1823
льд	-1824
ляю	-1825
▁ди	-1826
дыха	-1827
жусь	-1828
йдём	-1829
▁Нет	-1830
влека	-1831
пусти	-1832
▁ради	-1833
У▁меня	-1834
наружи	-1835
▁очере	-1836
▁слово	-1837
▁насчёт	-1838
▁но▁она	-1839
▁прекра	-1840
▁так▁же	-1841
Интересно	-1842
▁особенно	-1843
▁совершенно	-1844
▁на▁самом▁деле	-1845
▁чувствую▁себя	-1846
ез	-1847
ск	-1848
ёд	-1849
вит	-1850
еты	-1851
мно	-1852
ран	-1853
▁Из	-1854
▁уг	-1855
Меня	-1856
ет▁в	-1857
кому	-1858
рует	-1859
таки	-1860
▁Аки	-1861
▁оно	-1862
▁фре	-1863
ления	-1864
нерги	-1865
▁дево	-1866
▁друз	-1867
▁наро	-1868
▁радо	-1869
вление	-1870
няется	-1871
ряд▁ли	-1872
▁книги	-1873
▁на▁по	-1874
▁откры	-1875
▁учите	-1876
▁чем▁я	-1877
▁вокруг	-1878
▁момент	-1879
▁начать	-1880
▁на▁неё	-1881
▁ожидал	-1882
лучается	-1883
▁головой	-1884
▁что▁мне	-1885
▁что▁они	-1886
▁вероятно	-1887
▁в▁коридо	-1888
▁не▁может	-1889
▁остаётся	-1890
▁учитывая	-1891
▁разговари	-1892
▁я▁замечаю	-1893
▁не▁слишком	-1894
вра	-1895
ент	-1896
еры	-1897
кар	-1898
лем	-1899
нию	-1900
нку	-1901
пит	-1902
шит	-1903
вини	-1904
леко	-1905
ляет	-1906
шего	-1907
▁тор	-1908
▁тот	-1909
важно	-1910
держа	-1911
навли	-1912
ногда	-1913
ть▁её	-1914
юсь▁в	-1915
▁и▁вы	-1916
▁моло	-1917
▁пись	-1918
Правда	-1919
ться▁с	-1920
▁Когда	-1921
▁Может	-1922
▁важно	-1923
▁найти	-1924
▁непри	-1925
▁согла	-1926
▁часто	-1927
крывает	-1928
▁Совета	-1929
▁неделю	-1930
▁присут	-1931
▁рассла	-1932
▁	-1933
о	-1934
е	-1935
а	-1936
т	-1937
н	-1938
и	-1939
с	-1940
в	-1941
р	-1942
л	-1943
м	-1944
к	-1945
д	-1946
у	-1947
я	-1948
п	-1949
,	-1950
ь	-1951
.	-1952
ч	-1953
ы	-1954
з	-1955
б	-1956
г	-1957
ж	-1958
й	-1959
ш	-1960
ю	-1961
х	-1962
ё	-1963
э	-1964
?	-1965
щ	-1966
-	-1967
Н	-1968
С	-1969
Я	-1970
…	-1971
!	-1972
ц	-1973
М	-1974
П	-1975
Х	-1976
О	-1977
В	-1978
Т	-1979
~	-1980
К	-1981
ф	-1982
Д	-1983
И	-1984
Э	-1985
А	-1986
–	-1987
Л	-1988
Ч	-1989
Е	-1990
У	-1991
Р	-1992
«	-1993
»	-1994
З	-1995
Ш	-1996
Б	-1997
:	-1998
Ю	-1999
ъ	-2000
Г	-2001
;	-2002
Ж	-2003
—	-2004
Ф	-2005
3	-2006
1	-2007
2	-2008
Ц	-2009
(	-2010
)	-2011
0	-2012
6	-2013
*	-2014
8	-2015
5	-2016
S	-2017
e	-2018
I	-2019
V	-2020
Ё	-2021
Ы	-2022
"	-2023
4	-2024
7	-2025
9	-2026
E	-2027
G	-2028
L	-2029
M	-2030
O	-2031
Й	-2032
Ь	-2033
/	-2034
B	-2035
D	-2036
X	-2037
d	-2038
f	-2039
h	-2040
l	-2041
p	-2042
u	-2043
Щ	-2044
Ъ	-2045
