<unk>	0
▁e	-0
▁d	-1
en	-2
▁p	-3
er	-4
▁s	-5
▁a	-6
▁de	-7
▁c	-8
ue	-9
▁m	-10
ar	-11
▁l	-12
▁es	-13
do	-14
an	-15
▁q	-16
▁t	-17
un	-18
as	-19
os	-20
te	-21
▁que	-22
on	-23
re	-24
or	-25
▁h	-26
▁n	-27
ci	-28
ta	-29
▁un	-30
▁en	-31
to	-32
in	-33
es	-34
▁el	-35
ien	-36
da	-37
▁la	-38
om	-39
ra	-40
▁y	-41
▁v	-42
al	-43
ente	-44
▁ha	-45
▁con	-46
▁no	-47
la	-48
is	-49
▁al	-50
▁se	-51
▁par	-52
▁est	-53
mente	-54
▁su	-55
ía	-56
▁f	-57
▁com	-58
go	-59
ti	-60
lo	-61
▁b	-62
ro	-63
ch	-64
▁lo	-65
▁si	-66
▁me	-67
▁re	-68
ero	-69
ás	-70
▁por	-71
ando	-72
ic	-73
le	-74
Es	-75
▁o	-76
ón	-77
▁una	-78
era	-79
de	-80
mp	-81
ui	-82
▁S	-83
di	-84
▁mi	-85
▁para	-86
▁in	-87
ec	-88
am	-89
▁¿	-90
ab	-91
▁so	-92
us	-93
▁como	-94
iz	-95
tr	-96
ué	-97
No	-98
ado	-99
▁g	-100
aj	-101
▁mu	-102
▁más	-103
▁cu	-104
se	-105
▁to	-106
▁po	-107
▁i	-108
▁pue	-109
me	-110
ri	-111
bi	-112
ada	-113
▁hac	-114
▁ella	-115
cu	-116
ez	-117
une	-118
hiz	-119
hizune	-120
▁ser	-121
▁di	-122
▁pero	-123
▁está	-124
o▁de	-125
tar	-126
ción	-127
res	-128
tra	-129
ante	-130
ida	-131
▁as	-132
a▁de	-133
gun	-134
▁los	-135
▁esta	-136
▁tan	-137
▁M	-138
▁H	-139
que	-140
▁eso	-141
gu	-142
▁todo	-143
▁esto	-144
co	-145
ten	-146
▁des	-147
▁¡	-148
mos	-149
▁ten	-150
▁Shizune	-151
mo	-152
vi	-153
▁hab	-154
▁las	-155
▁ti	-156
▁man	-157
én	-158
ens	-159
s▁de	-160
▁r	-161
chan	-162
uer	-163
icchan	-164
▁Es	-165
ca	-166
ha	-167
▁tra	-168
emp	-169
▁pre	-170
ma	-171
~!	-172
El	-173
▁algo	-174
o▁que	-175
las	-176
isha	-177
ol	-178
uen	-179
bre	-180
,▁¿	-181
▁solo	-182
il	-183
▁así	-184
▁vez	-185
▁mis	-186
▁del	-187
qui	-188
▁an	-189
▁hacer	-190
tro	-191
▁ver	-192
▁ex	-193
▁estu	-194
▁le	-195
ece	-196
án	-197
▁j	-198
cho	-199
▁per	-200
▁muy	-201
mi	-202
▁lo▁que	-203
iendo	-204
tu	-205
cia	-206
▁P	-207
dr	-208
iento	-209
▁bien	-210
ora	-211
ana	-212
▁qué	-213
▁Misha	-214
▁L	-215
▁he	-216
▁sus	-217
▁pens	-218
▁pas	-219
pi	-220
gar	-221
ba	-222
▁pro	-223
tos	-224
qu	-225
▁ent	-226
ble	-227
▁esc	-228
▁qui	-229
▁te	-230
almente	-231
ambi	-232
ues	-233
▁ap	-234
En	-235
tras	-236
dos	-237
▁sal	-238
jo	-239
▁A	-240
▁en▁el	-241
amente	-242
▁estoy	-243
lar	-244
ún	-245
▁ac	-246
▁esp	-247
quí	-248
tiv	-249
▁No	-250
▁deci	-251
▁res	-252
oy	-253
▁aquí	-254
▁ah	-255
▁tiemp	-256
▁son	-257
▁estudi	-258
▁ante	-259
▁parece	-260
De	-261
▁mí	-262
idad	-263
pon	-264
ces	-265
ver	-266
der	-267
▁un▁po	-268
enta	-269
▁hay	-270
▁ca	-271
▁que▁no	-272
asi	-273
▁pregun	-274
cion	-275
▁puedo	-276
▁pe	-277
▁tien	-278
ran	-279
▁ma	-280
▁de▁la	-281
das	-282
ueno	-283
▁a▁la	-284
ter	-285
tante	-286
▁comp	-287
tas	-288
▁ar	-289
ambién	-290
ici	-291
▁sin	-292
▁Hicchan	-293
▁T	-294
▁cos	-295
▁estar	-296
io	-297
ándo	-298
▁deb	-299
▁sobre	-300
ir	-301
▁yo	-302
til	-303
ica	-304
dría	-305
▁tiempo	-306
▁hace	-307
▁cre	-308
mb	-309
▁lu	-310
des	-311
min	-312
endo	-313
▁imp	-314
onces	-315
ill	-316
ko	-317
Ella	-318
ve	-319
▁mo	-320
ier	-321
▁tom	-322
▁tu	-323
▁sen	-324
▁como▁si	-325
▁li	-326
▁ve	-327
ientras	-328
ías	-329
▁decir	-330
Qué	-331
▁men	-332
▁ahora	-333
ce	-334
iente	-335
▁también	-336
zo	-337
amos	-338
▁conse	-339
▁Y	-340
▁cuando	-341
▁un▁poco	-342
eces	-343
▁sab	-344
▁en▁la	-345
▁dis	-346
▁de▁que	-347
pué	-348
dad	-349
▁ir	-350
▁hacia	-351
oso	-352
▁ab	-353
▁ter	-354
▁este	-355
pe	-356
▁inc	-357
ga	-358
ento	-359
▁cor	-360
dar	-361
ómo	-362
jos	-363
▁nada	-364
ac	-365
▁todos	-366
aja	-367
illy	-368
.▁¿	-369
Por	-370
▁ya	-371
Me	-372
lemente	-373
uel	-374
antil	-375
uela	-376
vo	-377
▁ch	-378
tando	-379
▁podría	-380
▁pers	-381
▁escuela	-382
los	-383
cil	-384
ería	-385
▁inten	-386
▁consejo	-387
ras	-388
▁clas	-389
tir	-390
▁person	-391
▁estudiantil	-392
ara	-393
unque	-394
go▁que	-395
pa	-396
▁fue	-397
▁la▁p	-398
ciendo	-399
si	-400
uera	-401
▁manera	-402
▁C	-403
▁dos	-404
za	-405
fici	-406
▁consejo▁estudiantil	-407
▁mientras	-408
baj	-409
▁dej	-410
▁señ	-411
▁ra	-412
▁mom	-413
tamente	-414
fer	-415
pués▁de	-416
▁cual	-417
ren	-418
▁algun	-419
▁mucho	-420
▁no▁es	-421
e▁de	-422
▁trabaj	-423
▁lle	-424
▁así▁que	-425
▁menos	-426
?▁¿	-427
arme	-428
▁siento	-429
Un	-430
rim	-431
▁ni	-432
▁for	-433
▁cosas	-434
La	-435
▁haber	-436
▁lugar	-437
ño	-438
▁Lilly	-439
ido	-440
Sí	-441
ru	-442
Pero	-443
anako	-444
▁pr	-445
▁ay	-446
▁estaba	-447
▁puede	-448
▁cam	-449
▁pa	-450
Bueno	-451
lus	-452
o▁es	-453
▁cab	-454
▁vi	-455
asta	-456
▁termin	-457
▁momento	-458
uego	-459
ación	-460
▁mal	-461
▁porque	-462
▁dem	-463
▁sé	-464
tros	-465
tor	-466
▁bas	-467
ur	-468
▁us	-469
▁é	-470
den	-471
▁rá	-472
▁otra	-473
hicchan	-474
▁pensar	-475
▁entre	-476
Shizune	-477
isa	-478
ciones	-479
pues	-480
▁día	-481
▁sea	-482
▁tiene	-483
▁sor	-484
▁mismo	-485
▁realmente	-486
▁“	-487
el	-488
olo	-489
sí	-490
ul	-491
rada	-492
▁mej	-493
al▁vez	-494
par	-495
resi	-496
▁gus	-497
▁vis	-498
▁señas	-499
to▁de	-500
luso	-501
quiera	-502
Qui	-503
▁inter	-504
rar	-505
▁sí	-506
Ent	-507
▁él	-508
argo	-509
tado	-510
▁segu	-511
▁parte	-512
tá	-513
Rin	-514
bab	-515
▁ese	-516
éndo	-517
▁vuel	-518
▁fuera	-519
con	-520
tin	-521
▁pon	-522
▁ven	-523
ta▁de	-524
▁gente	-525
▁cuenta	-526
▁esa	-527
▁exp	-528
▁fin	-529
~!▁¡	-530
ajaja	-531
guien	-532
▁mejor	-533
▁quier	-534
gn	-535
por	-536
▁camin	-537
▁estás	-538
▁que▁ella	-539
▁cas	-540
▁emp	-541
▁casi	-542
▁creo▁que	-543
,▁¡	-544
▁antes▁de	-545
▁ob	-546
quier	-547
▁sería	-548
▁De	-549
trás	-550
▁están	-551
▁tener	-552
▁bastante	-553
je	-554
▁nue	-555
▁Shicchan	-556
ice	-557
▁ayu	-558
▁hasta	-559
len	-560
▁sorp	-561
▁que▁me	-562
!▁¡	-563
▁car	-564
▁cómo	-565
▁siquiera	-566
gún	-567
zón	-568
▁hu	-569
▁tip	-570
▁tengo	-571
▁Hanako	-572
▁cier	-573
▁alguien	-574
eza	-575
van	-576
trar	-577
▁otro	-578
▁impor	-579
dea	-580
osi	-581
toy	-582
▁prim	-583
pongo▁que	-584
lan	-585
▁hecho	-586
▁estado	-587
Entonces	-588
▁entonces	-589
Ah	-590
du	-591
▁Me	-592
▁ju	-593
▁hablar	-594
▁va	-595
tido	-596
car	-597
▁hom	-598
▁tanto	-599
ros	-600
▁gran	-601
ia	-602
▁buen	-603
dor	-604
▁quiero	-605
omo	-606
▁Pero	-607
▁nos	-608
uerta	-609
bablemente	-610
cha	-611
▁pi	-612
tura	-613
▁fuer	-614
estiv	-615
▁salón	-616
lti	-617
▁fr	-618
▁cer	-619
▁festiv	-620
ven	-621
les	-622
dido	-623
emos	-624
▁pes	-625
▁reg	-626
▁simp	-627
so	-628
▁ojos	-629
▁neces	-630
▁pu	-631
▁comple	-632
Si	-633
▁nues	-634
In	-635
li	-636
aría	-637
empre	-638
▁lado	-639
▁debería	-640
▁haciendo	-641
rec	-642
▁Si	-643
iste	-644
▁era	-645
▁por▁el	-646
ones	-647
os▁de	-648
▁en▁su	-649
▁en▁un	-650
▁por▁un	-651
▁tú	-652
▁lib	-653
▁mano	-654
▁quer	-655
▁extra	-656
▁bueno	-657
▁en▁mi	-658
▁comien	-659
▁festival	-660
▁pregunto	-661
if	-662
Des	-663
pida	-664
▁tar	-665
as▁de	-666
▁real	-667
unca	-668
▁escu	-669
▁toda	-670
▁clase	-671
▁peque	-672
▁después▁de	-673
oles	-674
▁que▁se	-675
orm	-676
▁emb	-677
▁había	-678
Eso	-679
▁ta	-680
▁pien	-681
▁cualquier	-682
tan	-683
Misha	-684
cup	-685
▁habi	-686
pido	-687
▁all	-688
antes	-689
é▁que	-690
▁seguro	-691
eg	-692
oc	-693
ico	-694
▁dif	-695
sí▁que	-696
Al	-697
ña	-698
asiado	-699
▁sentir	-700
ki	-701
ena	-702
uto	-703
viera	-704
▁noso	-705
▁esper	-706
▁contra	-707
▁verdad	-708
▁Rin	-709
▁cabeza	-710
▁con▁la	-711
▁proble	-712
▁tipo▁de	-713
no	-714
va	-715
▁hoy	-716
▁de▁su	-717
Por▁qué	-718
reo▁que	-719
▁como▁un	-720
ios	-721
zar	-722
▁manos	-723
▁moles	-724
▁aunque	-725
▁ú	-726
▁da	-727
▁alm	-728
▁nuevo	-729
ían	-730
▁lla	-731
▁antes	-732
entro	-733
▁embargo	-734
Su	-735
▁E	-736
▁N	-737
▁aún	-738
▁cada	-739
▁pero▁no	-740
cio	-741
gui	-742
nos	-743
per	-744
▁na	-745
▁luego	-746
▁alguna	-747
▁sorpren	-748
▁incluso	-749
entemente	-750
Oh	-751
ícil	-752
▁últi	-753
▁razón	-754
▁hacerlo	-755
▁trabajo	-756
Se	-757
ay	-758
▁can	-759
▁pal	-760
▁vol	-761
▁apar	-762
▁difícil	-763
▁La	-764
▁ag	-765
▁du	-766
▁qu	-767
Lo	-768
Una	-769
eci	-770
▁y▁me	-771
▁segun	-772
erto	-773
▁algún	-774
▁forma	-775
ándose	-776
▁escuch	-777
▁a▁Shizune	-778
mar	-779
▁cal	-780
▁mañ	-781
▁soy	-782
▁len	-783
▁rep	-784
▁sido	-785
▁rápida	-786
▁siente	-787
tación	-788
ándome	-789
▁regres	-790
▁persona	-791
ib	-792
can	-793
▁fá	-794
lando	-795
▁no▁lo	-796
▁cierto	-797
▁comida	-798
▁con▁el	-799
~.	-800
as▁a	-801
▁desde	-802
▁fácil	-803
ja	-804
▁mes	-805
▁serio	-806
uerzo	-807
▁Ella	-808
▁dice	-809
▁sonr	-810
miento	-811
▁pueda	-812
▁por▁la	-813
▁vuelta	-814
ji	-815
po	-816
uu	-817
?▁¡	-818
▁go	-819
raci	-820
▁ros	-821
▁de▁mi	-822
▁El	-823
ecto	-824
isao	-825
▁ins	-826
▁encon	-827
▁levan	-828
▁puedes	-829
▁personas	-830
▁demasiado	-831
oz	-832
Ken	-833
tun	-834
arse	-835
▁gen	-836
Kenji	-837
co▁de	-838
▁de▁mí	-839
▁saber	-840
▁necesi	-841
▁sufici	-842
▁probablemente	-843
▁doy	-844
▁pun	-845
▁a▁mi	-846
▁a▁un	-847
▁hubi	-848
▁lengu	-849
▁veces	-850
▁en▁una	-851
▁que▁la	-852
▁realidad	-853
dir	-854
tal	-855
vía	-856
onde	-857
ónde	-858
▁cosa	-859
▁es▁un	-860
▁siempre	-861
▁estuviera	-862
mana	-863
aje▁de	-864
puesto	-865
▁dejar	-866
▁parec	-867
▁es▁una	-868
▁mañana	-869
gnif	-870
▁dor	-871
▁jun	-872
Estoy	-873
▁conf	-874
▁much	-875
▁comen	-876
▁misma	-877
▁que▁lo	-878
in▁embargo	-879
▁simplemente	-880
▁té	-881
Está	-882
ales	-883
uuko	-884
▁posi	-885
▁preo	-886
Cu	-887
ría	-888
cuer	-889
▁gol	-890
▁consi	-891
▁difer	-892
▁modos	-893
▁nunca	-894
▁mirada	-895
dia	-896
▁ro	-897
▁comer	-898
▁conver	-899
▁respon	-900
▁todos▁modos	-901
▁af	-902
▁todo▁el	-903
aje▁de▁señas	-904
cur	-905
▁fa	-906
▁ún	-907
▁tran	-908
▁dormi	-909
▁supon	-910
▁nosotros	-911
▁lenguaje▁de▁señas	-912
▁or	-913
▁sa	-914
ados	-915
iene	-916
onto	-917
▁rec	-918
▁pres	-919
▁donde	-920
▁gusta	-921
Hicchan	-922
▁signif	-923
gos	-924
qué	-925
▁fel	-926
▁cons	-927
▁clases	-928
ír	-929
eras	-930
usto	-931
▁veo	-932
arece	-933
▁golpe	-934
▁tomar	-935
”.	-936
lio	-937
▁En	-938
▁pin	-939
▁homb	-940
▁pues	-941
▁y▁se	-942
▁ol	-943
▁nin	-944
▁diver	-945
lu	-946
▁br	-947
tener	-948
▁vida	-949
▁escri	-950
▁tarde	-951
▁de▁Shizune	-952
▁rápidamente	-953
▁co	-954
rede	-955
liote	-956
▁a▁tra	-957
▁no▁me	-958
▁silen	-959
vé	-960
mas	-961
▁bib	-962
▁encu	-963
▁espera	-964
▁rápido	-965
▁bibliote	-966
▁preguntar	-967
▁del▁consejo▁estudiantil	-968
ina	-969
tes	-970
cido	-971
▁días	-972
resión	-973
Así▁que	-974
▁tienes	-975
adamente	-976
ión	-977
▁Eso	-978
▁el▁c	-979
▁plan	-980
▁con▁un	-981
▁de▁lo▁que	-982
▁estudiantes	-983
▁ni▁siquiera	-984
die	-985
▁abs	-986
▁fal	-987
▁mar	-988
▁idea	-989
▁juego	-990
▁alrede	-991
▁bo	-992
ista	-993
▁Por	-994
▁eres	-995
vés▁de	-996
▁chica	-997
▁ellas	-998
▁palab	-999
▁se▁ve	-1000
▁rostro	-1001
▁como▁una	-1002
▁no▁puedo	-1003
gan	-1004
eres	-1005
▁dar	-1006
▁esté	-1007
cierto	-1008
puesta	-1009
▁cambi	-1010
▁pasar	-1011
▁eso▁es	-1012
▁por▁qué	-1013
▁habitación	-1014
▁a▁través▁de	-1015
ca▁de	-1016
▁enten	-1017
▁ayudar	-1018
▁almuerzo	-1019
aba	-1020
▁bus	-1021
▁voz	-1022
▁maes	-1023
▁mira	-1024
▁norm	-1025
ando▁a	-1026
▁buena	-1027
▁feliz	-1028
▁diferente	-1029
Inc	-1030
Pue	-1031
dem	-1032
▁tal	-1033
tedes	-1034
▁allí	-1035
éndose	-1036
▁final	-1037
▁pensando	-1038
▁pregunta	-1039
Después▁de	-1040
Ya	-1041
men	-1042
tás	-1043
▁Su	-1044
tica	-1045
▁ami	-1046
▁voy	-1047
▁chic	-1048
Quiero	-1049
▁Kenji	-1050
▁tal▁vez	-1051
▁un▁poco▁de	-1052
té	-1053
oco	-1054
Eso▁es	-1055
▁ellos	-1056
▁propi	-1057
▁convers	-1058
▁con▁una	-1059
▁y▁Misha	-1060
▁la▁puerta	-1061
Esta	-1062
guir	-1063
▁may	-1064
▁pudi	-1065
▁de▁un	-1066
Re	-1067
cas	-1068
lla	-1069
ola	-1070
Solo	-1071
▁hor	-1072
▁poco	-1073
ientos	-1074
▁corre	-1075
▁que▁es	-1076
osamente	-1077
tivamente	-1078
▁cuenta▁de▁que	-1079
ye	-1080
.▁¡	-1081
▁enfer	-1082
▁poder	-1083
▁de▁las	-1084
▁siendo	-1085
▁a▁Misha	-1086
▁suficiente	-1087
íe	-1088
Con	-1089
cep	-1090
osa	-1091
vor	-1092
▁fi	-1093
▁acer	-1094
▁y▁la	-1095
ía▁que	-1096
▁Hisao	-1097
▁demás	-1098
▁mayor	-1099
▁con▁su	-1100
▁quiere	-1101
▁semana	-1102
▁todavía	-1103
▁alrededor	-1104
▁respuesta	-1105
▁ahí	-1106
▁min	-1107
demás	-1108
racias	-1109
▁interes	-1110
▁segundo	-1111
▁intentar	-1112
▁significa	-1113
Gu	-1114
gas	-1115
gin	-1116
man	-1117
ome	-1118
tad	-1119
▁dij	-1120
▁enf	-1121
▁lig	-1122
No▁es	-1123
ma▁de	-1124
▁a▁los	-1125
▁direc	-1126
▁es▁la	-1127
▁de▁los	-1128
▁supuesto	-1129
▁toma	-1130
▁atrás	-1131
▁favor	-1132
▁todas	-1133
▁puerta	-1134
▁con▁ella	-1135
▁hablando	-1136
▁pregunto▁si	-1137
che	-1138
dado	-1139
gado	-1140
▁mir	-1141
Vamos	-1142
▁pesar	-1143
▁biblioteca	-1144
gra	-1145
zás	-1146
erte	-1147
illo	-1148
▁medi	-1149
▁rela	-1150
Incluso	-1151
Está▁bien	-1152
▁al▁menos	-1153
▁podría▁ser	-1154
uy	-1155
ío	-1156
▁Se	-1157
able	-1158
▁bra	-1159
▁han	-1160
▁aten	-1161
▁ello	-1162
▁haya	-1163
▁podr	-1164
▁absol	-1165
▁pronto	-1166
▁que▁el	-1167
Creo▁que	-1168
▁está▁bien	-1169
▁mucho▁más	-1170
sa	-1171
▁amb	-1172
▁dur	-1173
▁contin	-1174
▁fuerte	-1175
▁quieres	-1176
▁importante	-1177
ajo	-1178
cer	-1179
for	-1180
▁ri	-1181
zo▁a	-1182
▁Emi	-1183
▁ges	-1184
a▁del	-1185
▁Solo	-1186
▁atra	-1187
▁pasa	-1188
▁y▁no	-1189
▁nadie	-1190
▁por▁eso	-1191
▁sentido	-1192
▁tranqui	-1193
ak	-1194
tón	-1195
inci	-1196
ienes	-1197
mpoco	-1198
▁cans	-1199
▁Yuuko	-1200
▁de▁una	-1201
blemente	-1202
▁ustedes	-1203
▁completamente	-1204
ojos	-1205
▁caf	-1206
▁uno	-1207
▁corr	-1208
▁equi	-1209
▁y▁yo	-1210
▁recor	-1211
▁algo▁de	-1212
▁que▁Shizune	-1213
▁conversación	-1214
▁de▁todos▁modos	-1215
gue	-1216
idea	-1217
pera	-1218
▁mon	-1219
▁mos	-1220
erías	-1221
▁clar	-1222
Aunque	-1223
ideaki	-1224
▁salir	-1225
▁última	-1226
▁hubiera	-1227
▁anteojos	-1228
▁comienza	-1229
Te	-1230
ie	-1231
Oye	-1232
…▁¿	-1233
dera	-1234
▁mue	-1235
demos	-1236
▁arri	-1237
▁camp	-1238
▁dónde	-1239
▁camino	-1240
▁hombre	-1241
▁encontrar	-1242
▁las▁cosas	-1243
ej	-1244
tiva	-1245
▁ocur	-1246
▁temp	-1247
tiendo	-1248
▁suena	-1249
Tal▁vez	-1250
▁especi	-1251
▁estamos	-1252
▁algo▁que	-1253
▁problema	-1254
▁se▁siente	-1255
▁seguro▁de▁que	-1256
mor	-1257
▁cui	-1258
encia	-1259
▁a▁mí	-1260
portun	-1261
▁Aunque	-1262
▁tienen	-1263
▁importa	-1264
▁que▁está	-1265
▁comienza▁a	-1266
▁D	-1267
Como	-1268
▁gan	-1269
▁a▁su	-1270
▁llev	-1271
▁obvi	-1272
cuerdo	-1273
diendo	-1274
▁es▁el	-1275
▁libro	-1276
▁mente	-1277
▁afuera	-1278
▁oportun	-1279
▁preocup	-1280
▁tratando	-1281
▁tengo▁que	-1282
▁oportunidad	-1283
hh	-1284
Deb	-1285
cul	-1286
▁be	-1287
tivo	-1288
undo	-1289
▁Ten	-1290
▁ide	-1291
▁sac	-1292
éndome	-1293
▁detrás	-1294
▁que▁yo	-1295
▁me▁hace	-1296
▁otra▁vez	-1297
xi	-1298
~,	-1299
▁fu	-1300
Bien	-1301
▁gru	-1302
taría	-1303
▁acab	-1304
▁olvi	-1305
Cuando	-1306
cho▁de	-1307
▁Estoy	-1308
▁frente	-1309
▁pienso	-1310
▁ella▁no	-1311
▁vez▁más	-1312
▁y▁luego	-1313
▁atención	-1314
▁entender	-1315
To	-1316
dí	-1317
tí	-1318
dre	-1319
tre	-1320
Hola	-1321
▁cul	-1322
media	-1323
pecto	-1324
tarme	-1325
▁llen	-1326
▁justo	-1327
▁dentro	-1328
▁por▁lo	-1329
▁pueden	-1330
Mientras	-1331
▁para▁mí	-1332
▁de▁nuevo	-1333
▁intentando	-1334
▁la▁escuela	-1335
gi	-1336
migo	-1337
pués	-1338
sión	-1339
▁lan	-1340
Estás	-1341
▁movi	-1342
▁pape	-1343
▁voy▁a	-1344
▁es▁que	-1345
▁libros	-1346
▁ligera	-1347
▁pequeña	-1348
▁vez▁que	-1349
Realmente	-1350
▁silencio	-1351
▁como▁para	-1352
▁supongo▁que	-1353
ita	-1354
rir	-1355
▁Lo	-1356
abes	-1357
▁her	-1358
▁jugar	-1359
▁vista	-1360
damente	-1361
▁de▁eso	-1362
▁llegar	-1363
▁dormitor	-1364
ál	-1365
ias	-1366
▁Al	-1367
▁ai	-1368
▁os	-1369
mero	-1370
▁bol	-1371
▁ref	-1372
▁vac	-1373
no▁es	-1374
o▁del	-1375
▁debe	-1376
▁leer	-1377
▁paso	-1378
▁vamos	-1379
▁visto	-1380
▁es▁muy	-1381
▁normal	-1382
▁en▁este	-1383
Mi	-1384
~?	-1385
Los	-1386
aré	-1387
cen	-1388
▁evi	-1389
Lilly	-1390
dición	-1391
▁poner	-1392
▁quien	-1393
ajajaja	-1394
▁extrañ	-1395
▁de▁ella	-1396
▁inmedia	-1397
▁maestro	-1398
▁pasillo	-1399
▁expresión	-1400
▁con▁Shizune	-1401
ono	-1402
uar	-1403
vir	-1404
▁ne	-1405
▁rar	-1406
▁aire	-1407
▁aleg	-1408
▁reci	-1409
Parece	-1410
▁princi	-1411
▁conmigo	-1412
▁posible	-1413
Sin▁embargo	-1414
lic	-1415
▁arre	-1416
▁malo	-1417
▁rato	-1418
un▁así	-1419
▁quién	-1420
▁pensam	-1421
▁ya▁que	-1422
▁tampoco	-1423
▁absoluto	-1424
▁escuchar	-1425
▁todo▁lo▁que	-1426
▁tratando▁de	-1427
Hm	-1428
añ	-1429
cos	-1430
tea	-1431
ual	-1432
Cómo	-1433
▁edi	-1434
▁val	-1435
▁y▁a	-1436
magin	-1437
▁ayer	-1438
▁creo	-1439
▁dese	-1440
▁de▁a	-1441
▁mesa	-1442
▁pone	-1443
▁tres	-1444
▁apren	-1445
▁ayuda	-1446
▁a▁una	-1447
▁lenta	-1448
▁ningun	-1449
▁Hideaki	-1450
▁edifici	-1451
▁tempran	-1452
▁diciendo	-1453
▁terminar	-1454
▁en▁realidad	-1455
ig	-1456
▁O	-1457
lado	-1458
▁sue	-1459
▁cono	-1460
▁minu	-1461
▁situ	-1462
▁empez	-1463
▁tenía	-1464
▁arriba	-1465
▁incómo	-1466
▁primer	-1467
▁Tal▁vez	-1468
▁molesta	-1469
▁Creo▁que	-1470
Yo	-1471
Emi	-1472
aje	-1473
ini	-1474
tis	-1475
zos	-1476
rado	-1477
▁Deb	-1478
lidad	-1479
Jajaja	-1480
▁Bueno	-1481
▁mundo	-1482
▁en▁los	-1483
▁quedar	-1484
▁durante	-1485
▁mantener	-1486
▁todos▁los	-1487
na	-1488
ños	-1489
Esto	-1490
olor	-1491
zado	-1492
▁igu	-1493
Ahora	-1494
No▁lo	-1495
▁oscu	-1496
▁salu	-1497
▁lejos	-1498
▁grande	-1499
▁o▁algo	-1500
▁pasado	-1501
▁algunos	-1502
▁en▁ello	-1503
▁minutos	-1504
▁parecen	-1505
▁primera	-1506
▁primero	-1507
▁pudiera	-1508
▁para▁ver	-1509
Supongo▁que	-1510
~…	-1511
iar	-1512
resa	-1513
z▁de	-1514
Puedo	-1515
lante	-1516
▁Esta	-1517
▁allá	-1518
▁arte	-1519
▁desa	-1520
▁estú	-1521
▁pare	-1522
▁unos	-1523
▁venir	-1524
▁asiente	-1525
▁para▁el	-1526
▁supongo	-1527
▁en▁serio	-1528
▁palabras	-1529
▁sus▁ojos	-1530
tó	-1531
Las	-1532
dic	-1533
ial	-1534
usa	-1535
vis	-1536
▁To	-1537
▁ce	-1538
enas	-1539
eron	-1540
▁muj	-1541
dados	-1542
▁abur	-1543
▁diri	-1544
▁quis	-1545
▁y▁el	-1546
Guajaja	-1547
s▁dedos	-1548
▁Quiero	-1549
▁agrada	-1550
▁esto▁es	-1551
▁escritor	-1552
▁divertido	-1553
▁problemas	-1554
robablemente	-1555
▁Supongo▁que	-1556
Eh	-1557
oj	-1558
Ten	-1559
día	-1560
▁Ah	-1561
▁fe	-1562
▁op	-1563
ar▁a	-1564
ervi	-1565
mbre	-1566
▁jue	-1567
▁pie	-1568
te▁de	-1569
▁modo	-1570
▁pueb	-1571
▁sens	-1572
▁sigu	-1573
▁largo	-1574
▁nervi	-1575
▁no▁se	-1576
▁sabes	-1577
▁única	-1578
ando▁el	-1579
▁llamar	-1580
▁par▁de	-1581
▁quería	-1582
▁idea▁de	-1583
▁pequeño	-1584
▁al▁final	-1585
▁temprano	-1586
▁me▁siento	-1587
▁para▁ella	-1588
▁pensé▁que	-1589
▁en▁absoluto	-1590
▁sus▁anteojos	-1591
ya	-1592
Él	-1593
▁ad	-1594
▁lí	-1595
▁tr	-1596
fini	-1597
▁der	-1598
▁pla	-1599
▁sec	-1600
▁sol	-1601
▁sos	-1602
▁dije	-1603
▁será	-1604
▁mitad	-1605
▁resul	-1606
▁senti	-1607
▁chicas	-1608
▁del▁salón	-1609
▁encuentro	-1610
Aj	-1611
ér	-1612
▁am	-1613
an▁a	-1614
dida	-1615
tigo	-1616
▁emo	-1617
▁som	-1618
▁ves	-1619
▁acos	-1620
▁café	-1621
▁cuer	-1622
▁sien	-1623
rimera	-1624
▁noche	-1625
▁piens	-1626
Gracias	-1627
uy▁bien	-1628
▁habría	-1629
▁imagin	-1630
▁pueblo	-1631
▁que▁te	-1632
▁tenemos	-1633
▁hecho▁de	-1634
▁sus▁manos	-1635
▁la▁primera	-1636
▁Sin▁embargo	-1637
ár	-1638
Hay	-1639
chi	-1640
llo	-1641
▁Ya	-1642
para	-1643
▁fun	-1644
▁log	-1645
dente	-1646
▁hago	-1647
▁mucha	-1648
▁correc	-1649
▁me▁doy	-1650
En▁serio	-1651
▁después	-1652
▁respecto	-1653
▁en▁verdad	-1654
▁que▁Misha	-1655
▁terminado	-1656
▁de▁la▁escuela	-1657
▁por▁un▁momento	-1658
▁después▁de▁todo	-1659
▁ade	-1660
▁has	-1661
▁inf	-1662
odría	-1663
tiene	-1664
▁apro	-1665
▁caso	-1666
▁hici	-1667
▁pier	-1668
▁estab	-1669
▁libre	-1670
▁vas▁a	-1671
mientos	-1672
▁tenido	-1673
▁ella▁se	-1674
▁más▁que	-1675
▁nuestra	-1676
▁pintura	-1677
▁Entonces	-1678
▁deberías	-1679
▁lo▁mismo	-1680
i▁siquiera	-1681
▁situación	-1682
▁lentamente	-1683
dio	-1684
ese	-1685
ior	-1686
lub	-1687
pre	-1688
é▁a	-1689
arla	-1690
arlo	-1691
guro	-1692
rido	-1693
▁les	-1694
▁tus	-1695
gando	-1696
yendo	-1697
▁dijo	-1698
▁esas	-1699
resion	-1700
▁darme	-1701
▁en▁lo	-1702
▁espal	-1703
▁estos	-1704
▁punto	-1705
▁queda	-1706
▁seguir	-1707
▁tratar	-1708
▁extraño	-1709
▁completo	-1710
▁no▁parece	-1711
▁comienzo▁a	-1712
▁dormitorios	-1713
▁sorprendido	-1714
oma	-1715
▁au	-1716
amil	-1717
cado	-1718
ello	-1719
kira	-1720
▁Pue	-1721
▁gra	-1722
▁gri	-1723
▁rui	-1724
▁disf	-1725
▁sabe	-1726
Hanako	-1727
▁a▁las	-1728
▁entra	-1729
▁hacen	-1730
▁hombro	-1731
▁sonido	-1732
No▁puedo	-1733
▁Así▁que	-1734
▁mirando	-1735
▁recordar	-1736
▁interesante	-1737
Sin	-1738
cir	-1739
Para	-1740
▁hos	-1741
▁capa	-1742
▁cara	-1743
▁curi	-1744
▁esca	-1745
▁hice	-1746
▁perf	-1747
▁prof	-1748
▁raro	-1749
▁sola	-1750
▁igual	-1751
▁otras	-1752
▁relaj	-1753
▁si▁no	-1754
▁tradu	-1755
▁encuen	-1756
▁es▁más	-1757
▁segura	-1758
▁sonríe	-1759
▁a▁pesar	-1760
▁cabello	-1761
▁levanta	-1762
▁nuestro	-1763
▁sobre▁la	-1764
▁es▁lo▁que	-1765
▁ligeramente	-1766
▁tiempo▁para	-1767
▁antes▁de▁que	-1768
bo	-1769
uj	-1770
▁V	-1771
lig	-1772
tud	-1773
pero	-1774
▁mie	-1775
▁obs	-1776
▁sua	-1777
la▁de	-1778
tarse	-1779
za▁de	-1780
▁Como	-1781
▁busc	-1782
▁exac	-1783
▁ocup	-1784
▁reac	-1785
▁va▁a	-1786
▁conoc	-1787
▁famil	-1788
▁hospi	-1789
▁orden	-1790
▁a▁ella	-1791
▁es▁tan	-1792
▁por▁su	-1793
▁prepar	-1794
icamente	-1795
▁decirle	-1796
▁puestos	-1797
▁sonrisa	-1798
▁sobre▁el	-1799
▁que▁estoy	-1800
▁responder	-1801
▁tiene▁que	-1802
▁como▁si▁estuviera	-1803
▁I	-1804
bir	-1805
liz	-1806
loj	-1807
▁ru	-1808
▁tí	-1809
graf	-1810
tumb	-1811
▁año	-1812
▁pis	-1813
▁tor	-1814
ierto	-1815
▁colo	-1816
▁mala	-1817
▁estre	-1818
▁grupo	-1819
▁pedir	-1820
▁senta	-1821
▁asiento	-1822
▁contigo	-1823
▁lo▁hace	-1824
▁mayoría	-1825
▁manera▁de	-1826
▁pensar▁en	-1827
▁sensación	-1828
finitivamente	-1829
Le	-1830
ea	-1831
lé	-1832
ís	-1833
erg	-1834
pira	-1835
▁azo	-1836
▁boca	-1837
▁arras	-1838
▁reloj	-1839
▁tendr	-1840
▁Parece	-1841
▁comenz	-1842
▁no▁hay	-1843
▁triste	-1844
▁volver	-1845
▁Incluso	-1846
▁algunas	-1847
▁pensado	-1848
▁consider	-1849
▁hacia▁el	-1850
▁hospital	-1851
▁a▁alguien	-1852
▁parece▁que	-1853
▁al▁respecto	-1854
im	-1855
▁F	-1856
▁J	-1857
!▁¿	-1858
Así	-1859
Que	-1860
dan	-1861
ral	-1862
aste	-1863
▁ign	-1864
▁lin	-1865
▁oír	-1866
▁rom	-1867
entos	-1868
ombre	-1869
toria	-1870
▁apre	-1871
▁nota	-1872
ientes	-1873
orazón	-1874
▁escal	-1875
▁escon	-1876
▁podía	-1877
por▁qué	-1878
▁preocu	-1879
▁propia	-1880
Shicchan	-1881
ensé▁que	-1882
▁continú	-1883
no▁es▁así	-1884
▁no▁puede	-1885
▁no▁tiene	-1886
▁así▁que▁no	-1887
cog	-1888
▁Un	-1889
eros	-1890
ielo	-1891
llas	-1892
orme	-1893
ticu	-1894
~!▁¿	-1895
▁dec	-1896
▁tro	-1897
ar▁el	-1898
jedre	-1899
tento	-1900
▁incl	-1901
Tienes	-1902
▁Ahora	-1903
▁de▁lo	-1904
▁hemos	-1905
vemente	-1906
▁disfru	-1907
▁en▁las	-1908
▁juntos	-1909
▁natura	-1910
▁ningún	-1911
▁por▁mi	-1912
▁quizás	-1913
Muy▁bien	-1914
▁funcion	-1915
▁acostumb	-1916
▁edificio	-1917
▁esperaba	-1918
▁incómodo	-1919
▁muy▁bien	-1920
▁para▁que	-1921
▁sorpresa	-1922
▁agradable	-1923
▁de▁que▁no	-1924
▁hasta▁que	-1925
▁que▁hacer	-1926
▁un▁poco▁más	-1927
▁parece▁estar	-1928
▁al▁consejo▁estudiantil	-1929
má	-1930
¡…	-1931
▁do	-1932
▁ej	-1933
▁ali	-1934
▁dic	-1935
es▁de	-1936
▁agar	-1937
▁asun	-1938
▁aver	-1939
▁dado	-1940
▁ir▁a	-1941
jedrez	-1942
tes▁de	-1943
▁abajo	-1944
▁gener	-1945
▁otros	-1946
▁super	-1947
▁apenas	-1948
▁	-1949
e	-1950
a	-1951
o	-1952
s	-1953
n	-1954
r	-1955
i	-1956
t	-1957
u	-1958
l	-1959
d	-1960
c	-1961
m	-1962
p	-1963
.	-1964
,	-1965
h	-1966
q	-1967
b	-1968
g	-1969
v	-1970
y	-1971
í	-1972
á	-1973
f	-1974
z	-1975
j	-1976
é	-1977
E	-1978
S	-1979
ó	-1980
¿	-1981
?	-1982
…	-1983
M	-1984
N	-1985
¡	-1986
!	-1987
P	-1988
A	-1989
H	-1990
L	-1991
ñ	-1992
~	-1993
ú	-1994
T	-1995
C	-1996
D	-1997
x	-1998
Y	-1999
k	-2000
Q	-2001
R	-2002
B	-2003
O	-2004
U	-2005
“	-2006
”	-2007
V	-2008
I	-2009
;	-2010
G	-2011
J	-2012
-	-2013
K	-2014
F	-2015
:	-2016
É	-2017
—	-2018
0	-2019
w	-2020
3	-2021
2	-2022
1	-2023
5	-2024
*	-2025
ü	-2026
4	-2027
6	-2028
Ú	-2029
(	-2030
)	-2031
W	-2032
7	-2033
8	-2034
9	-2035
X	-2036
"	-2037
%	-2038
Z	-2039
à	-2040
ō	-2041
/	-2042
Á	-2043
Í	-2044
Ñ	-2045
