<unk>	0
って	-0
ない	-1
った	-2
して	-3
こと	-4
いる	-5
から	-6
んだ	-7
よう	-8
……	-9
する	-10
けど	-11
それ	-12
そう	-13
俺は	-14
でも	-15
した	-16
んな	-17
いた	-18
いて	-19
リー	-20
その	-21
じゃ	-22
かった	-23
リリー	-24
華子	-25
っと	-26
いう	-27
ろう	-28
いい	-29
笑美	-30
ちゃ	-31
にな	-32
ある	-33
のか	-34
には	-35
んで	-36
俺の	-37
静音	-38
たい	-39
どう	-40
っている	-41
のは	-42
なく	-43
さん	-44
れる	-45
？　	-46
ている	-47
だけ	-48
自分	-49
える	-50
を見	-51
じゃない	-52
ように	-53
と思	-54
しい	-55
ちゃん	-56
でき	-57
なかった	-58
シャ	-59
している	-60
この	-61
たち	-62
しま	-63
ことを	-64
もう	-65
なん	-66
もの	-67
れた	-68
みたい	-69
ミー	-70
れて	-71
ミーシャ	-72
だろう	-73
れない	-74
だった	-75
という	-76
もし	-77
いつ	-78
まで	-79
そんな	-80
める	-81
考え	-82
！　	-83
ってる	-84
なんだ	-85
俺が	-86
いない	-87
ける	-88
これ	-89
少し	-90
ような	-91
っちゃん	-92
ことが	-93
俺たち	-94
とも	-95
なら	-96
かな	-97
です	-98
久夫	-99
ことに	-100
ると	-101
ことは	-102
なんて	-103
感じ	-104
れば	-105
だけど	-106
ため	-107
だよ	-108
琳は	-109
くる	-110
にも	-111
お前	-112
気づ	-113
自分の	-114
のに	-115
がら	-116
しか	-117
笑美は	-118
ても	-119
ちょ	-120
ここ	-121
とき	-122
になる	-123
めて	-124
こんな	-125
ながら	-126
かに	-127
より	-128
いく	-129
えて	-130
せる	-131
こう	-132
くな	-133
だから	-134
ひっちゃん	-135
と思う	-136
まり	-137
本当	-138
先生	-139
生徒	-140
わか	-141
ころ	-142
らい	-143
けて	-144
また	-145
時間	-146
わけ	-147
では	-148
言葉	-149
とは	-150
ああ	-151
まだ	-152
ただ	-153
同じ	-154
ちょっと	-155
華子は	-156
手を	-157
だって	-158
りと	-159
リリーの	-160
俺に	-161
もしれない	-162
部屋	-163
のが	-164
気が	-165
そうだ	-166
二人	-167
静音は	-168
すぐ	-169
かの	-170
琳の	-171
リリーは	-172
ほど	-173
んです	-174
しょ	-175
たし	-176
しまう	-177
華子の	-178
として	-179
っていた	-180
からない	-181
それは	-182
できる	-183
あり	-184
まる	-185
あの	-186
ます	-187
の中	-188
学校	-189
にか	-190
しない	-191
けない	-192
ドア	-193
がある	-194
本当に	-195
えない	-196
らない	-197
はは	-198
リリーが	-199
何か	-200
言う	-201
きた	-202
思い	-203
ところ	-204
のを	-205
しく	-206
みたいだ	-207
ついて	-208
彼女	-209
それに	-210
前に	-211
一緒	-212
んだよ	-213
っち	-214
話を	-215
持ち	-216
んだろう	-217
食べ	-218
りに	-219
ようだ	-220
に入	-221
落ち	-222
んど	-223
まあ	-224
ほう	-225
できない	-226
出す	-227
そして	-228
れている	-229
ース	-230
よく	-231
一緒に	-232
それを	-233
ので	-234
ほん	-235
かない	-236
ってた	-237
笑美の	-238
今日	-239
くらい	-240
いや	-241
っき	-242
終わ	-243
ようと	-244
いけない	-245
とか	-246
ために	-247
わからない	-248
上げ	-249
ずっと	-250
られる	-251
すぎ	-252
じゃあ	-253
～！　	-254
すご	-255
いつも	-256
いに	-257
何も	-258
目を	-259
見える	-260
じゃないか	-261
おか	-262
してる	-263
みんな	-264
俺を	-265
それが	-266
もっと	-267
とても	-268
さんは	-269
そうな	-270
華子が	-271
どこ	-272
なくて	-273
かもしれない	-274
俺も	-275
そういう	-276
小さ	-277
そこ	-278
をつ	-279
かり	-280
ック	-281
表情	-282
ばら	-283
ぶん	-284
生徒会	-285
向か	-286
顔を	-287
ほと	-288
ほとんど	-289
くん	-290
っく	-291
俺たちは	-292
取り	-293
笑美が	-294
どうして	-295
ミーシャは	-296
きゃ	-297
てる	-298
立ち	-299
優子	-300
聞こ	-301
丈夫	-302
気分	-303
の人	-304
～！	-305
あまり	-306
意味	-307
健二	-308
大丈夫	-309
だろ	-310
まま	-311
っても	-312
気づく	-313
ませ	-314
心配	-315
――	-316
なのか	-317
をする	-318
いで	-319
大き	-320
好き	-321
行く	-322
わない	-323
っぱ	-324
くない	-325
琳が	-326
静音の	-327
あった	-328
くれる	-329
まるで	-330
うな	-331
言った	-332
久夫さん	-333
りの	-334
ばらく	-335
気持ち	-336
上が	-337
ことも	-338
しばらく	-339
よりも	-340
教室	-341
しまった	-342
の上	-343
うん	-344
すぐに	-345
やって	-346
べき	-347
ここに	-348
さえ	-349
せて	-350
授業	-351
へと	-352
はない	-353
ちら	-354
にして	-355
なくな	-356
になって	-357
ありが	-358
言い	-359
始める	-360
自分が	-361
静音が	-362
んでいる	-363
いている	-364
なきゃ	-365
に戻	-366
でしょ	-367
かも	-368
あたし	-369
必要	-370
たぶん	-371
られない	-372
考える	-373
それで	-374
しっちゃん	-375
仕事	-376
すごく	-377
がない	-378
ナース	-379
したら	-380
いだ	-381
振り	-382
違う	-383
うなず	-384
くなる	-385
そうに	-386
ラス	-387
がいい	-388
と同じ	-389
していた	-390
ことだ	-391
少なく	-392
引き	-393
落ち着	-394
けた	-395
やる	-396
理由	-397
少なくとも	-398
りを	-399
だけだ	-400
わかる	-401
久夫くん	-402
かのように	-403
やり	-404
ってくる	-405
ごめ	-406
めた	-407
変わ	-408
間に	-409
あな	-410
考えて	-411
のように	-412
になった	-413
それでも	-414
えば	-415
とう	-416
出て	-417
まった	-418
を見て	-419
かる	-420
あなた	-421
今の	-422
ずに	-423
以上	-424
悪い	-425
笑い	-426
ければ	-427
えた	-428
なの	-429
通り	-430
を見る	-431
スト	-432
一度	-433
場所	-434
私は	-435
ット	-436
もない	-437
そも	-438
早く	-439
はず	-440
言って	-441
様子	-442
んだけど	-443
昨日	-444
晃さん	-445
あと	-446
体を	-447
ません	-448
たく	-449
を開	-450
友達	-451
最後	-452
とって	-453
先生は	-454
そんなに	-455
のことを	-456
一番	-457
言葉を	-458
気がする	-459
のこと	-460
を見つ	-461
ミーシャが	-462
つも	-463
理解	-464
感じる	-465
ング	-466
人が	-467
どんな	-468
られた	-469
きて	-470
のも	-471
まず	-472
問題	-473
起こ	-474
さい	-475
学園	-476
これは	-477
ート	-478
楽し	-479
聞いて	-480
優子さん	-481
もち	-482
をか	-483
浮か	-484
もちろ	-485
今日は	-486
みたいに	-487
くれ	-488
います	-489
わたし	-490
よかった	-491
間違	-492
ほんと	-493
ゆっく	-494
ール	-495
人の	-496
について	-497
質問	-498
過ご	-499
くれた	-500
にある	-501
ラン	-502
でもない	-503
気を	-504
今まで	-505
何を	-506
言わ	-507
込む	-508
俺には	-509
小さな	-510
ーム	-511
他の	-512
後ろ	-513
最初	-514
だな	-515
しゃ	-516
思う	-517
さっき	-518
っていく	-519
合わ	-520
手に	-521
自身	-522
だと	-523
長い	-524
わかった	-525
今は	-526
なんだか	-527
もちろん	-528
状況	-529
きっと	-530
っちゃ	-531
に向か	-532
みたいな	-533
廊下	-534
目の	-535
くと	-536
受け	-537
普通	-538
ター	-539
ブル	-540
笑う	-541
笑顔	-542
とする	-543
一人	-544
来た	-545
的な	-546
にいる	-547
あれ	-548
いたい	-549
ちゃんと	-550
わけじゃない	-551
うち	-552
山久	-553
視線	-554
を持	-555
手伝	-556
気に	-557
クラス	-558
頭を	-559
される	-560
ました	-561
出して	-562
全部	-563
彼女の	-564
としても	-565
答え	-566
こんなに	-567
らか	-568
振る	-569
沈黙	-570
っていう	-571
よね	-572
心臓	-573
らしい	-574
手話	-575
された	-576
したい	-577
続ける	-578
に行	-579
といけない	-580
実際	-581
つもり	-582
さら	-583
簡単	-584
過ぎ	-585
おい	-586
なければ	-587
俺たちの	-588
すく	-589
俺と	-590
の子	-591
だけで	-592
っぽ	-593
ひど	-594
テー	-595
一つ	-596
面白	-597
いった	-598
をして	-599
静音と	-600
めている	-601
っか	-602
前の	-603
来る	-604
関係	-605
ミーシャの	-606
ショ	-607
突然	-608
しよう	-609
かなり	-610
華ちゃん	-611
んじゃないか	-612
ええ	-613
げる	-614
なに	-615
ッド	-616
初めて	-617
時間が	-618
反応	-619
おかげ	-620
になり	-621
リリーと	-622
時に	-623
こっち	-624
すると	-625
ってしまう	-626
はい	-627
見た	-628
が俺の	-629
こういう	-630
させ	-631
押し	-632
ゆっくりと	-633
うま	-634
動き	-635
どういう	-636
なんだろう	-637
意識	-638
本を	-639
結局	-640
どうか	-641
と思った	-642
テーブル	-643
あら	-644
つか	-645
しに	-646
わざ	-647
なにか	-648
ほんの	-649
事を	-650
人は	-651
なあ	-652
っぱり	-653
しながら	-654
全然	-655
見て	-656
学園祭	-657
けている	-658
たり	-659
ですね	-660
ほんとに	-661
違いない	-662
すと	-663
無理	-664
すぎる	-665
すれば	-666
上げる	-667
静音に	-668
ではない	-669
だめ	-670
一瞬	-671
休み	-672
図書	-673
気づいて	-674
んじゃない	-675
くて	-676
られ	-677
誰も	-678
飲み	-679
あいつ	-680
ごめん	-681
できた	-682
ようとする	-683
かわ	-684
的に	-685
聞き	-686
の上に	-687
られて	-688
を取り	-689
ベッド	-690
うなずく	-691
ってこと	-692
お互	-693
なる	-694
ップ	-695
見つ	-696
音が	-697
お前が	-698
されて	-699
っかり	-700
以外	-701
肩を	-702
しな	-703
ント	-704
たした	-705
なんで	-706
図書室	-707
おかげで	-708
いろ	-709
かし	-710
の間	-711
っきり	-712
ですか	-713
ありがとう	-714
わず	-715
を向	-716
あんな	-717
してた	-718
しょう	-719
大きな	-720
華子に	-721
たしたち	-722
んだから	-723
べて	-724
世界	-725
会話	-726
合い	-727
誰か	-728
させる	-729
しても	-730
のかもしれない	-731
どれ	-732
やく	-733
目に	-734
知り	-735
私が	-736
ってない	-737
ンを	-738
別に	-739
とにか	-740
ものだ	-741
とにかく	-742
そば	-743
確かに	-744
えている	-745
だろうか	-746
に座	-747
やら	-748
全く	-749
んですか	-750
ーを	-751
今度	-752
起き	-753
これが	-754
込んで	-755
いいのか	-756
そうだな	-757
タイ	-758
助け	-759
の中で	-760
二人とも	-761
来て	-762
絶対	-763
説明	-764
あいだ	-765
そろ	-766
まったく	-767
じて	-768
完全	-769
息を	-770
華子と	-771
なんだよ	-772
見えない	-773
いなかった	-774
私の	-775
ものを	-776
ってきた	-777
知らない	-778
声が	-779
方が	-780
ことがある	-781
さない	-782
つく	-783
チェ	-784
目が	-785
驚く	-786
ったら	-787
女の子	-788
に違いない	-789
出る	-790
勉強	-791
変な	-792
手紙	-793
武藤	-794
集中	-795
向こう	-796
飛び	-797
にする	-798
リリーに	-799
だし	-800
っけ	-801
聞いた	-802
いつもの	-803
ほうがいい	-804
十分	-805
歩き	-806
秀明	-807
近づ	-808
立ち上が	-809
みる	-810
チャ	-811
おう	-812
を探	-813
バカ	-814
大事	-815
いいよ	-816
お前の	-817
っていない	-818
ばん	-819
注意	-820
立て	-821
とした	-822
なんか	-823
たくさん	-824
いか	-825
ひと	-826
岩魚	-827
深く	-828
話し	-829
岩魚子	-830
思い出	-831
ことに気づく	-832
なきゃいけない	-833
さに	-834
みを	-835
話す	-836
お前は	-837
せない	-838
りする	-839
つき	-840
ねえ	-841
人生	-842
何が	-843
健二は	-844
先生が	-845
最後の	-846
それとも	-847
としている	-848
腕を	-849
学校の	-850
聞こえる	-851
とい	-852
りは	-853
向き	-854
興味	-855
芸術	-856
ほうが	-857
優子さんは	-858
やつ	-859
ンス	-860
不安	-861
打ち	-862
のよ	-863
せいで	-864
ドアを	-865
しかない	-866
というのは	-867
やす	-868
感覚	-869
手で	-870
明日	-871
準備	-872
琳に	-873
色の	-874
ことで	-875
じゃなかった	-876
らす	-877
普段	-878
完全に	-879
やっぱり	-880
出来	-881
うまく	-882
しゃべ	-883
ただの	-884
そもそも	-885
なさ	-886
知ら	-887
どっち	-888
華子を	-889
じゃなくて	-890
中に	-891
何の	-892
あって	-893
ここで	-894
ないよ	-895
かい	-896
がる	-897
冗談	-898
分か	-899
琳を	-900
足を	-901
くれて	-902
ときは	-903
ゲーム	-904
かす	-905
への	-906
出し	-907
取る	-908
妙な	-909
ですよ	-910
思った	-911
分からない	-912
伸ば	-913
見る	-914
がする	-915
難しい	-916
静かに	-917
手が	-918
読み	-919
とは思	-920
ははは	-921
部屋の	-922
だと思う	-923
そんなこと	-924
をしている	-925
いえ	-926
りゃ	-927
正直	-928
雰囲	-929
ときに	-930
わたしたち	-931
努力	-932
いっぱ	-933
ばかり	-934
もなく	-935
視線を	-936
言ってる	-937
やが	-938
時計	-939
に戻る	-940
のない	-941
あー	-942
けば	-943
乗り	-944
想像	-945
身を	-946
返す	-947
だと思	-948
笑美に	-949
だったら	-950
っていて	-951
もう一度	-952
イト	-953
全て	-954
後に	-955
行き	-956
週間	-957
なくなる	-958
俺たちが	-959
知ってる	-960
になっている	-961
あげ	-962
ほら	-963
ッチ	-964
信じ	-965
合う	-966
屋上	-967
に行く	-968
忘れて	-969
ようやく	-970
たび	-971
物を	-972
風に	-973
ほしい	-974
しかった	-975
声を	-976
期待	-977
真剣	-978
音を	-979
あの子	-980
いいか	-981
なくても	-982
のような	-983
いな	-984
明ら	-985
さらに	-986
ドアの	-987
先生の	-988
ように見える	-989
いは	-990
たら	-991
美術	-992
調子	-993
どちら	-994
まずい	-995
今度は	-996
だろうな	-997
いを	-998
差し	-999
手の	-1000
聞く	-1001
走り	-1002
うちに	-1003
ちょう	-1004
でしょう	-1005
ティ	-1006
人間	-1007
椅子	-1008
近く	-1009
～、	-1010
が終わ	-1011
しまい	-1012
はどう	-1013
やった	-1014
同時に	-1015
息をつ	-1016
を見せる	-1017
聞こえて	-1018
んだろうか	-1019
かか	-1020
作業	-1021
存在	-1022
微笑	-1023
緊張	-1024
つまり	-1025
やがて	-1026
驚いた	-1027
と一緒に	-1028
わかってる	-1029
いの	-1030
に立	-1031
可能	-1032
最近	-1033
距離	-1034
こちら	-1035
姉さん	-1036
言うと	-1037
言わない	-1038
考えている	-1039
しろ	-1040
話題	-1041
返事	-1042
たちが	-1043
ラック	-1044
振り返	-1045
ところで	-1046
に向かって	-1047
こん	-1048
とな	-1049
女子	-1050
チェス	-1051
さを	-1052
せい	-1053
予想	-1054
何度	-1055
感情	-1056
指を	-1057
生き	-1058
約束	-1059
からは	-1060
すべて	-1061
はある	-1062
教えて	-1063
肩をすく	-1064
、２	-1065
別の	-1066
引っ	-1067
逃げ	-1068
なこと	-1069
ならない	-1070
と思っていた	-1071
あん	-1072
だけの	-1073
に手を	-1074
手話を	-1075
覚えて	-1076
明らかに	-1077
かもしれないけど	-1078
に会	-1079
プレ	-1080
生活	-1081
である	-1082
に入る	-1083
こそ	-1084
に置	-1085
ンド	-1086
一日	-1087
満足	-1088
ニング	-1089
上げて	-1090
ことにする	-1091
を見ている	-1092
ちは	-1093
ンの	-1094
ーん	-1095
中で	-1096
状態	-1097
確か	-1098
確認	-1099
なのに	-1100
待って	-1101
自分で	-1102
かは	-1103
フェ	-1104
大変	-1105
実は	-1106
張り	-1107
食事	-1108
ナースは	-1109
おく	-1110
の方	-1111
恥ず	-1112
自信	-1113
からな	-1114
はずだ	-1115
食べる	-1116
ごめんな	-1117
それから	-1118
ミーシャに	-1119
ってしまった	-1120
ライ	-1121
手塚	-1122
電話	-1123
これで	-1124
すごい	-1125
どこか	-1126
素早く	-1127
そうだよ	-1128
のために	-1129
りで	-1130
そりゃ	-1131
それも	-1132
のかも	-1133
ひどい	-1134
向かう	-1135
くなった	-1136
しようと	-1137
そんなの	-1138
ちょうど	-1139
気づいた	-1140
良かった	-1141
に出	-1142
ード	-1143
付き	-1144
降り	-1145
かかる	-1146
ものが	-1147
彼女は	-1148
新しい	-1149
時間を	-1150
しくない	-1151
いき	-1152
目は	-1153
眼鏡	-1154
閉じ	-1155
ケット	-1156
ちゃった	-1157
と同じように	-1158
さま	-1159
中井	-1160
人に	-1161
体が	-1162
家族	-1163
紅茶	-1164
走る	-1165
にはい	-1166
の中に	-1167
他の人	-1168
そこまで	-1169
少しだけ	-1170
られている	-1171
らう	-1172
ケー	-1173
コー	-1174
付け	-1175
再び	-1176
絵を	-1177
たちの	-1178
やりと	-1179
歩いて	-1180
沈黙が	-1181
ってのは	-1182
思い出す	-1183
気持ちを	-1184
ことができない	-1185
に対	-1186
らず	-1187
ペン	-1188
ージ	-1189
人を	-1190
他に	-1191
先に	-1192
後で	-1193
かれた	-1194
自分を	-1195
かどうか	-1196
これ以上	-1197
それ以上	-1198
ドアを開	-1199
そんなことを	-1200
おり	-1201
なぜ	-1202
バス	-1203
一言	-1204
半分	-1205
安心	-1206
屋台	-1207
残念	-1208
疲れ	-1209
瞬間	-1210
首を	-1211
出した	-1212
いっぱい	-1213
言いたい	-1214
いま	-1215
つま	-1216
のお	-1217
口に	-1218
軽く	-1219
野宮	-1220
たった	-1221
つける	-1222
もしか	-1223
ようで	-1224
わかり	-1225
面白い	-1226
あんまり	-1227
おかしい	-1228
ってから	-1229
というか	-1230
ことがない	-1231
知っている	-1232
ことができる	-1233
ことじゃない	-1234
よな	-1235
んと	-1236
切り	-1237
態度	-1238
明る	-1239
気で	-1240
私も	-1241
驚き	-1242
すぎて	-1243
たちは	-1244
ったり	-1245
よりは	-1246
二人の	-1247
合わせ	-1248
昨日の	-1249
晃さんは	-1250
きれ	-1251
なり	-1252
ゆる	-1253
運動	-1254
したの	-1255
カップ	-1256
分かる	-1257
おかしな	-1258
でもいい	-1259
どうやら	-1260
生徒会の	-1261
考えてみ	-1262
さと	-1263
ぞれ	-1264
なよ	-1265
らし	-1266
無駄	-1267
良い	-1268
飲む	-1269
気づか	-1270
部屋に	-1271
間違い	-1272
それぞれ	-1273
してくれる	-1274
ごめんなさい	-1275
こち	-1276
だね	-1277
なお	-1278
名前	-1279
特に	-1280
病院	-1281
突き	-1282
見え	-1283
邪魔	-1284
わから	-1285
急いで	-1286
はっきり	-1287
を見ると	-1288
と思ってた	-1289
ーク	-1290
体の	-1291
投げ	-1292
近い	-1293
ついた	-1294
どんど	-1295
ものは	-1296
んでる	-1297
するのは	-1298
そのまま	-1299
にとって	-1300
リリーも	-1301
晃さんが	-1302
コン	-1303
心地	-1304
朝の	-1305
突っ	-1306
かける	-1307
ことの	-1308
たびに	-1309
って思	-1310
シャツ	-1311
俺自身	-1312
小さく	-1313
昼休み	-1314
あまりに	-1315
があった	-1316
くれない	-1317
たど	-1318
つけ	-1319
アイ	-1320
子供	-1321
急に	-1322
悲し	-1323
無視	-1324
願い	-1325
うーん	-1326
からの	-1327
はもう	-1328
やかな	-1329
取って	-1330
可能性	-1331
そうだね	-1332
どんどん	-1333
言えない	-1334
言ってた	-1335
そんなことは	-1336
いら	-1337
くだ	-1338
であ	-1339
伝わ	-1340
抜け	-1341
抱き	-1342
気の	-1343
発作	-1344
続く	-1345
鳴り	-1346
いぶん	-1347
えっと	-1348
そっち	-1349
その場	-1350
向ける	-1351
当たり	-1352
気に入	-1353
方がいい	-1354
してしまう	-1355
気分になる	-1356
言っている	-1357
パン	-1358
呼吸	-1359
寄り	-1360
思考	-1361
止め	-1362
遠く	-1363
階段	-1364
障害	-1365
顔に	-1366
いてる	-1367
そうか	-1368
なのは	-1369
ひどく	-1370
ドアが	-1371
一人で	-1372
口を開	-1373
笑美を	-1374
とはいえ	-1375
と思って	-1376
と思います	-1377
ランニング	-1378
々と	-1379
あっ	-1380
せた	-1381
との	-1382
みが	-1383
を下	-1384
両親	-1385
前で	-1386
後の	-1387
目で	-1388
過去	-1389
限り	-1390
しかし	-1391
じっと	-1392
ちゃう	-1393
に目を	-1394
それだけ	-1395
リリーを	-1396
かのようだ	-1397
優子さんが	-1398
なかったけど	-1399
なし	-1400
ぼん	-1401
一方	-1402
光景	-1403
次の	-1404
深い	-1405
話が	-1406
かばん	-1407
しかも	-1408
します	-1409
そこに	-1410
人とも	-1411
何かを	-1412
言えば	-1413
はとても	-1414
息をつく	-1415
そのことを	-1416
笑美ちゃん	-1417
肩をすくめる	-1418
お母	-1419
キス	-1420
レン	-1421
ンク	-1422
口を	-1423
心の	-1424
方を	-1425
時々	-1426
物の	-1427
こいつ	-1428
こない	-1429
それと	-1430
まって	-1431
出来事	-1432
浮かべ	-1433
どれだけ	-1434
チャンス	-1435
ここにいる	-1436
そうになる	-1437
感じがする	-1438
しっちゃんは	-1439
どの	-1440
ベル	-1441
代わ	-1442
感謝	-1443
誕生	-1444
～？	-1445
さんが	-1446
んだな	-1447
最初の	-1448
正しい	-1449
言葉が	-1450
静音も	-1451
もう少し	-1452
されている	-1453
わからないけど	-1454
たと	-1455
みに	-1456
ディ	-1457
ーの	-1458
入り	-1459
力を	-1460
実に	-1461
心に	-1462
込み	-1463
いても	-1464
ぐらい	-1465
のため	-1466
会った	-1467
大した	-1468
始めて	-1469
彼女が	-1470
思いつ	-1471
自分に	-1472
話した	-1473
起きた	-1474
もしない	-1475
ってるんだ	-1476
ミーシャと	-1477
ぶら	-1478
ウン	-1479
切れ	-1480
心を	-1481
自然	-1482
馬鹿	-1483
っくり	-1484
なにも	-1485
わはは	-1486
今日の	-1487
会話を	-1488
始めた	-1489
楽しい	-1490
考えた	-1491
してくる	-1492
なんとか	-1493
にしても	-1494
だろうけど	-1495
聞こえない	-1496
かけ	-1497
ごと	-1498
さが	-1499
さて	-1500
を作	-1501
んば	-1502
ーツ	-1503
伝え	-1504
入れ	-1505
単に	-1506
忘れ	-1507
日の	-1508
１０	-1509
からね	-1510
のある	-1511
ペース	-1512
大きく	-1513
振る舞	-1514
過ごす	-1515
と思うよ	-1516
考えると	-1517
いが	-1518
声で	-1519
声は	-1520
書き	-1521
満ち	-1522
部分	-1523
お願い	-1524
から離	-1525
るのは	-1526
ボール	-1527
この学校	-1528
それほど	-1529
わずかに	-1530
んですよ	-1531
自分自身	-1532
思っていた	-1533
と同じくらい	-1534
聞こえてくる	-1535
すで	-1536
体は	-1537
歩く	-1538
計画	-1539
おっけ	-1540
かけて	-1541
までは	-1542
もある	-1543
を見た	-1544
テスト	-1545
ノック	-1546
二人が	-1547
健二の	-1548
好きな	-1549
欲しい	-1550
答える	-1551
話しか	-1552
誰かが	-1553
これから	-1554
そろそろ	-1555
に見える	-1556
と思うけど	-1557
うつ	-1558
げに	-1559
の外	-1560
まと	-1561
校舎	-1562
試験	-1563
道を	-1564
たどり	-1565
できて	-1566
伝える	-1567
時間は	-1568
絶対に	-1569
華子も	-1570
行って	-1571
静かな	-1572
お互いに	-1573
ください	-1574
ずいぶん	-1575
に向かう	-1576
わざわざ	-1577
ポケット	-1578
していない	-1579
なかったら	-1580
続けている	-1581
なかったから	-1582
なのかもしれない	-1583
お茶	-1584
つの	-1585
まし	-1586
挨拶	-1587
顔が	-1588
髪を	-1589
……？	-1590
させて	-1591
っては	-1592
らせる	-1593
んない	-1594
二人は	-1595
優しく	-1596
止める	-1597
表情が	-1598
あんなに	-1599
っちゃう	-1600
つかない	-1601
がっている	-1602
っちゃった	-1603
。『	-1604
かと	-1605
てて	-1606
ぶつ	-1607
を変	-1608
カー	-1609
強く	-1610
比べ	-1611
特別	-1612
眉を	-1613
立つ	-1614
込ま	-1615
高い	-1616
すでに	-1617
そっと	-1618
っぽい	-1619
ション	-1620
奇妙な	-1621
置いて	-1622
連れて	-1623
ごめんね	-1624
晃さんの	-1625
ありがたい	-1626
ありません	-1627
ことはない	-1628
同じように	-1629
やめ	-1630
を取	-1631
を着	-1632
君が	-1633
真っ	-1634
興奮	-1635
そう思	-1636
なので	-1637
コーヒ	-1638
入れる	-1639
手紙を	-1640
普通の	-1641
あらゆる	-1642
あるいは	-1643
んでいた	-1644
恥ずかし	-1645
手伝って	-1646
驚くほど	-1647
ことなんて	-1648
そうとする	-1649
なくなった	-1650
なかったんだ	-1651
かを	-1652
きら	-1653
マジ	-1654
ープ	-1655
借り	-1656
当た	-1657
早い	-1658
琳と	-1659
耐え	-1660
けると	-1661
さんの	-1662
だよね	-1663
でさえ	-1664
のかな	-1665
までも	-1666
れてる	-1667
簡単に	-1668
終わる	-1669
続けて	-1670
触れる	-1671
そうだった	-1672
できるだけ	-1673
のに気づく	-1674
しっちゃんが	-1675
もしかしたら	-1676
がり	-1677
くそ	-1678
だが	-1679
つい	-1680
なか	-1681
につ	-1682
らせ	-1683
れど	-1684
上手	-1685
予定	-1686
幸せ	-1687
強い	-1688
料理	-1689
本の	-1690
機嫌	-1691
注文	-1692
落と	-1693
退屈	-1694
静か	-1695
頭が	-1696
がって	-1697
が悪い	-1698
ってい	-1699
どうも	-1700
感じだ	-1701
授業を	-1702
様子で	-1703
立てる	-1704
笑美と	-1705
笑美も	-1706
誕生日	-1707
～……	-1708
あなたが	-1709
ありがと	-1710
したんだ	-1711
ってきて	-1712
を取り戻	-1713
俺はその	-1714
って言った	-1715
ということ	-1716
のを感じる	-1717
れていない	-1718
ことができた	-1719
しまっている	-1720
いち	-1721
ごく	-1722
に着	-1723
に見	-1724
はじ	-1725
まっ	-1726
を引	-1727
レス	-1728
ンチ	-1729
上の	-1730
始め	-1731
当然	-1732
待つ	-1733
戻る	-1734
短い	-1735
秘密	-1736
続け	-1737
練習	-1738
行動	-1739
ええと	-1740
ここの	-1741
せずに	-1742
そうで	-1743
その時	-1744
をした	-1745
タイプ	-1746
今でも	-1747
浮かぶ	-1748
行った	-1749
言い方	-1750
過ぎて	-1751
どうする	-1752
なことを	-1753
クラスの	-1754
学園祭の	-1755
待っている	-1756
間違いなく	-1757
お昼	-1758
ござ	-1759
じろ	-1760
とり	-1761
よし	-1762
よろ	-1763
わし	-1764
スク	-1765
中を	-1766
以前	-1767
余計	-1768
元気	-1769
別れ	-1770
反対	-1771
姿勢	-1772
活動	-1773
進む	-1774
い	-1775
の	-1776
な	-1777
て	-1778
。	-1779
に	-1780
、	-1781
る	-1782
と	-1783
っ	-1784
た	-1785
か	-1786
は	-1787
し	-1788
う	-1789
を	-1790
だ	-1791
が	-1792
ん	-1793
も	-1794
で	-1795
こ	-1796
ら	-1797
く	-1798
れ	-1799
そ	-1800
け	-1801
よ	-1802
す	-1803
り	-1804
ま	-1805
俺	-1806
あ	-1807
ど	-1808
き	-1809
…	-1810
ち	-1811
ー	-1812
え	-1813
さ	-1814
わ	-1815
？	-1816
リ	-1817
つ	-1818
ゃ	-1819
じ	-1820
め	-1821
ろ	-1822
子	-1823
や	-1824
お	-1825
気	-1826
見	-1827
み	-1828
言	-1829
思	-1830
人	-1831
笑	-1832
分	-1833
せ	-1834
　	-1835
一	-1836
ば	-1837
！	-1838
手	-1839
華	-1840
ず	-1841
ね	-1842
音	-1843
琳	-1844
ほ	-1845
美	-1846
自	-1847
静	-1848
何	-1849
ス	-1850
前	-1851
今	-1852
ン	-1853
話	-1854
出	-1855
間	-1856
生	-1857
上	-1858
シ	-1859
ャ	-1860
目	-1861
日	-1862
時	-1863
大	-1864
中	-1865
考	-1866
ご	-1867
げ	-1868
少	-1869
本	-1870
ミ	-1871
感	-1872
ょ	-1873
ッ	-1874
べ	-1875
ひ	-1876
心	-1877
～	-1878
ト	-1879
事	-1880
夫	-1881
会	-1882
行	-1883
聞	-1884
二	-1885
後	-1886
当	-1887
私	-1888
部	-1889
久	-1890
学	-1891
ク	-1892
向	-1893
ド	-1894
む	-1895
入	-1896
ラ	-1897
方	-1898
ぶ	-1899
づ	-1900
意	-1901
ぐ	-1902
先	-1903
立	-1904
ル	-1905
顔	-1906
全	-1907
来	-1908
イ	-1909
ア	-1910
理	-1911
持	-1912
ぎ	-1913
び	-1914
同	-1915
屋	-1916
食	-1917
取	-1918
違	-1919
女	-1920
合	-1921
へ	-1922
知	-1923
通	-1924
動	-1925
体	-1926
校	-1927
明	-1928
最	-1929
度	-1930
下	-1931
変	-1932
―	-1933
味	-1934
徒	-1935
葉	-1936
物	-1937
チ	-1938
室	-1939
込	-1940
始	-1941
外	-1942
返	-1943
声	-1944
戻	-1945
無	-1946
教	-1947
ぞ	-1948
彼	-1949
不	-1950
情	-1951
タ	-1952
誰	-1953
着	-1954
的	-1955
足	-1956
カ	-1957
口	-1958
落	-1959
悪	-1960
回	-1961
問	-1962
頭	-1963
身	-1964
レ	-1965
『	-1966
』	-1967
然	-1968
実	-1969
歩	-1970
終	-1971
続	-1972
振	-1973
書	-1974
他	-1975
２	-1976
以	-1977
場	-1978
引	-1979
プ	-1980
優	-1981
待	-1982
覚	-1983
表	-1984
過	-1985
作	-1986
バ	-1987
業	-1988
起	-1989
▁	-1990
小	-1991
伝	-1992
開	-1993
緒	-1994
近	-1995
々	-1996
好	-1997
面	-1998
テ	-1999
別	-2000
確	-2001
切	-2002
力	-2003
ざ	-2004
題	-2005
早	-2006
ふ	-2007
楽	-2008
正	-2009
驚	-2010
配	-2011
長	-2012
空	-2013
解	-2014
仕	-2015
初	-2016
コ	-2017
ナ	-2018
直	-2019
突	-2020
健	-2021
対	-2022
決	-2023
息	-2024
パ	-2025
数	-2026
強	-2027
ジ	-2028
良	-2029
反	-2030
グ	-2031
ブ	-2032
キ	-2033
必	-2034
要	-2035
走	-2036
色	-2037
離	-2038
１	-2039
視	-2040
ゆ	-2041
残	-2042
座	-2043
ぱ	-2044
丈	-2045
止	-2046
指	-2047
白	-2048
読	-2049
ム	-2050
メ	-2051
ぜ	-2052
所	-2053
単	-2054
ニ	-2055
置	-2056
フ	-2057
答	-2058
真	-2059
ベ	-2060
様	-2061
状	-2062
晃	-2063
関	-2064
番	-2065
信	-2066
普	-2067
飲	-2068
付	-2069
授	-2070
園	-2071
ぼ	-2072
家	-2073
張	-2074
由	-2075
結	-2076
肩	-2077
ェ	-2078
重	-2079
黙	-2080
風	-2081
友	-2082
朝	-2083
達	-2084
深	-2085
安	-2086
地	-2087
寄	-2088
調	-2089
君	-2090
紙	-2091
ツ	-2092
受	-2093
ウ	-2094
満	-2095
山	-2096
想	-2097
探	-2098
質	-2099
腕	-2100
発	-2101
休	-2102
用	-2103
線	-2104
瞬	-2105
忘	-2106
計	-2107
術	-2108
道	-2109
使	-2110
マ	-2111
ケ	-2112
去	-2113
ボ	-2114
昼	-2115
親	-2116
注	-2117
失	-2118
昨	-2119
沈	-2120
寝	-2121
絶	-2122
進	-2123
ペ	-2124
嫌	-2125
怒	-2126
助	-2127
浮	-2128
段	-2129
絵	-2130
界	-2131
活	-2132
両	-2133
夜	-2134
年	-2135
急	-2136
高	-2137
乗	-2138
元	-2139
姿	-2140
髪	-2141
周	-2142
図	-2143
応	-2144
背	-2145
ョ	-2146
性	-2147
多	-2148
閉	-2149
机	-2150
予	-2151
押	-2152
祭	-2153
世	-2154
光	-2155
際	-2156
ィ	-2157
識	-2158
者	-2159
運	-2160
ぽ	-2161
難	-2162
３	-2163
内	-2164
席	-2165
サ	-2166
素	-2167
０	-2168
呼	-2169
廊	-2170
茶	-2171
遠	-2172
集	-2173
飛	-2174
鳴	-2175
態	-2176
触	-2177
週	-2178
横	-2179
得	-2180
遅	-2181
完	-2182
疲	-2183
況	-2184
ロ	-2185
描	-2186
抜	-2187
ポ	-2188
画	-2189
病	-2190
ピ	-2191
機	-2192
相	-2193
定	-2194
特	-2195
説	-2196
現	-2197
臓	-2198
魚	-2199
寮	-2200
能	-2201
隠	-2202
買	-2203
店	-2204
打	-2205
痛	-2206
妙	-2207
認	-2208
簡	-2209
興	-2210
壁	-2211
頼	-2212
勝	-2213
胸	-2214
ビ	-2215
囲	-2216
期	-2217
互	-2218
抱	-2219
新	-2220
眠	-2221
苦	-2222
追	-2223
選	-2224
金	-2225
次	-2226
逃	-2227
係	-2228
限	-2229
軽	-2230
腹	-2231
ュ	-2232
局	-2233
文	-2234
片	-2235
経	-2236
藤	-2237
電	-2238
放	-2239
慣	-2240
連	-2241
混	-2242
オ	-2243
デ	-2244
ノ	-2245
帰	-2246
形	-2247
念	-2248
流	-2249
熱	-2250
消	-2251
断	-2252
服	-2253
ダ	-2254
伸	-2255
負	-2256
備	-2257
半	-2258
品	-2259
転	-2260
奇	-2261
謝	-2262
代	-2263
差	-2264
成	-2265
十	-2266
員	-2267
ズ	-2268
越	-2269
降	-2270
姉	-2271
点	-2272
談	-2273
吸	-2274
勉	-2275
勢	-2276
武	-2277
赤	-2278
役	-2279
渡	-2280
岩	-2281
可	-2282
平	-2283
訳	-2284
幸	-2285
似	-2286
側	-2287
男	-2288
台	-2289
死	-2290
準	-2291
秀	-2292
車	-2293
ゲ	-2294
願	-2295
在	-2296
首	-2297
悲	-2298
名	-2299
快	-2300
恐	-2301
耳	-2302
速	-2303
野	-2304
院	-2305
芸	-2306
途	-2307
階	-2308
井	-2309
倒	-2310
愛	-2311
論	-2312
乱	-2313
欲	-2314
細	-2315
験	-2316
ガ	-2317
広	-2318
雨	-2319
像	-2320
木	-2321
傷	-2322
戦	-2323
語	-2324
邪	-2325
散	-2326
望	-2327
構	-2328
冷	-2329
束	-2330
窓	-2331
約	-2332
試	-2333
天	-2334
水	-2335
エ	-2336
ワ	-2337
加	-2338
微	-2339
眼	-2340
組	-2341
街	-2342
薬	-2343
余	-2344
再	-2345
冗	-2346
果	-2347
箱	-2348
剣	-2349
夢	-2350
揺	-2351
科	-2352
存	-2353
端	-2354
腰	-2355
努	-2356
景	-2357
短	-2358
習	-2359
雰	-2360
払	-2361
暗	-2362
礼	-2363
怖	-2364
月	-2365
母	-2366
モ	-2367
嬉	-2368
居	-2369
恥	-2370
議	-2371
固	-2372
陽	-2373
ハ	-2374
喜	-2375
投	-2376
緊	-2377
舞	-2378
ギ	-2379
セ	-2380
屈	-2381
観	-2382
保	-2383
夕	-2384
字	-2385
格	-2386
課	-2387
仲	-2388
告	-2389
比	-2390
激	-2391
隣	-2392
ネ	-2393
主	-2394
交	-2395
頬	-2396
魔	-2397
惑	-2398
椅	-2399
疑	-2400
叩	-2401
法	-2402
鏡	-2403
ソ	-2404
距	-2405
飯	-2406
義	-2407
類	-2408
ゴ	-2409
練	-2410
具	-2411
眉	-2412
並	-2413
響	-2414
制	-2415
常	-2416
床	-2417
料	-2418
秒	-2419
避	-2420
町	-2421
ぬ	-2422
忙	-2423
掛	-2424
父	-2425
紅	-2426
裏	-2427
夏	-2428
影	-2429
案	-2430
肉	-2431
障	-2432
塚	-2433
密	-2434
示	-2435
詰	-2436
辺	-2437
器	-2438
困	-2439
族	-2440
門	-2441
雑	-2442
客	-2443
海	-2444
筋	-2445
ぁ	-2446
奴	-2447
我	-2448
唇	-2449
害	-2450
毎	-2451
減	-2452
退	-2453
駄	-2454
察	-2455
鼻	-2456
化	-2457
右	-2458
宮	-2459
技	-2460
整	-2461
競	-2462
荷	-2463
折	-2464
曜	-2465
供	-2466
割	-2467
労	-2468
医	-2469
握	-2470
柔	-2471
記	-2472
ヒ	-2473
穏	-2474
覆	-2475
誘	-2476
花	-2477
抑	-2478
済	-2479
火	-2480
黒	-2481
任	-2482
危	-2483
暮	-2484
送	-2485
震	-2486
包	-2487
三	-2488
命	-2489
移	-2490
舎	-2491
駆	-2492
５	-2493
僕	-2494
公	-2495
照	-2496
遊	-2497
量	-2498
４	-2499
住	-2500
務	-2501
滑	-2502
証	-2503
青	-2504
馬	-2505
ゼ	-2506
容	-2507
弱	-2508
支	-2509
適	-2510
頑	-2511
午	-2512
弁	-2513
昔	-2514
求	-2515
耐	-2516
責	-2517
鹿	-2518
丸	-2519
判	-2520
刻	-2521
届	-2522
左	-2523
脱	-2524
釣	-2525
埋	-2526
展	-2527
神	-2528
袋	-2529
誕	-2530
跡	-2531
働	-2532
儀	-2533
共	-2534
秘	-2535
ぴ	-2536
ヤ	-2537
介	-2538
吹	-2539
奮	-2540
留	-2541
純	-2542
争	-2543
低	-2544
寂	-2545
接	-2546
路	-2547
与	-2548
借	-2549
売	-2550
旅	-2551
染	-2552
独	-2553
騒	-2554
例	-2555
厳	-2556
嘘	-2557
士	-2558
宿	-2559
曲	-2560
治	-2561
象	-2562
険	-2563
ホ	-2564
壊	-2565
守	-2566
師	-2567
怪	-2568
替	-2569
眺	-2570
破	-2571
除	-2572
利	-2573
和	-2574
太	-2575
帯	-2576
拶	-2577
挨	-2578
毛	-2579
肌	-2580
踏	-2581
増	-2582
建	-2583
ァ	-2584
古	-2585
庭	-2586
汗	-2587
缶	-2588
角	-2589
社	-2590
鍵	-2591
値	-2592
吐	-2593
有	-2594
脇	-2595
薄	-2596
逆	-2597
ォ	-2598
位	-2599
傾	-2600
印	-2601
尽	-2602
巻	-2603
式	-2604
杖	-2605
枚	-2606
棚	-2607
浴	-2608
貴	-2609
射	-2610
底	-2611
申	-2612
皮	-2613
積	-2614
衝	-2615
効	-2616
末	-2617
羽	-2618
刺	-2619
堂	-2620
報	-2621
温	-2622
許	-2623
迷	-2624
陸	-2625
価	-2626
個	-2627
卒	-2628
布	-2629
康	-2630
悩	-2631
愉	-2632
撃	-2633
暇	-2634
未	-2635
程	-2636
締	-2637
装	-2638
輝	-2639
迎	-2640
将	-2641
悔	-2642
慢	-2643
抗	-2644
板	-2645
英	-2646
ゅ	-2647
ザ	-2648
収	-2649
慎	-2650
憶	-2651
殺	-2652
筆	-2653
繰	-2654
陰	-2655
頃	-2656
・	-2657
件	-2658
匂	-2659
号	-2660
晴	-2661
登	-2662
級	-2663
草	-2664
血	-2665
衣	-2666
則	-2667
延	-2668
戸	-2669
極	-2670
泣	-2671
種	-2672
第	-2673
遣	-2674
提	-2675
携	-2676
故	-2677
暖	-2678
脚	-2679
五	-2680
列	-2681
国	-2682
奥	-2683
恋	-2684
職	-2685
跳	-2686
辛	-2687
都	-2688
釈	-2689
参	-2690
材	-2691
根	-2692
焼	-2693
納	-2694
覧	-2695
護	-2696
ぷ	-2697
喫	-2698
為	-2699
珍	-2700
西	-2701
雲	-2702
択	-2703
敗	-2704
涙	-2705
爆	-2706
異	-2707
皿	-2708
精	-2709
規	-2710
円	-2711
原	-2712
否	-2713
挑	-2714
捨	-2715
控	-2716
敵	-2717
漏	-2718
濡	-2719
縮	-2720
若	-2721
誇	-2722
郎	-2723
勘	-2724
導	-2725
杯	-2726
欠	-2727
璧	-2728
罪	-2729
育	-2730
委	-2731
尋	-2732
挙	-2733
隅	-2734
順	-2735
６	-2736
便	-2737
悟	-2738
永	-2739
狂	-2740
荒	-2741
諦	-2742
辞	-2743
非	-2744
香	-2745
骨	-2746
境	-2747
孤	-2748
寺	-2749
崩	-2750
沢	-2751
測	-2752
緑	-2753
丁	-2754
写	-2755
唯	-2756
奪	-2757
招	-2758
映	-2759
派	-2760
砂	-2761
貸	-2762
酒	-2763
到	-2764
暑	-2765
鋭	-2766
駒	-2767
ヶ	-2768
乾	-2769
型	-2770
撫	-2771
星	-2772
看	-2773
繊	-2774
製	-2775
扱	-2776
敷	-2777
権	-2778
率	-2779
脳	-2780
超	-2781
飾	-2782
ぇ	-2783
圧	-2784
己	-2785
憂	-2786
拒	-2787
晩	-2788
漂	-2789
盗	-2790
紹	-2791
舌	-2792
額	-2793
停	-2794
叫	-2795
土	-2796
垂	-2797
才	-2798
瓶	-2799
警	-2800
鮮	-2801
鼓	-2802
処	-2803
帳	-2804
従	-2805
抵	-2806
推	-2807
狙	-2808
球	-2809
症	-2810
絡	-2811
至	-2812
趣	-2813
酔	-2814
鳥	-2815
傘	-2816
功	-2817
含	-2818
寒	-2819
寧	-2820
拾	-2821
捕	-2822
皆	-2823
縁	-2824
芝	-2825
迫	-2826
闇	-2827
史	-2828
喋	-2829
尻	-2830
慮	-2831
暴	-2832
標	-2833
毒	-2834
盤	-2835
祝	-2836
粋	-2837
脈	-2838
訪	-2839
費	-2840
鉛	-2841
陥	-2842
８	-2843
丘	-2844
仮	-2845
句	-2846
因	-2847
属	-2848
担	-2849
歳	-2850
湯	-2851
石	-2852
覗	-2853
詳	-2854
賭	-2855
造	-2856
鬱	-2857
団	-2858
基	-2859
堵	-2860
塗	-2861
封	-2862
徐	-2863
攻	-2864
洗	-2865
滅	-2866
烈	-2867
績	-2868
膨	-2869
販	-2870
輪	-2871
黄	-2872
偶	-2873
北	-2874
厄	-2875
咳	-2876
善	-2877
噛	-2878
復	-2879
歌	-2880
演	-2881
筒	-2882
群	-2883
肢	-2884
隙	-2885
及	-2886
司	-2887
尊	-2888
巡	-2889
志	-2890
怠	-2891
慰	-2892
憩	-2893
拭	-2894
池	-2895
甘	-2896
継	-2897
胆	-2898
芽	-2899
診	-2900
魅	-2901
七	-2902
凝	-2903
懸	-2904
模	-2905
歴	-2906
溜	-2907
焦	-2908
盛	-2909
禁	-2910
算	-2911
紛	-2912
虚	-2913
謀	-2914
隔	-2915
ヘ	-2916
万	-2917
企	-2918
揚	-2919
敬	-2920
械	-2921
灰	-2922
節	-2923
膝	-2924
複	-2925
評	-2926
謎	-2927
資	-2928
忍	-2929
森	-2930
犯	-2931
環	-2932
硬	-2933
穴	-2934
索	-2935
補	-2936
酷	-2937
頂	-2938
７	-2939
冊	-2940
励	-2941
喧	-2942
弾	-2943
律	-2944
挟	-2945
汚	-2946
波	-2947
灯	-2948
猫	-2949
裸	-2950
透	-2951
鈍	-2952
－	-2953
ぅ	-2954
倍	-2955
勇	-2956
坂	-2957
堅	-2958
巨	-2959
幅	-2960
把	-2961
拠	-2962
損	-2963
札	-2964
歯	-2965
殴	-2966
油	-2967
煙	-2968
瞳	-2969
粒	-2970
緩	-2971
臭	-2972
袖	-2973
這	-2974
遂	-2975
令	-2976
児	-2977
房	-2978
拍	-2979
換	-2980
枕	-2981
浸	-2982
潜	-2983
犬	-2984
票	-2985
紳	-2986
誤	-2987
贈	-2988
闘	-2989
露	-2990
乳	-2991
叱	-2992
四	-2993
専	-2994
彩	-2995
掴	-2996
救	-2997
液	-2998
添	-2999
溶	-3000
燃	-3001
盲	-3002
等	-3003
蝶	-3004
裕	-3005
褒	-3006
遮	-3007
郭	-3008
郵	-3009
針	-3010
靴	-3011
─	-3012
厚	-3013
商	-3014
墓	-3015
妹	-3016
威	-3017
娘	-3018
慌	-3019
懐	-3020
曇	-3021
柄	-3022
検	-3023
甲	-3024
福	-3025
範	-3026
綺	-3027
翌	-3028
釘	-3029
録	-3030
麗	-3031
（	-3032
）	-3033
仰	-3034
冒	-3035
凍	-3036
副	-3037
却	-3038
呆	-3039
宙	-3040
干	-3041
愚	-3042
操	-3043
睡	-3044
縛	-3045
辱	-3046
防	-3047
雪	-3048
飽	-3049
?	-3050
伏	-3051
偽	-3052
凡	-3053
即	-3054
庫	-3055
揃	-3056
撮	-3057
更	-3058
概	-3059
歓	-3060
淡	-3061
渋	-3062
湿	-3063
癖	-3064
箸	-3065
老	-3066
股	-3067
脅	-3068
船	-3069
設	-3070
蹴	-3071
遇	-3072
ぺ	-3073
充	-3074
刀	-3075
勧	-3076
希	-3077
弟	-3078
掲	-3079
改	-3080
敏	-3081
既	-3082
条	-3083
核	-3084
棒	-3085
沿	-3086
湧	-3087
濃	-3088
牛	-3089
療	-3090
矢	-3091
詮	-3092
請	-3093
諸	-3094
賛	-3095
軍	-3096
９	-3097
ぃ	-3098
了	-3099
促	-3100
修	-3101
協	-3102
唐	-3103
履	-3104
川	-3105
巧	-3106
市	-3107
幕	-3108
据	-3109
昇	-3110
析	-3111
氏	-3112
没	-3113
涼	-3114
滞	-3115
狭	-3116
粗	-3117
臆	-3118
詞	-3119
財	-3120
躍	-3121
載	-3122
鉄	-3123
雷	-3124
馴	-3125
亡	-3126
創	-3127
噂	-3128
工	-3129
帽	-3130
戒	-3131
擁	-3132
泳	-3133
浅	-3134
爪	-3135
猛	-3136
百	-3137
系	-3138
罰	-3139
聴	-3140
茨	-3141
襲	-3142
討	-3143
逸	-3144
e	-3145
侮	-3146
傍	-3147
催	-3148
兆	-3149
冬	-3150
営	-3151
域	-3152
官	-3153
恵	-3154
患	-3155
枝	-3156
査	-3157
洋	-3158
渇	-3159
潔	-3160
熟	-3161
省	-3162
究	-3163
竿	-3164
絞	-3165
繁	-3166
罠	-3167
翻	-3168
肝	-3169
裁	-3170
裂	-3171
豊	-3172
錠	-3173
閃	-3174
頓	-3175
齢	-3176
o	-3177
ユ	-3178
倉	-3179
候	-3180
六	-3181
劣	-3182
勤	-3183
千	-3184
哀	-3185
喘	-3186
嘆	-3187
執	-3188
嬢	-3189
忠	-3190
怯	-3191
捉	-3192
掃	-3193
擦	-3194
泥	-3195
滴	-3196
澄	-3197
田	-3198
綿	-3199
繋	-3200
講	-3201
賞	-3202
賢	-3203
頻	-3204
館	-3205
t	-3206
ヴ	-3207
刑	-3208
剤	-3209
区	-3210
奏	-3211
崎	-3212
御	-3213
春	-3214
栄	-3215
歪	-3216
泊	-3217
渦	-3218
港	-3219
溝	-3220
潤	-3221
祈	-3222
策	-3223
腐	-3224
苛	-3225
菓	-3226
葛	-3227
蒸	-3228
衆	-3229
被	-3230
誓	-3231
賊	-3232
遺	-3233
鈴	-3234
鍛	-3235
隊	-3236
預	-3237
n	-3238
r	-3239
ぉ	-3240
偉	-3241
兵	-3242
吊	-3243
坊	-3244
央	-3245
宅	-3246
宣	-3247
寛	-3248
幻	-3249
惨	-3250
惹	-3251
抽	-3252
掘	-3253
揮	-3254
施	-3255
棟	-3256
樹	-3257
殻	-3258
清	-3259
王	-3260
略	-3261
痴	-3262
矛	-3263
砕	-3264
祖	-3265
稼	-3266
窮	-3267
章	-3268
糸	-3269
胃	-3270
般	-3271
茂	-3272
褐	-3273
訓	-3274
訛	-3275
貼	-3276
較	-3277
銭	-3278
錯	-3279
鐘	-3280
雅	-3281
領	-3282
駅	-3283
麻	-3284
a	-3285
侵	-3286
傲	-3287
刷	-3288
劇	-3289
卓	-3290
占	-3291
卵	-3292
吉	-3293
呂	-3294
哲	-3295
妄	-3296
妬	-3297
宇	-3298
寸	-3299
彫	-3300
徴	-3301
慨	-3302
扉	-3303
承	-3304
政	-3305
橋	-3306
殊	-3307
汁	-3308
熊	-3309
疾	-3310
監	-3311
稽	-3312
管	-3313
糖	-3314
致	-3315
荘	-3316
蓋	-3317
訊	-3318
銀	-3319
鎖	-3320
陶	-3321
麦	-3322
麺	-3323
2	-3324
偏	-3325
免	-3326
典	-3327
喩	-3328
嘲	-3329
城	-3330
嫉	-3331
幹	-3332
惚	-3333
捜	-3334
援	-3335
旦	-3336
易	-3337
枠	-3338
架	-3339
民	-3340
潮	-3341
燥	-3342
献	-3343
玄	-3344
痕	-3345
痺	-3346
研	-3347
築	-3348
紺	-3349
給	-3350
統	-3351
織	-3352
肘	-3353
蔵	-3354
虫	-3355
衛	-3356
訝	-3357
訴	-3358
誌	-3359
誠	-3360
豪	-3361
貢	-3362
貫	-3363
赦	-3364
遭	-3365
鋲	-3366
革	-3367
魂	-3368
鶴	-3369
*	-3370
u	-3371
兼	-3372
冠	-3373
凧	-3374
匹	-3375
卑	-3376
南	-3377
各	-3378
唖	-3379
唱	-3380
噌	-3381
噪	-3382
噴	-3383
均	-3384
埃	-3385
塊	-3386
奢	-3387
妨	-3388
婚	-3389
尾	-3390
層	-3391
島	-3392
幼	-3393
往	-3394
徹	-3395
愁	-3396
憐	-3397
憤	-3398
桂	-3399
汰	-3400
沙	-3401
浪	-3402
淹	-3403
源	-3404
漠	-3405
潰	-3406
瀬	-3407
炎	-3408
炭	-3409
版	-3410
玉	-3411
瞥	-3412
瞭	-3413
砲	-3414
磨	-3415
粉	-3416
絆	-3417
縦	-3418
腿	-3419
膚	-3420
襟	-3421
託	-3422
讐	-3423
躇	-3424
躊	-3425
郷	-3426
酸	-3427
雄	-3428
霊	-3429
鞄	-3430
養	-3431
S	-3432
l	-3433
—	-3434
ヨ	-3435
依	-3436
偵	-3437
兄	-3438
克	-3439
凄	-3440
券	-3441
厨	-3442
召	-3443
呑	-3444
咲	-3445
唾	-3446
喝	-3447
嗅	-3448
塞	-3449
婦	-3450
季	-3451
宝	-3452
就	-3453
巣	-3454
序	-3455
廃	-3456
征	-3457
恩	-3458
悸	-3459
戚	-3460
拳	-3461
捻	-3462
摘	-3463
攣	-3464
斉	-3465
昧	-3466
曖	-3467
柱	-3468
棋	-3469
津	-3470
渉	-3471
漁	-3472
漫	-3473
瀕	-3474
炊	-3475
狼	-3476
畳	-3477
疎	-3478
痙	-3479
盾	-3480
督	-3481
符	-3482
米	-3483
維	-3484
聾	-3485
肖	-3486
肺	-3487
脂	-3488
菜	-3489
著	-3490
虹	-3491
謙	-3492
譲	-3493
贅	-3494
踊	-3495
轟	-3496
述	-3497
鉢	-3498
頷	-3499
餌	-3500
Ｖ	-3501
d	-3502
s	-3503
ゾ	-3504
丼	-3505
些	-3506
京	-3507
伴	-3508
僧	-3509
刃	-3510
刈	-3511
剰	-3512
募	-3513
呟	-3514
坦	-3515
堪	-3516
塩	-3517
奔	-3518
妥	-3519
富	-3520
嵐	-3521
幽	-3522
幾	-3523
徳	-3524
恨	-3525
惜	-3526
愕	-3527
憎	-3528
批	-3529
披	-3530
拡	-3531
挿	-3532
摩	-3533
敢	-3534
旋	-3535
旺	-3536
桃	-3537
植	-3538
檻	-3539
欺	-3540
沸	-3541
泡	-3542
洒	-3543
滝	-3544
煌	-3545
牲	-3546
犠	-3547
獄	-3548
獲	-3549
珀	-3550
琥	-3551
産	-3552
痩	-3553
益	-3554
瞑	-3555
碑	-3556
秩	-3557
稿	-3558
綱	-3559
網	-3560
総	-3561
編	-3562
羅	-3563
翼	-3564
肯	-3565
脆	-3566
臨	-3567
茫	-3568
詫	-3569
誉	-3570
謹	-3571
貨	-3572
軋	-3573
軌	-3574
軒	-3575
農	-3576
遥	-3577
邸	-3578
醜	-3579
醸	-3580
采	-3581
銃	-3582
銘	-3583
阻	-3584
陣	-3585
陳	-3586
隷	-3587
雇	-3588
飼	-3589
駈	-3590
騎	-3591
鬼	-3592
Ａ	-3593
.	-3594
4	-3595
5	-3596
C	-3597
h	-3598
i	-3599
云	-3600
伺	-3601
倫	-3602
億	-3603
償	-3604
几	-3605
削	-3606
吟	-3607
唸	-3608
囚	-3609
壇	-3610
壮	-3611
岸	-3612
弄	-3613
彰	-3614
忌	-3615
恰	-3616
惰	-3617
拝	-3618
排	-3619
摯	-3620
撤	-3621
斜	-3622
斬	-3623
東	-3624
林	-3625
梳	-3626
毅	-3627
氷	-3628
浦	-3629
湖	-3630
濯	-3631
炒	-3632
煩	-3633
煮	-3634
狡	-3635
狽	-3636
猾	-3637
猿	-3638
珠	-3639
畑	-3640
痢	-3641
睨	-3642
碧	-3643
磁	-3644
窒	-3645
篤	-3646
簿	-3647
籍	-3648
綴	-3649
縄	-3650
縞	-3651
署	-3652
罵	-3653
羊	-3654
聖	-3655
肋	-3656
膏	-3657
膜	-3658
舐	-3659
芯	-3660
芳	-3661
芻	-3662
菌	-3663
董	-3664
蔑	-3665
蘇	-3666
虐	-3667
蛍	-3668
蝕	-3669
融	-3670
袈	-3671
裟	-3672
詐	-3673
詩	-3674
諭	-3675
諾	-3676
豆	-3677
貌	-3678
貧	-3679
貯	-3680
践	-3681
踵	-3682
軟	-3683
輩	-3684
逐	-3685
遜	-3686
醒	-3687
鎮	-3688
閑	-3689
需	-3690
霧	-3691
項	-3692
顎	-3693
飢	-3694
飴	-3695
馳	-3696
駐	-3697
鹸	-3698
．	-3699
：	-3700
M	-3701
v	-3702
×	-3703
」	-3704
丹	-3705
乙	-3706
仁	-3707
僅	-3708
僚	-3709
儲	-3710
八	-3711
冴	-3712
剥	-3713
勃	-3714
双	-3715
吠	-3716
呪	-3717
咀	-3718
啓	-3719
喚	-3720
喪	-3721
嚇	-3722
嚼	-3723
囁	-3724
垣	-3725
埼	-3726
塵	-3727
如	-3728
妊	-3729
娯	-3730
孫	-3731
宛	-3732
宵	-3733
審	-3734
庇	-3735
弧	-3736
彙	-3737
循	-3738
恍	-3739
恒	-3740
悠	-3741
悦	-3742
悶	-3743
慈	-3744
憫	-3745
懇	-3746
戯	-3747
抹	-3748
拐	-3749
拗	-3750
拷	-3751
採	-3752
擬	-3753
斐	-3754
斧	-3755
旧	-3756
昏	-3757
暢	-3758
朗	-3759
朦	-3760
朧	-3761
朱	-3762
朴	-3763
松	-3764
桜	-3765
桟	-3766
槌	-3767
江	-3768
沌	-3769
涯	-3770
涸	-3771
淵	-3772
溢	-3773
溺	-3774
漢	-3775
災	-3776
煽	-3777
牙	-3778
牢	-3779
狩	-3780
珊	-3781
瑚	-3782
畏	-3783
疫	-3784
瘍	-3785
癒	-3786
碁	-3787
称	-3788
稀	-3789
税	-3790
稚	-3791
笛	-3792
箇	-3793
箋	-3794
粛	-3795
粧	-3796
糊	-3797
紀	-3798
紐	-3799
紫	-3800
緯	-3801
繕	-3802
罫	-3803
耗	-3804
聡	-3805
胴	-3806
腫	-3807
膠	-3808
航	-3809
艦	-3810
苺	-3811
萎	-3812
薦	-3813
薪	-3814
虜	-3815
蚊	-3816
蛇	-3817
衡	-3818
裾	-3819
訂	-3820
谷	-3821
賃	-3822
賑	-3823
踪	-3824
軸	-3825
輸	-3826
迂	-3827
逢	-3828
邁	-3829
還	-3830
那	-3831
郊	-3832
醤	-3833
銅	-3834
鋼	-3835
鑑	-3836
随	-3837
髄	-3838
％	-3839
Ｂ	-3840
Ｕ	-3841
'	-3842
(	-3843
)	-3844
,	-3845
1	-3846
6	-3847
7	-3848
:	-3849
<	-3850
>	-3851
A	-3852
B	-3853
D	-3854
G	-3855
H	-3856
I	-3857
K	-3858
N	-3859
O	-3860
P	-3861
c	-3862
k	-3863
p	-3864
q	-3865
y	-3866
○	-3867
「	-3868
〜	-3869
ぢ	-3870
ヅ	-3871
ヵ	-3872
串	-3873
乏	-3874
乞	-3875
亀	-3876
亜	-3877
仇	-3878
仏	-3879
伐	-3880
併	-3881
俵	-3882
倦	-3883
傑	-3884
凶	-3885
凸	-3886
凹	-3887
刹	-3888
劫	-3889
匿	-3890
博	-3891
叶	-3892
呈	-3893
咎	-3894
唆	-3895
喉	-3896
喰	-3897
嚙	-3898
圏	-3899
垢	-3900
堕	-3901
堰	-3902
塀	-3903
塔	-3904
墟	-3905
壕	-3906
奉	-3907
契	-3908
奨	-3909
妻	-3910
姦	-3911
姪	-3912
姫	-3913
媒	-3914
宗	-3915
尖	-3916
尚	-3917
尺	-3918
崇	-3919
崗	-3920
帆	-3921
帝	-3922
府	-3923
廉	-3924
弓	-3925
弛	-3926
彷	-3927
彿	-3928
径	-3929
慕	-3930
憧	-3931
懲	-3932
懺	-3933
拓	-3934
拘	-3935
挫	-3936
捗	-3937
捧	-3938
掌	-3939
掩	-3940
掻	-3941
揉	-3942
搬	-3943
撒	-3944
旬	-3945
昂	-3946
是	-3947
晒	-3948
晰	-3949
晶	-3950
曰	-3951
朽	-3952
枯	-3953
柵	-3954
栓	-3955
栞	-3956
株	-3957
桶	-3958
梅	-3959
梢	-3960
棄	-3961
棺	-3962
楕	-3963
楚	-3964
槍	-3965
樫	-3966
橙	-3967
櫛	-3968
汲	-3969
沼	-3970
泄	-3971
泉	-3972
泰	-3973
洞	-3974
洩	-3975
洪	-3976
浜	-3977
淀	-3978
淫	-3979
滓	-3980
滲	-3981
漕	-3982
漬	-3983
濁	-3984
熾	-3985
牧	-3986
狗	-3987
猜	-3988
猟	-3989
猥	-3990
猪	-3991
玩	-3992
甦	-3993
疼	-3994
痰	-3995
癪	-3996
盪	-3997
眩	-3998
瞞	-3999
砦	-4000
礎	-4001
祥	-4002
禅	-4003
禽	-4004
穂	-4005
穫	-4006
窃	-4007
窟	-4008
竜	-4009
童	-4010
竹	-4011
篩	-4012
粘	-4013
糞	-4014
糾	-4015
絹	-4016
纏	-4017
羞	-4018
羨	-4019
胞	-4020
腑	-4021
腔	-4022
膳	-4023
舗	-4024
舵	-4025
艶	-4026
莫	-4027
葬	-4028
葵	-4029
蒼	-4030
蓄	-4031
蔽	-4032
虎	-4033
蛙	-4034
蜂	-4035
蜜	-4036
蝉	-4037
蠱	-4038
衰	-4039
衷	-4040
褻	-4041
覇	-4042
訣	-4043
諜	-4044
謳	-4045
豹	-4046
貝	-4047
貞	-4048
貰	-4049
賜	-4050
購	-4051
辣	-4052
迅	-4053
逝	-4054
酬	-4055
里	-4056
釜	-4057
錆	-4058
鍋	-4059
鍮	-4060
阪	-4061
隈	-4062
雛	-4063
零	-4064
靡	-4065
顕	-4066
餃	-4067
餅	-4068
餞	-4069
騙	-4070
騰	-4071
骸	-4072
鯉	-4073
鯨	-4074
鳩	-4075
／	-4076
＝	-4077
Ｄ	-4078
Ｅ	-4079
Ｆ	-4080
Ｇ	-4081
Ｋ	-4082
Ｌ	-4083
Ｍ	-4084
Ｎ	-4085
Ｏ	-4086
Ｓ	-4087
Ｔ	-4088
ｄ	-4089
ｅ	-4090
ｆ	-4091
ｈ	-4092
ｏ	-4093
